/* Copyright 2018 The TensorFlow Authors. All Rights Reserved.

Licensed under the Apache License, Version 2.0 (the "License");
you may not use this file except in compliance with the License.
You may obtain a copy of the License at

    http://www.apache.org/licenses/LICENSE-2.0

Unless required by applicable law or agreed to in writing, software
distributed under the License is distributed on an "AS IS" BASIS,
WITHOUT WARRANTIES OR CONDITIONS OF ANY KIND, either express or implied.
See the License for the specific language governing permissions and
limitations under the License.
==============================================================================*/

// Automatically created from a TensorFlow Lite flatbuffer using the command:
// xxd -i tiny_conv.tflite > tiny_conv_simple_features_model_data.cc
// See the README for a full description of the creation process.

#include "tiny_conv_micro_features_model_data.h"

// We need to keep the data array aligned on some architectures.
#ifdef __has_attribute
#define HAVE_ATTRIBUTE(x) __has_attribute(x)
#else
#define HAVE_ATTRIBUTE(x) 0
#endif
#if HAVE_ATTRIBUTE(aligned) || (defined(__GNUC__) && !defined(__clang__))
#define DATA_ALIGN_ATTRIBUTE __attribute__((aligned(4)))
#else
#define DATA_ALIGN_ATTRIBUTE
#endif

const unsigned char
    g_tiny_conv_micro_features_model_data[] DATA_ALIGN_ATTRIBUTE = {
  0x1c, 0x00, 0x00, 0x00, 0x54, 0x46, 0x4c, 0x33, 0x00, 0x00, 0x00, 0x00,
  0x00, 0x00, 0x0e, 0x00, 0x18, 0x00, 0x04, 0x00, 0x08, 0x00, 0x0c, 0x00,
  0x10, 0x00, 0x14, 0x00, 0x0e, 0x00, 0x00, 0x00, 0x03, 0x00, 0x00, 0x00,
  0xcc, 0x46, 0x00, 0x00, 0x0c, 0x00, 0x00, 0x00, 0x10, 0x00, 0x00, 0x00,
  0x20, 0x00, 0x00, 0x00, 0x01, 0x00, 0x00, 0x00, 0x74, 0x00, 0x00, 0x00,
  0x0f, 0x00, 0x00, 0x00, 0x54, 0x4f, 0x43, 0x4f, 0x20, 0x43, 0x6f, 0x6e,
  0x76, 0x65, 0x72, 0x74, 0x65, 0x64, 0x2e, 0x00, 0x09, 0x00, 0x00, 0x00,
  0x54, 0x00, 0x00, 0x00, 0x48, 0x00, 0x00, 0x00, 0x3c, 0x00, 0x00, 0x00,
  0x34, 0x00, 0x00, 0x00, 0x2c, 0x00, 0x00, 0x00, 0x24, 0x00, 0x00, 0x00,
  0x18, 0x00, 0x00, 0x00, 0x10, 0x00, 0x00, 0x00, 0x04, 0x00, 0x00, 0x00,
  0x4e, 0xba, 0xff, 0xff, 0x10, 0x01, 0x00, 0x00, 0xfc, 0xb9, 0xff, 0xff,
  0x5a, 0xba, 0xff, 0xff, 0x88, 0x40, 0x00, 0x00, 0x08, 0xba, 0xff, 0xff,
  0x0c, 0xba, 0xff, 0xff, 0x10, 0xba, 0xff, 0xff, 0x6e, 0xba, 0xff, 0xff,
  0xa4, 0x44, 0x00, 0x00, 0x76, 0xba, 0xff, 0xff, 0x30, 0x45, 0x00, 0x00,
  0x24, 0xba, 0xff, 0xff, 0x00, 0xbc, 0xff, 0xff, 0x20, 0x00, 0x00, 0x00,
  0x14, 0x00, 0x00, 0x00, 0x08, 0x00, 0x00, 0x00, 0x2c, 0x45, 0x00, 0x00,
  0x01, 0x00, 0x00, 0x00, 0x05, 0x00, 0x00, 0x00, 0x01, 0x00, 0x00, 0x00,
  0x03, 0x00, 0x00, 0x00, 0x08, 0x00, 0x00, 0x00, 0x1c, 0x44, 0x00, 0x00,
  0x9c, 0x44, 0x00, 0x00, 0x34, 0x3f, 0x00, 0x00, 0xb4, 0x42, 0x00, 0x00,
  0x24, 0x43, 0x00, 0x00, 0x8c, 0x43, 0x00, 0x00, 0x94, 0x3f, 0x00, 0x00,
  0x04, 0x00, 0x00, 0x00, 0x8e, 0xbb, 0xff, 0xff, 0x00, 0x00, 0x00, 0x03,
  0x10, 0x00, 0x00, 0x00, 0x08, 0x00, 0x00, 0x00, 0x14, 0x00, 0x00, 0x00,
  0x48, 0x00, 0x00, 0x00, 0x02, 0x00, 0x00, 0x00, 0x04, 0x00, 0x00, 0x00,
  0xa0, 0x0f, 0x00, 0x00, 0x31, 0x00, 0x00, 0x00, 0x77, 0x65, 0x69, 0x67,
  0x68, 0x74, 0x73, 0x5f, 0x71, 0x75, 0x61, 0x6e, 0x74, 0x5f, 0x31, 0x2f,
  0x46, 0x61, 0x6b, 0x65, 0x51, 0x75, 0x61, 0x6e, 0x74, 0x57, 0x69, 0x74,
  0x68, 0x4d, 0x69, 0x6e, 0x4d, 0x61, 0x78, 0x56, 0x61, 0x72, 0x73, 0x2f,
  0x74, 0x72, 0x61, 0x6e, 0x73, 0x70, 0x6f, 0x73, 0x65, 0x00, 0x00, 0x00,
  0xa4, 0xbc, 0xff, 0xff, 0x30, 0x00, 0x00, 0x00, 0x24, 0x00, 0x00, 0x00,
  0x18, 0x00, 0x00, 0x00, 0x04, 0x00, 0x00, 0x00, 0x01, 0x00, 0x00, 0x00,
  0x83, 0x00, 0x00, 0x00, 0x00, 0x00, 0x00, 0x00, 0x00, 0x00, 0x00, 0x00,
  0x01, 0x00, 0x00, 0x00, 0x00, 0xdb, 0xda, 0x39, 0x01, 0x00, 0x00, 0x00,
  0xf8, 0x36, 0x53, 0x3d, 0x01, 0x00, 0x00, 0x00, 0x9c, 0x13, 0x5f, 0xbd,
  0x80, 0x3e, 0x00, 0x00, 0x7b, 0x73, 0x75, 0xd4, 0xa2, 0x7e, 0x98, 0x56,
  0x46, 0x8a, 0x84, 0x69, 0x8d, 0x6b, 0x9c, 0x90, 0x3a, 0x6e, 0xb8, 0xa1,
  0xa2, 0x85, 0xa1, 0x70, 0x55, 0x74, 0x9a, 0x8f, 0x79, 0x88, 0x8c, 0x79,
  0x59, 0x77, 0x7c, 0x77, 0x8b, 0xa9, 0x73, 0x67, 0x89, 0x9a, 0x6d, 0x69,
  0x6d, 0x83, 0x5e, 0x80, 0x58, 0x74, 0xa5, 0x88, 0x80, 0x89, 0xb6, 0x8c,
  0x3b, 0x78, 0x71, 0x7a, 0x83, 0x70, 0x98, 0x7e, 0x4f, 0x6e, 0x74, 0x94,
  0xa7, 0x86, 0x95, 0x8e, 0x67, 0x9f, 0x9e, 0xa5, 0x8e, 0x92, 0x73, 0x92,
  0x76, 0x87, 0x61, 0x93, 0x91, 0x6b, 0x68, 0x83, 0x5e, 0xa3, 0x88, 0x9c,
  0x96, 0x66, 0x9e, 0x91, 0x6b, 0x85, 0x80, 0x85, 0x8a, 0x79, 0x9f, 0x8e,
  0x53, 0x7c, 0x9b, 0x7a, 0x92, 0x94, 0x84, 0xa0, 0x40, 0x86, 0x74, 0x70,
  0x5b, 0x5d, 0x91, 0x78, 0x68, 0xb2, 0x84, 0x91, 0x67, 0x78, 0x9e, 0x8b,
  0x6a, 0x8e, 0x82, 0x7b, 0xa6, 0x71, 0x8c, 0xa4, 0x50, 0x86, 0x6b, 0x73,
  0x93, 0x77, 0x96, 0x97, 0x70, 0xa3, 0x93, 0x96, 0xb9, 0x84, 0x87, 0x84,
  0x8c, 0x67, 0x8c, 0x74, 0x84, 0x73, 0x95, 0x78, 0x54, 0x83, 0x8c, 0xa2,
  0x6d, 0x84, 0x6c, 0x6f, 0x64, 0x8c, 0x81, 0xa6, 0x8d, 0x8a, 0x68, 0x7c,
  0x7f, 0xa3, 0x79, 0x92, 0xb0, 0x8f, 0x89, 0x5b, 0x6f, 0x89, 0x66, 0xab,
  0x82, 0x5e, 0x75, 0x74, 0x4e, 0xa4, 0x7d, 0x66, 0x67, 0xa7, 0x9c, 0x57,
  0x78, 0x9e, 0x95, 0x73, 0x8a, 0xb0, 0x6c, 0x78, 0x8f, 0xa3, 0x97, 0x84,
  0x84, 0x9e, 0x86, 0x63, 0x7c, 0x9c, 0x81, 0x6b, 0x83, 0xa0, 0x9f, 0x6e,
  0x58, 0x7b, 0xb0, 0x70, 0x8e, 0x6a, 0x99, 0x72, 0x6b, 0xa0, 0xa2, 0x76,
  0xa6, 0x87, 0x77, 0x7a, 0x77, 0x6c, 0x99, 0x7b, 0xa4, 0x92, 0x6f, 0x8d,
  0x6a, 0x7e, 0x81, 0x95, 0x8c, 0xa1, 0x6e, 0x79, 0x5f, 0x80, 0x7e, 0x94,
  0x88, 0x9f, 0x7b, 0x80, 0x63, 0x7f, 0x67, 0x87, 0x9d, 0x87, 0x9f, 0x80,
  0x92, 0x67, 0x94, 0x79, 0x84, 0x72, 0x84, 0x71, 0x74, 0x7d, 0x9d, 0x88,
  0x7f, 0x99, 0x94, 0x83, 0x74, 0x88, 0x71, 0x72, 0xa3, 0x98, 0x91, 0x75,
  0x6d, 0x94, 0x94, 0x8f, 0xb3, 0x7a, 0x9b, 0x81, 0x74, 0x9e, 0x89, 0x8e,
  0xa0, 0x93, 0x72, 0xaa, 0x82, 0x90, 0x74, 0x9b, 0x93, 0x7e, 0xa8, 0x9d,
  0x53, 0x8e, 0x89, 0xb4, 0x67, 0x9b, 0x81, 0x43, 0xa3, 0x9b, 0x69, 0x9c,
  0x9d, 0x72, 0x63, 0x49, 0x8a, 0x79, 0xab, 0x59, 0x8a, 0x6d, 0x73, 0x5a,
  0x9b, 0x65, 0xa1, 0x72, 0x75, 0xac, 0x43, 0x81, 0x8e, 0x65, 0x82, 0x96,
  0x6f, 0x61, 0x82, 0x74, 0x9f, 0x72, 0x7a, 0x68, 0x82, 0x9d, 0x73, 0x9d,
  0xb0, 0x8b, 0x9b, 0x72, 0x6e, 0x85, 0x70, 0x6b, 0x89, 0x67, 0x8e, 0xad,
  0x70, 0x98, 0x61, 0x67, 0x88, 0x74, 0x89, 0x64, 0x90, 0xa7, 0x67, 0x95,
  0x9a, 0x7a, 0x89, 0xa8, 0x92, 0x5a, 0x5b, 0x71, 0x7b, 0x83, 0x9b, 0x6e,
  0x8a, 0x6e, 0x8a, 0x68, 0x99, 0xa1, 0x8e, 0x6a, 0x8f, 0x8d, 0x71, 0x86,
  0x85, 0x8f, 0x92, 0x7c, 0x8c, 0x92, 0x93, 0x77, 0x8b, 0xb1, 0x70, 0x81,
  0x6f, 0x8e, 0x96, 0x7c, 0x91, 0x74, 0x9e, 0x9a, 0x89, 0x69, 0xa5, 0x80,
  0x8c, 0x81, 0x95, 0x70, 0x79, 0x6d, 0x9a, 0x58, 0x7a, 0x8e, 0x8a, 0x5a,
  0x97, 0x8f, 0x86, 0x6b, 0x72, 0x8c, 0x91, 0x56, 0xb3, 0x97, 0x7b, 0x5f,
  0x69, 0x89, 0x80, 0x8b, 0x9e, 0x7e, 0x96, 0x6e, 0x9c, 0x9c, 0x7e, 0x84,
  0x8a, 0x6d, 0x77, 0x81, 0x82, 0x8f, 0x53, 0xa4, 0x9d, 0x91, 0x71, 0x61,
  0x93, 0x97, 0x6b, 0x84, 0x70, 0xa7, 0x80, 0x80, 0x98, 0x98, 0x90, 0x7a,
  0x5d, 0x87, 0x80, 0x82, 0x80, 0x70, 0xa3, 0x65, 0x44, 0xa5, 0x88, 0x9b,
  0x9f, 0x6c, 0x6d, 0x77, 0x61, 0x94, 0x51, 0x86, 0x6d, 0x7e, 0xa1, 0x86,
  0x5f, 0xb2, 0x75, 0x7c, 0x89, 0x6f, 0x5d, 0x64, 0x58, 0xaf, 0x6b, 0x92,
  0x9b, 0x68, 0x8a, 0x75, 0x62, 0x96, 0x69, 0x9c, 0x68, 0x8a, 0x67, 0x64,
  0x5c, 0x85, 0x42, 0x81, 0x8b, 0x80, 0x7c, 0x75, 0x64, 0x68, 0x57, 0x71,
  0xa0, 0x7f, 0x9a, 0x97, 0x6c, 0x90, 0x81, 0x5a, 0x90, 0xab, 0x59, 0x6a,
  0x7b, 0xa3, 0x90, 0xa9, 0x8c, 0x83, 0x97, 0x66, 0x65, 0x89, 0x7c, 0x8a,
  0x99, 0x76, 0x93, 0x84, 0x68, 0x79, 0x8c, 0x7a, 0x8c, 0x7e, 0x82, 0x69,
  0x64, 0x72, 0x76, 0x81, 0x8a, 0x68, 0x7f, 0x62, 0x80, 0x97, 0x8c, 0x98,
  0x80, 0x7c, 0x65, 0x88, 0x93, 0x88, 0x71, 0x88, 0x7f, 0x8c, 0x85, 0x9c,
  0x93, 0x9b, 0x9f, 0x95, 0x7b, 0x97, 0x6e, 0x72, 0x85, 0x95, 0x86, 0x9d,
  0x6f, 0x96, 0x84, 0x95, 0x9b, 0xb1, 0x8d, 0xa7, 0x87, 0x90, 0x5f, 0x9f,
  0x8f, 0x8a, 0x7b, 0x87, 0x82, 0x8c, 0x82, 0x71, 0x82, 0x77, 0x76, 0x8d,
  0x9a, 0x66, 0x8f, 0x69, 0x6b, 0x6e, 0x54, 0xa4, 0x77, 0x5b, 0x74, 0x99,
  0x4d, 0x9a, 0x55, 0x83, 0x8b, 0x43, 0x83, 0x6a, 0x4d, 0x96, 0x3a, 0x80,
  0x67, 0x6b, 0x6a, 0x85, 0x4c, 0x7b, 0x42, 0x81, 0xab, 0x77, 0x7e, 0x66,
  0x53, 0x67, 0x5c, 0x9a, 0x83, 0x86, 0x5d, 0x89, 0x47, 0x8d, 0x6a, 0x96,
  0x9c, 0x70, 0x66, 0x5a, 0x61, 0x78, 0x5c, 0x7d, 0xae, 0x7e, 0x89, 0x8f,
  0x65, 0x9e, 0x49, 0xbc, 0x94, 0x8a, 0x58, 0x77, 0x6a, 0x77, 0x6b, 0x79,
  0x7c, 0xa4, 0x61, 0x8e, 0x83, 0x97, 0x7e, 0x9a, 0x95, 0xa2, 0x8f, 0x8a,
  0x8b, 0x9a, 0x86, 0xb7, 0xa1, 0x81, 0x9a, 0x78, 0x72, 0x73, 0x7e, 0x91,
  0x64, 0x72, 0x7f, 0x79, 0x74, 0x59, 0xa3, 0x88, 0x7f, 0x75, 0x80, 0x7b,
  0x6f, 0xa6, 0x8e, 0x9d, 0x94, 0x73, 0x86, 0x99, 0x69, 0x7c, 0x66, 0x9e,
  0x8a, 0x6b, 0x78, 0x8f, 0x89, 0x8d, 0x9f, 0x9b, 0x9a, 0x95, 0xac, 0x85,
  0x8f, 0x79, 0x7b, 0x68, 0x5f, 0x8d, 0x7b, 0xb1, 0x8d, 0x73, 0x72, 0xa2,
  0x74, 0x65, 0x64, 0xa9, 0x5c, 0x90, 0x7b, 0xa0, 0x97, 0x6f, 0x77, 0x7e,
  0x4b, 0x8c, 0x60, 0x88, 0x8e, 0x5b, 0x93, 0xa1, 0x56, 0x6c, 0x63, 0x82,
  0x8b, 0x4b, 0x71, 0x81, 0x56, 0x7e, 0x71, 0x87, 0x8e, 0x7d, 0x83, 0x60,
  0x45, 0x91, 0x51, 0x92, 0x9d, 0x6b, 0xa8, 0x6e, 0x50, 0x75, 0x6a, 0x84,
  0x84, 0x5e, 0xa9, 0x72, 0x47, 0x88, 0x51, 0x89, 0x92, 0x6f, 0x7e, 0x98,
  0x6b, 0x95, 0x74, 0x81, 0xad, 0x7d, 0x8d, 0x64, 0x62, 0x86, 0x5d, 0x8d,
  0xb1, 0x59, 0x56, 0x99, 0x6a, 0x92, 0x67, 0x88, 0x9f, 0x6e, 0xa3, 0x8e,
  0x4b, 0x91, 0x66, 0xb7, 0xae, 0x87, 0x96, 0x91, 0x79, 0x7e, 0x6f, 0x93,
  0x84, 0x8a, 0x6f, 0x85, 0x80, 0x7a, 0x9d, 0xbe, 0x8e, 0x84, 0x83, 0xaa,
  0x82, 0x6a, 0x80, 0x9c, 0x85, 0x95, 0x92, 0x8f, 0x6f, 0xa6, 0x94, 0xbf,
  0x76, 0x68, 0xa2, 0xa8, 0x95, 0x85, 0x66, 0x98, 0x8f, 0x4f, 0xa6, 0x85,
  0x86, 0x8e, 0x92, 0xb6, 0x91, 0x69, 0x8e, 0x92, 0x94, 0x6e, 0x87, 0xb1,
  0xb9, 0x9b, 0x8b, 0xa2, 0x82, 0x6b, 0x76, 0x81, 0x7d, 0xb0, 0x91, 0xa5,
  0x8a, 0x86, 0x74, 0x82, 0x84, 0x98, 0x64, 0x98, 0x4b, 0x92, 0x62, 0xab,
  0x9c, 0x7d, 0x9e, 0x55, 0x63, 0x7a, 0x5d, 0x96, 0x94, 0x86, 0x8a, 0x80,
  0x5a, 0x6c, 0x47, 0x74, 0x92, 0x63, 0x8c, 0x83, 0x4a, 0x94, 0x3f, 0x86,
  0x9e, 0x64, 0x9a, 0x77, 0x27, 0x65, 0x41, 0x89, 0xb2, 0x7a, 0x7b, 0x7b,
  0x4f, 0x93, 0x5c, 0x93, 0x8b, 0x76, 0x5a, 0x72, 0x5b, 0x96, 0x48, 0x79,
  0x91, 0x69, 0x8f, 0x8f, 0x7b, 0x8e, 0x48, 0x92, 0x8c, 0xa6, 0x5a, 0x75,
  0x89, 0xaf, 0x59, 0x8b, 0x9b, 0x98, 0x73, 0x99, 0x50, 0x95, 0x76, 0x93,
  0x94, 0x68, 0xa1, 0x61, 0x79, 0x97, 0x89, 0x92, 0xa4, 0x96, 0x7e, 0x94,
  0x6d, 0x9d, 0x57, 0xa3, 0x8d, 0x77, 0x67, 0x84, 0x9a, 0x97, 0x85, 0x85,
  0xa7, 0x80, 0xae, 0xac, 0x91, 0x6e, 0xa9, 0x8e, 0x92, 0x4f, 0x6b, 0x92,
  0x57, 0x84, 0x9a, 0x9b, 0x97, 0x80, 0x79, 0x7b, 0x8a, 0x89, 0x8e, 0xa6,
  0xa3, 0x71, 0x8e, 0x86, 0x81, 0x7c, 0x81, 0x8f, 0xbb, 0x88, 0x8a, 0x94,
  0x88, 0x93, 0xa3, 0xce, 0x88, 0x98, 0x9c, 0xac, 0x8c, 0x94, 0x7c, 0x55,
  0xa7, 0xa4, 0x8e, 0xa3, 0x8b, 0x68, 0x68, 0x9e, 0x68, 0x84, 0x75, 0x93,
  0x79, 0x8a, 0x69, 0x8f, 0x9d, 0x8c, 0x83, 0x56, 0x62, 0x7b, 0x69, 0x8d,
  0x94, 0x8e, 0x93, 0x73, 0x62, 0x83, 0x68, 0x8f, 0xa9, 0x57, 0x93, 0x78,
  0x41, 0x71, 0x5c, 0x8c, 0x90, 0x61, 0x57, 0x90, 0x4f, 0xa2, 0x3d, 0x89,
  0x9c, 0x74, 0x96, 0x78, 0x38, 0x65, 0x54, 0x93, 0x86, 0x58, 0x8c, 0x8a,
  0x5c, 0x9d, 0x61, 0x80, 0xb8, 0x85, 0x9b, 0x9f, 0x4f, 0x8a, 0x4b, 0x83,
  0x89, 0x79, 0x70, 0x89, 0x7d, 0xb0, 0x6b, 0x79, 0x9e, 0x8a, 0xa0, 0x96,
  0x6e, 0x85, 0x61, 0x8b, 0x9a, 0x8f, 0x87, 0x66, 0x73, 0xaa, 0x6b, 0x82,
  0x95, 0xa0, 0x84, 0x98, 0x7c, 0x70, 0x70, 0x8a, 0xc2, 0x7c, 0x99, 0x87,
  0x7b, 0x89, 0x59, 0x7d, 0xa4, 0x69, 0x83, 0x91, 0x84, 0x7b, 0x8a, 0x98,
  0x8a, 0x7a, 0x7f, 0xac, 0x59, 0x82, 0x86, 0x90, 0x95, 0x92, 0x94, 0x8f,
  0x9a, 0x92, 0x8c, 0x94, 0xac, 0x73, 0x58, 0x8d, 0x87, 0x93, 0x81, 0x9c,
  0x7d, 0x71, 0xaa, 0x7b, 0x7d, 0x9c, 0xa7, 0x89, 0x87, 0xc2, 0x9b, 0xa3,
  0x96, 0x8f, 0x85, 0x90, 0xa0, 0x9c, 0x89, 0xad, 0x85, 0x8a, 0x83, 0xaf,
  0x79, 0x77, 0x59, 0xa5, 0x76, 0xa3, 0x5c, 0x87, 0x88, 0x76, 0x6a, 0x6f,
  0x55, 0x6c, 0x72, 0x93, 0x96, 0x69, 0x6b, 0x95, 0x36, 0xa5, 0x6d, 0xae,
  0x87, 0x6f, 0x90, 0x97, 0x5b, 0x97, 0x46, 0x8e, 0xa6, 0x67, 0x93, 0x76,
  0x2b, 0x8e, 0x5e, 0xa7, 0x61, 0x67, 0x70, 0x7c, 0x40, 0x87, 0x71, 0x97,
  0x9b, 0x75, 0x93, 0x5e, 0x3f, 0x7f, 0x49, 0x8a, 0x9e, 0x7a, 0x90, 0x96,
  0x45, 0x77, 0x62, 0x9a, 0xa1, 0xa3, 0x73, 0x9e, 0x58, 0x89, 0x5a, 0x8d,
  0x96, 0x7d, 0x7d, 0x9c, 0x7c, 0x72, 0x6a, 0x70, 0x7c, 0x90, 0x80, 0x7c,
  0x67, 0xb4, 0x6f, 0x7f, 0x76, 0x6f, 0x94, 0x63, 0x80, 0x86, 0x58, 0x6c,
  0xa8, 0x69, 0x89, 0xa7, 0x6c, 0x8e, 0x90, 0x8a, 0xbd, 0x68, 0x7f, 0xb1,
  0x8e, 0x97, 0x64, 0x7b, 0xad, 0x8c, 0xa6, 0x93, 0x67, 0x91, 0x95, 0x84,
  0x96, 0x74, 0x8b, 0x7d, 0x60, 0x8a, 0x64, 0x77, 0xaf, 0x4f, 0x53, 0xb6,
  0x85, 0x8f, 0x6c, 0x89, 0x9e, 0x73, 0x99, 0x77, 0x76, 0xba, 0x93, 0x80,
  0xa6, 0x9e, 0x7a, 0x9a, 0x8c, 0x7c, 0x74, 0x9a, 0xb5, 0x91, 0x91, 0xa0,
  0x9a, 0x79, 0x95, 0x93, 0x77, 0x5b, 0x78, 0x98, 0x72, 0x8a, 0x65, 0xb0,
  0x70, 0x6d, 0x86, 0x51, 0x67, 0x83, 0x56, 0x99, 0x98, 0x67, 0x8c, 0x9e,
  0x1c, 0xb8, 0x60, 0xa1, 0x8e, 0x83, 0x68, 0x87, 0x50, 0x88, 0x58, 0xb5,
  0x85, 0x51, 0x86, 0x87, 0x28, 0x95, 0x65, 0x9c, 0x80, 0x56, 0x85, 0x56,
  0x50, 0x8e, 0x4f, 0x9b, 0xa8, 0x6b, 0xa7, 0x79, 0x5b, 0xaa, 0x65, 0x86,
  0xa7, 0xa6, 0xa6, 0x9b, 0x4b, 0x63, 0x77, 0x9e, 0x87, 0x88, 0x8a, 0x8f,
  0x46, 0x9a, 0x37, 0x72, 0xa4, 0x7c, 0x72, 0x74, 0x61, 0x88, 0x58, 0x6b,
  0xa4, 0x9c, 0x7d, 0x65, 0x70, 0x75, 0x4c, 0x7e, 0x95, 0x7f, 0xa3, 0x72,
  0x66, 0x6e, 0x71, 0x73, 0xa2, 0x8e, 0x7a, 0x70, 0x8f, 0x85, 0x58, 0x8f,
  0x93, 0x7d, 0x60, 0x8f, 0x8b, 0x86, 0x6c, 0x7b, 0x84, 0x71, 0x82, 0x82,
  0x5a, 0x7f, 0x7d, 0x89, 0x88, 0x68, 0x6e, 0x85, 0x7f, 0xbf, 0x82, 0x75,
  0x7b, 0x74, 0x82, 0x87, 0x91, 0x8b, 0x57, 0x7c, 0x9c, 0x61, 0x62, 0x89,
  0x7e, 0x6c, 0x6f, 0x8e, 0xb4, 0xab, 0x76, 0xa3, 0x8d, 0x91, 0x78, 0x94,
  0x8d, 0xaf, 0x7e, 0xb4, 0x81, 0x73, 0x7e, 0xa0, 0x77, 0x8a, 0x6b, 0xa1,
  0x89, 0xc1, 0x5a, 0xaf, 0x8d, 0x69, 0x89, 0x6a, 0x53, 0x78, 0x49, 0x8a,
  0xad, 0x48, 0x83, 0x98, 0x39, 0xa6, 0x55, 0xc2, 0x85, 0x5b, 0x89, 0x9d,
  0x28, 0x8c, 0x4f, 0xa0, 0x84, 0x62, 0x85, 0x86, 0x43, 0x79, 0x30, 0xb0,
  0x5d, 0x51, 0x73, 0x63, 0x2a, 0x70, 0x8c, 0x94, 0xa0, 0x8a, 0x84, 0x52,
  0x53, 0x8c, 0x41, 0x86, 0x71, 0x84, 0x75, 0x62, 0x7e, 0x9b, 0x3a, 0x85,
  0x87, 0xba, 0x8c, 0x82, 0x4b, 0xb5, 0x37, 0x95, 0x8f, 0x75, 0x64, 0x6d,
  0x63, 0xac, 0x4d, 0x7a, 0xa5, 0x92, 0x71, 0x84, 0x61, 0x8a, 0x82, 0x79,
  0xad, 0x92, 0x77, 0x76, 0x8a, 0xae, 0x73, 0x8b, 0x96, 0x5d, 0x99, 0x82,
  0x72, 0x97, 0x8b, 0x8b, 0x9c, 0x7d, 0xa2, 0x94, 0x7b, 0x97, 0x7f, 0x6e,
  0x90, 0x85, 0x72, 0x97, 0x8d, 0xa9, 0x6e, 0x67, 0x8b, 0x7b, 0x8a, 0x74,
  0x6d, 0xa1, 0x66, 0x79, 0x91, 0x78, 0x7d, 0x9b, 0x68, 0x83, 0x46, 0x8b,
  0xae, 0x73, 0x78, 0xa1, 0x4c, 0x76, 0x7a, 0x86, 0xa5, 0xae, 0x7b, 0x85,
  0x8a, 0xa0, 0x91, 0x9a, 0xa9, 0xa4, 0x8f, 0x99, 0x9a, 0x69, 0x95, 0x7f,
  0x8b, 0x97, 0x5d, 0x98, 0x7f, 0x94, 0x59, 0x9e, 0x97, 0x6c, 0x71, 0x71,
  0x77, 0x7d, 0x80, 0xa2, 0x78, 0x7a, 0x6e, 0x8a, 0x25, 0xa1, 0x5d, 0xb3,
  0x89, 0x90, 0x95, 0x8d, 0x2b, 0xa7, 0x4d, 0xa5, 0x76, 0x71, 0x87, 0x60,
  0x55, 0xa2, 0x4c, 0xac, 0x60, 0x8c, 0x6f, 0x5c, 0x3c, 0x87, 0x40, 0x82,
  0xb0, 0x89, 0x9d, 0x4e, 0x52, 0xab, 0x70, 0x81, 0x6d, 0x75, 0xa8, 0x8b,
  0x5d, 0x86, 0x5e, 0x92, 0x90, 0x83, 0x95, 0x8b, 0x82, 0x96, 0x3c, 0x79,
  0x75, 0x86, 0xa5, 0x8a, 0x4a, 0xa1, 0x56, 0x89, 0x94, 0x9c, 0x6f, 0x56,
  0x62, 0x9c, 0x79, 0x6d, 0x89, 0x81, 0x6e, 0x9a, 0x51, 0x90, 0x86, 0x6d,
  0x81, 0x89, 0x9c, 0x97, 0x8e, 0x8d, 0x7f, 0x84, 0xb0, 0x7d, 0x75, 0xad,
  0x84, 0xb5, 0x8d, 0x6f, 0x98, 0x5e, 0x84, 0x8f, 0x62, 0x8d, 0x5b, 0x84,
  0x7c, 0x6c, 0x7c, 0x9b, 0x70, 0x7f, 0x64, 0x81, 0xae, 0x73, 0x68, 0x9d,
  0x7b, 0x7b, 0x54, 0x61, 0x9d, 0x5d, 0x81, 0x7b, 0x7a, 0x9f, 0x6e, 0x8a,
  0xa8, 0xa6, 0x98, 0x85, 0x6d, 0x76, 0x99, 0x77, 0xa1, 0x8c, 0x77, 0x8a,
  0x9b, 0x89, 0x70, 0x79, 0x7a, 0x66, 0x57, 0x8e, 0x6d, 0x95, 0x62, 0xba,
  0x85, 0x76, 0x6c, 0x68, 0x55, 0x7f, 0x4a, 0xa8, 0x92, 0x7d, 0x80, 0x73,
  0x40, 0x90, 0x73, 0xc8, 0x8e, 0x79, 0x9b, 0xa9, 0x36, 0xa0, 0x34, 0xa7,
  0x5d, 0x5e, 0x78, 0x90, 0x57, 0x9f, 0x60, 0x9d, 0x61, 0x78, 0x7f, 0x51,
  0x33, 0x8e, 0x46, 0xa3, 0x9b, 0x95, 0x80, 0x42, 0x70, 0x75, 0x59, 0x81,
  0xac, 0x88, 0x99, 0x73, 0x60, 0x8b, 0x45, 0x80, 0x90, 0xa0, 0x7b, 0x8a,
  0x5f, 0x9f, 0x4f, 0x75, 0x8d, 0x83, 0x79, 0x72, 0x78, 0x8e, 0x46, 0x89,
  0x91, 0x7d, 0x74, 0x54, 0x67, 0xb3, 0x79, 0x7b, 0x8a, 0x76, 0x7d, 0x81,
  0x60, 0xa9, 0x82, 0x80, 0xac, 0x7f, 0x90, 0x6e, 0x75, 0x96, 0x79, 0x5d,
  0x8f, 0xab, 0x89, 0xa4, 0x87, 0x8d, 0x87, 0x85, 0x73, 0x55, 0x90, 0x98,
  0x70, 0x93, 0x6d, 0x73, 0x73, 0x73, 0x67, 0x7d, 0x72, 0x8f, 0x6e, 0x78,
  0x85, 0x71, 0x97, 0x99, 0x61, 0x97, 0x7f, 0x5c, 0x9f, 0x6c, 0x5f, 0x81,
  0x80, 0x9b, 0x74, 0x87, 0x9c, 0xae, 0x85, 0x75, 0x76, 0xae, 0x82, 0x79,
  0xb6, 0xa5, 0x64, 0x78, 0x94, 0x79, 0x7b, 0x8f, 0x88, 0x99, 0x67, 0xa7,
  0x77, 0xac, 0x67, 0xcc, 0x96, 0x58, 0x62, 0x62, 0x72, 0x68, 0x70, 0x98,
  0x96, 0x65, 0x6b, 0x7d, 0x2f, 0x9b, 0x5b, 0xbf, 0x80, 0x67, 0x6d, 0xa4,
  0x24, 0x72, 0x37, 0x9f, 0x6e, 0x88, 0x92, 0x64, 0x5f, 0xa9, 0x70, 0x9b,
  0x87, 0x65, 0x87, 0x76, 0x3d, 0xb6, 0x60, 0x9d, 0x8d, 0x79, 0x6c, 0x58,
  0x4b, 0x85, 0x4c, 0x8f, 0x7c, 0x85, 0x74, 0x89, 0x3a, 0xbc, 0x65, 0x81,
  0x95, 0x8a, 0x60, 0x8a, 0x6b, 0x8f, 0x4c, 0x8f, 0x9e, 0x8d, 0x9d, 0x65,
  0x52, 0x81, 0x3d, 0x84, 0x94, 0x91, 0x6d, 0x7b, 0x3a, 0x81, 0x72, 0x70,
  0x9b, 0x85, 0x98, 0x79, 0x60, 0x83, 0x6b, 0x78, 0xb2, 0x89, 0x60, 0x87,
  0x6a, 0x9b, 0x6e, 0x66, 0x83, 0x75, 0x80, 0x6e, 0x6a, 0x81, 0x76, 0x8a,
  0x8d, 0x87, 0x81, 0x80, 0x65, 0x8a, 0x7f, 0x94, 0x93, 0x81, 0x6f, 0x87,
  0x40, 0xa9, 0x6f, 0x7c, 0x89, 0x79, 0x80, 0x90, 0x49, 0xa4, 0x59, 0x72,
  0x9d, 0x67, 0x80, 0x79, 0x5a, 0xa4, 0x79, 0x80, 0xb9, 0xb0, 0x7d, 0x6e,
  0x81, 0xa8, 0x6b, 0x7b, 0x72, 0xa2, 0x78, 0x84, 0x8c, 0x97, 0x6e, 0x74,
  0x76, 0x80, 0x73, 0x8c, 0x57, 0xaa, 0x56, 0xb4, 0x8b, 0x85, 0x89, 0x5b,
  0x70, 0x84, 0x65, 0xaf, 0x9d, 0x72, 0x87, 0x93, 0x42, 0x90, 0x46, 0xb6,
  0x78, 0x5e, 0x9b, 0x85, 0x5d, 0x88, 0x3e, 0x9b, 0x7c, 0x81, 0x67, 0x96,
  0x32, 0x8a, 0x5e, 0xb3, 0x6c, 0x72, 0x92, 0x61, 0x28, 0x86, 0x73, 0x9b,
  0x7c, 0x81, 0x6b, 0x4b, 0x47, 0x80, 0x58, 0x8d, 0x7d, 0x7d, 0xa8, 0x56,
  0x46, 0xa5, 0x4e, 0x7d, 0x68, 0x9f, 0x6a, 0x8f, 0x47, 0xb2, 0x39, 0x83,
  0x90, 0x77, 0x55, 0x65, 0x7a, 0xa6, 0x60, 0x81, 0x7e, 0x7f, 0x73, 0x4d,
  0x6d, 0x8c, 0x71, 0x7c, 0x73, 0xa4, 0x74, 0x6f, 0x7e, 0x9d, 0x60, 0x79,
  0x9c, 0x94, 0xaf, 0x8e, 0x98, 0x97, 0x7c, 0x84, 0x94, 0xa4, 0x60, 0x88,
  0x79, 0x95, 0x72, 0x7b, 0x8b, 0x65, 0x69, 0x7c, 0x74, 0xa1, 0x73, 0x67,
  0x8b, 0x9c, 0x9f, 0x78, 0x55, 0xab, 0x77, 0x69, 0x91, 0x78, 0x8e, 0x78,
  0x7b, 0xb9, 0x72, 0x70, 0x81, 0x67, 0x9e, 0x67, 0x67, 0x93, 0x90, 0x79,
  0x78, 0x9a, 0x7b, 0x7e, 0x7a, 0x8c, 0x5c, 0x51, 0x9d, 0xa0, 0x74, 0x95,
  0x92, 0x97, 0x69, 0x7a, 0x80, 0x72, 0x44, 0xac, 0x67, 0xb7, 0x69, 0xbb,
  0xa5, 0x59, 0x81, 0x6a, 0x69, 0x88, 0x6c, 0x94, 0x94, 0x4c, 0x7a, 0x87,
  0x36, 0x8b, 0x3f, 0xc1, 0x86, 0x36, 0x87, 0x88, 0x21, 0x9d, 0x2b, 0xb5,
  0x6f, 0x66, 0x94, 0x80, 0x23, 0xa1, 0x44, 0xa4, 0x5a, 0x66, 0x94, 0x37,
  0x25, 0xb4, 0x4d, 0xaa, 0x67, 0x7b, 0x84, 0x5a, 0x56, 0xae, 0x50, 0x82,
  0xad, 0x87, 0x85, 0x69, 0x5e, 0x8f, 0x55, 0x87, 0x96, 0x97, 0x7a, 0x92,
  0x5c, 0xb0, 0x53, 0x76, 0x92, 0x87, 0x5b, 0x6a, 0x56, 0x97, 0x65, 0x77,
  0x80, 0x69, 0x97, 0x77, 0x74, 0xac, 0x47, 0x7b, 0x99, 0x9f, 0x52, 0x70,
  0x76, 0x9b, 0x4b, 0x71, 0x94, 0x65, 0x61, 0x69, 0x6f, 0xb8, 0x8e, 0x76,
  0x7d, 0xa2, 0x63, 0x7a, 0x7e, 0x88, 0x7f, 0x82, 0x87, 0x88, 0x73, 0x84,
  0x83, 0x9a, 0x6e, 0x6c, 0x9a, 0x72, 0x6e, 0x80, 0x62, 0xc7, 0x97, 0x7a,
  0xa2, 0x78, 0x8e, 0x89, 0x68, 0x96, 0x71, 0x6b, 0x74, 0x77, 0x96, 0x61,
  0x73, 0x7b, 0x69, 0x72, 0x7a, 0xa2, 0x8f, 0x66, 0x47, 0xa2, 0x80, 0x65,
  0x9f, 0x9c, 0x84, 0x7c, 0x7a, 0x81, 0x76, 0x69, 0x93, 0x89, 0x5c, 0x9d,
  0x78, 0x74, 0x6e, 0xa2, 0x96, 0x61, 0x4d, 0x76, 0x68, 0x78, 0x5d, 0xa1,
  0xa4, 0x60, 0x91, 0x85, 0x3e, 0x89, 0x68, 0xc0, 0x85, 0x4c, 0x78, 0xb1,
  0x46, 0x98, 0x25, 0xaf, 0x87, 0x6f, 0x80, 0x9b, 0x20, 0x76, 0x5e, 0x9c,
  0x6e, 0x57, 0x93, 0x55, 0x21, 0xb2, 0x74, 0xb3, 0x89, 0x86, 0x97, 0x39,
  0x37, 0xa3, 0x4c, 0xab, 0x82, 0x6d, 0x7d, 0x83, 0x49, 0xa2, 0x57, 0x94,
  0x84, 0x7b, 0x8a, 0x9e, 0x52, 0x96, 0x49, 0x92, 0x6e, 0x91, 0x87, 0x72,
  0x68, 0x93, 0x61, 0x7a, 0x86, 0x6e, 0xa9, 0x66, 0x6e, 0x88, 0x58, 0x6b,
  0x68, 0x76, 0x8e, 0x70, 0x71, 0xb2, 0x7a, 0x78, 0x9b, 0x8b, 0x89, 0x6b,
  0x6b, 0xa1, 0x80, 0x75, 0xa6, 0xa7, 0x82, 0x68, 0x56, 0x84, 0xa2, 0x84,
  0x78, 0x92, 0xa5, 0x88, 0x81, 0x83, 0x7a, 0x7b, 0x7c, 0x6e, 0x79, 0x73,
  0x4e, 0xa6, 0x6f, 0x91, 0xa9, 0x56, 0x8a, 0x7e, 0x68, 0x98, 0x55, 0x85,
  0x8b, 0x86, 0x6c, 0x63, 0x5f, 0x99, 0x90, 0x67, 0xa2, 0x94, 0x72, 0x70,
  0x55, 0xa0, 0x65, 0x68, 0xba, 0xa5, 0x9f, 0x7c, 0x7d, 0x91, 0x93, 0x5b,
  0x8b, 0x5f, 0x69, 0x92, 0x83, 0x9a, 0x65, 0xbf, 0xb3, 0x59, 0x67, 0x8a,
  0x6b, 0x96, 0x5c, 0xb5, 0xa3, 0x62, 0xa5, 0x7b, 0x3e, 0x83, 0x51, 0xd2,
  0x98, 0x38, 0x71, 0xa1, 0x3b, 0x95, 0x4a, 0xc0, 0x8e, 0x6b, 0x9c, 0x6f,
  0x3d, 0x79, 0x60, 0xa9, 0x6e, 0x50, 0x6d, 0x65, 0x42, 0xa0, 0x39, 0xc5,
  0x99, 0x59, 0x87, 0x33, 0x2a, 0xa2, 0x61, 0x77, 0x9a, 0x8d, 0x64, 0x68,
  0x44, 0x8d, 0x7c, 0x8f, 0x8c, 0x7b, 0x92, 0x6b, 0x48, 0x82, 0x53, 0x89,
  0xa6, 0x99, 0x74, 0x7e, 0x72, 0x9d, 0x49, 0x8b, 0xa0, 0x7a, 0x5a, 0x5d,
  0x5d, 0x88, 0x67, 0x75, 0x6b, 0x6b, 0x7f, 0x5f, 0x51, 0x83, 0x60, 0x7e,
  0xa7, 0x7c, 0xa0, 0x6f, 0x9d, 0x92, 0x77, 0x88, 0x8d, 0x92, 0x9e, 0x8f,
  0x64, 0xba, 0x9b, 0x7a, 0x99, 0x87, 0x75, 0x7a, 0x3c, 0x90, 0x8e, 0x6e,
  0x76, 0x5b, 0x4a, 0x81, 0x62, 0xaa, 0x7b, 0x74, 0x87, 0x8a, 0x8f, 0x69,
  0x79, 0x93, 0x82, 0x8e, 0x8f, 0x6e, 0x75, 0x7f, 0x76, 0x75, 0xa4, 0x74,
  0x84, 0xa8, 0x7d, 0x6f, 0x56, 0x7f, 0x96, 0x4c, 0xb8, 0xab, 0xb8, 0x77,
  0x7b, 0xa5, 0x7c, 0x6a, 0x85, 0x77, 0x57, 0x94, 0x6b, 0x9d, 0x80, 0xb8,
  0xaf, 0x52, 0x99, 0x6c, 0x94, 0x6a, 0x84, 0xbd, 0xac, 0x55, 0x8e, 0x60,
  0x28, 0x7f, 0x40, 0xc6, 0xb1, 0x4b, 0x8e, 0xb7, 0x2b, 0x71, 0x38, 0xbc,
  0x6e, 0x7a, 0x8b, 0x89, 0x64, 0x67, 0x29, 0xc2, 0x7f, 0x46, 0x8b, 0x4e,
  0x45, 0x78, 0x40, 0xaa, 0x94, 0x72, 0xa4, 0x2d, 0x55, 0x86, 0x5b, 0x7e,
  0x83, 0x8a, 0x52, 0x7b, 0x35, 0x8d, 0x71, 0x85, 0x97, 0x91, 0x7d, 0x7a,
  0x30, 0xad, 0x40, 0x8e, 0x6e, 0x8d, 0x71, 0x7d, 0x5e, 0x99, 0x49, 0x87,
  0xa8, 0xaf, 0x8b, 0x5b, 0x57, 0xa1, 0x67, 0x76, 0xa0, 0x80, 0x6f, 0x8d,
  0x80, 0x79, 0x85, 0x7f, 0xc5, 0x98, 0x89, 0x7a, 0x80, 0x94, 0x69, 0x7b,
  0x85, 0x71, 0x91, 0x8c, 0x81, 0xb0, 0xbb, 0x88, 0x80, 0x82, 0x95, 0x72,
  0x59, 0xaf, 0x8f, 0x79, 0x9a, 0x6f, 0x79, 0x63, 0x54, 0x8e, 0x77, 0x7f,
  0x93, 0x5c, 0x67, 0x7b, 0x74, 0xad, 0x89, 0x83, 0x77, 0x7a, 0x96, 0x8e,
  0x8b, 0xb6, 0x5f, 0x7b, 0xaf, 0x92, 0xa9, 0x80, 0x62, 0x79, 0x7f, 0x47,
  0x76, 0x8f, 0x9c, 0x62, 0x84, 0x8d, 0x83, 0x69, 0x8a, 0xa0, 0x55, 0x9e,
  0x8b, 0x79, 0x70, 0xcb, 0xa7, 0x5b, 0x8c, 0x81, 0x64, 0xae, 0x88, 0xa1,
  0xa5, 0x67, 0x76, 0x80, 0x4f, 0x85, 0x66, 0xc7, 0xb0, 0x3c, 0x7c, 0x7d,
  0x46, 0x7d, 0x31, 0xb1, 0x6e, 0x88, 0x79, 0x72, 0x53, 0x71, 0x40, 0xb0,
  0x6d, 0x5e, 0x7f, 0x70, 0x48, 0xad, 0x5e, 0x9c, 0x8c, 0x93, 0x88, 0x53,
  0x53, 0x84, 0x5b, 0x9b, 0x9c, 0x65, 0x97, 0x73, 0x3b, 0x98, 0x47, 0x98,
  0x94, 0x5f, 0x89, 0x76, 0x6d, 0x88, 0x61, 0x7e, 0xa7, 0x77, 0x9a, 0x87,
  0x57, 0x93, 0x86, 0x84, 0xa8, 0x80, 0x5e, 0x66, 0x4d, 0x91, 0x5d, 0x7a,
  0x82, 0x8d, 0x76, 0x7e, 0x6c, 0x80, 0x6a, 0x83, 0xae, 0x8a, 0xac, 0x79,
  0x54, 0x9e, 0x85, 0x67, 0xa6, 0x84, 0x77, 0x7e, 0x7b, 0x8a, 0x6c, 0x80,
  0xb0, 0x77, 0x62, 0x79, 0x89, 0x87, 0x6e, 0x78, 0x72, 0x67, 0x7b, 0x7d,
  0x38, 0xb5, 0x74, 0x7c, 0x99, 0x52, 0x87, 0x5c, 0x6c, 0x86, 0x5f, 0x7c,
  0x9d, 0x7f, 0x85, 0x5f, 0x61, 0x9e, 0x73, 0x7e, 0x87, 0x9b, 0xb4, 0x79,
  0x7f, 0x97, 0x69, 0x5f, 0xa2, 0x90, 0x7e, 0x7e, 0x91, 0x71, 0x88, 0x66,
  0x88, 0x72, 0x64, 0x8c, 0x73, 0x90, 0x71, 0xd5, 0xb1, 0x63, 0x9a, 0x7b,
  0x89, 0x93, 0x5d, 0xc5, 0x95, 0x4a, 0x69, 0x76, 0x34, 0x89, 0x59, 0xbd,
  0x98, 0x5f, 0x73, 0xa9, 0x4a, 0x7d, 0x3c, 0xd2, 0x7e, 0x4d, 0x7f, 0x98,
  0x4c, 0xa2, 0x47, 0xba, 0x6b, 0x64, 0xa3, 0x66, 0x35, 0xa9, 0x3b, 0xb5,
  0x9a, 0x7d, 0x6f, 0x7a, 0x51, 0x93, 0x40, 0x91, 0x98, 0x5c, 0x75, 0x80,
  0x56, 0x82, 0x5b, 0x88, 0x9b, 0x5b, 0x9c, 0x9a, 0x5c, 0xa8, 0x43, 0x81,
  0x99, 0x87, 0x62, 0x72, 0x5a, 0xb6, 0x4c, 0x7f, 0x83, 0x87, 0x74, 0x6b,
  0x75, 0x92, 0x67, 0x74, 0xb7, 0x75, 0xa1, 0x6a, 0x5a, 0x8b, 0x6a, 0x75,
  0x78, 0xa4, 0x8a, 0x5c, 0x70, 0x98, 0x7f, 0x7c, 0x9c, 0x70, 0x9c, 0x89,
  0x75, 0xaf, 0xa8, 0x6b, 0x76, 0x6d, 0x91, 0x98, 0x63, 0xa5, 0x95, 0x7c,
  0x79, 0x7e, 0x88, 0x5c, 0x55, 0xa1, 0x58, 0x7a, 0x8c, 0x7a, 0x99, 0x65,
  0x61, 0x99, 0x81, 0x6c, 0xa8, 0x7f, 0x88, 0x4f, 0x74, 0xc2, 0x7b, 0x77,
  0x80, 0x93, 0xb3, 0x6d, 0x60, 0xb6, 0x9d, 0x6b, 0x81, 0x8e, 0xba, 0x8b,
  0x7c, 0x8c, 0x55, 0x74, 0x80, 0xa9, 0x54, 0xb4, 0x5d, 0x79, 0x4e, 0xcd,
  0x8a, 0x6e, 0x62, 0x5f, 0x57, 0x83, 0x71, 0xb6, 0x84, 0x66, 0x84, 0x79,
  0x34, 0xaf, 0x70, 0xfa, 0xa4, 0x47, 0x90, 0xb3, 0x63, 0xac, 0x3f, 0xe0,
  0x89, 0x7d, 0x84, 0xa5, 0x2a, 0x8c, 0x5a, 0xd4, 0x6a, 0x51, 0x83, 0x60,
  0x38, 0x7c, 0x5a, 0xbd, 0x74, 0x6e, 0x7c, 0x6f, 0x34, 0x9e, 0x39, 0x9e,
  0x86, 0x5a, 0x95, 0x63, 0x5a, 0x82, 0x62, 0x87, 0x94, 0x79, 0x7d, 0x71,
  0x75, 0xac, 0x3b, 0xad, 0x9d, 0x83, 0x9c, 0x7b, 0x4a, 0x97, 0x65, 0x7c,
  0x8d, 0x93, 0x7d, 0x4f, 0x7a, 0x90, 0x57, 0x86, 0x88, 0x78, 0x8d, 0x55,
  0x86, 0x89, 0x51, 0x7e, 0x78, 0x87, 0x78, 0x80, 0x79, 0xb2, 0x5e, 0x82,
  0x90, 0x83, 0xaf, 0x61, 0x82, 0xb0, 0xb5, 0x8e, 0x93, 0x6d, 0x88, 0x79,
  0x49, 0x72, 0x78, 0x88, 0x7a, 0x68, 0x94, 0x7b, 0x5a, 0xc3, 0x8c, 0x82,
  0x77, 0x65, 0xa6, 0x7c, 0x8b, 0xb7, 0x78, 0x72, 0x84, 0x66, 0x77, 0x7f,
  0x63, 0x8b, 0x89, 0x7f, 0xa2, 0x90, 0x83, 0x77, 0x5c, 0x7d, 0x86, 0x51,
  0x91, 0x85, 0x91, 0x78, 0x8a, 0x97, 0x87, 0x6f, 0x66, 0x95, 0x4e, 0xb2,
  0x62, 0x86, 0x81, 0xf2, 0xa8, 0x49, 0x83, 0x87, 0x7c, 0x82, 0x5f, 0xcf,
  0xb3, 0x54, 0x8f, 0x86, 0x33, 0x7e, 0x66, 0xd8, 0x9b, 0x39, 0x78, 0x9f,
  0x03, 0x90, 0x20, 0xe9, 0x71, 0x65, 0x8e, 0x76, 0x1f, 0x69, 0x46, 0xe4,
  0x78, 0x44, 0x6f, 0x86, 0x26, 0x90, 0x4f, 0xdb, 0x5b, 0x73, 0x80, 0x78,
  0x30, 0x6f, 0x63, 0x97, 0x9f, 0x60, 0x9c, 0x88, 0x4c, 0x91, 0x56, 0x9b,
  0x9b, 0x49, 0x6c, 0x9b, 0x2b, 0xad, 0x38, 0xa9, 0x71, 0x81, 0x89, 0x8d,
  0x41, 0x9e, 0x47, 0xa0, 0x84, 0x85, 0x99, 0x82, 0x35, 0x9b, 0x6b, 0x9e,
  0x9b, 0x51, 0x4e, 0x6a, 0x4d, 0x8a, 0x80, 0x8d, 0xa4, 0x6d, 0x7a, 0x76,
  0x86, 0x91, 0x78, 0x7e, 0x89, 0x78, 0xa0, 0x71, 0x68, 0xb2, 0x78, 0x83,
  0x84, 0x59, 0x80, 0x87, 0x72, 0xaf, 0x7e, 0x96, 0x72, 0x4a, 0x80, 0x71,
  0x58, 0x97, 0x4f, 0x94, 0x7c, 0x67, 0x64, 0x6d, 0x55, 0x91, 0x59, 0x78,
  0x8d, 0x71, 0x79, 0x8b, 0x5d, 0x80, 0x75, 0x82, 0x94, 0x6a, 0xb9, 0x65,
  0x68, 0xb8, 0x84, 0x69, 0x85, 0x7f, 0xa7, 0x79, 0x9e, 0x7d, 0x7d, 0x71,
  0x83, 0x80, 0x7d, 0xdb, 0x5d, 0x8f, 0x7a, 0xf9, 0x86, 0x5f, 0xa8, 0xdb,
  0x7d, 0x94, 0x4d, 0xba, 0x80, 0x5c, 0x82, 0xd7, 0x32, 0x99, 0x75, 0xc1,
  0x89, 0x4d, 0x9e, 0xec, 0x25, 0x6f, 0x55, 0xdb, 0x7a, 0xb3, 0x7d, 0xd8,
  0x22, 0xa8, 0x6a, 0xc5, 0x60, 0x91, 0x77, 0xbd, 0x2a, 0x79, 0x73, 0xaa,
  0x76, 0x7b, 0x9f, 0x8e, 0x4e, 0x8b, 0x80, 0xa8, 0x7d, 0x64, 0x5f, 0xae,
  0x49, 0xa3, 0x61, 0x89, 0x97, 0x5a, 0x8e, 0xa9, 0x41, 0x6d, 0x42, 0xb4,
  0x75, 0x68, 0x56, 0x9b, 0x35, 0x7b, 0x7c, 0x9b, 0x9b, 0x6a, 0x84, 0x8c,
  0x5a, 0x78, 0x86, 0x93, 0x7a, 0x58, 0x84, 0x8d, 0x69, 0xb8, 0x75, 0x91,
  0x81, 0x99, 0x99, 0xb4, 0x67, 0x7a, 0x5a, 0x85, 0x8f, 0x86, 0x7e, 0x98,
  0x55, 0x9e, 0x71, 0x7c, 0xb6, 0x86, 0x68, 0x86, 0x51, 0xbf, 0x78, 0x92,
  0x67, 0x62, 0x66, 0x82, 0x53, 0x9f, 0x6e, 0x6a, 0x7f, 0x45, 0x8a, 0x94,
  0x59, 0x9d, 0x75, 0x6e, 0x71, 0x78, 0x68, 0x77, 0x7a, 0xb0, 0x54, 0x81,
  0x9d, 0x96, 0x76, 0x94, 0x94, 0x75, 0x8c, 0x77, 0x78, 0x7c, 0xa2, 0x72,
  0x91, 0xae, 0x6a, 0x59, 0x6d, 0x80, 0x87, 0xd0, 0x87, 0x8a, 0x58, 0xd9,
  0x73, 0x7f, 0x97, 0xa7, 0x78, 0x97, 0x42, 0x97, 0x95, 0x7c, 0xc8, 0xd4,
  0x31, 0xb3, 0x71, 0x9e, 0x6a, 0x63, 0xa4, 0xd9, 0x37, 0x9a, 0x47, 0x9a,
  0x6d, 0x97, 0x75, 0xae, 0x21, 0x8c, 0x7a, 0xac, 0x6a, 0x82, 0x53, 0xa5,
  0x32, 0x7f, 0x81, 0xa1, 0x60, 0x91, 0x9a, 0x78, 0x57, 0x73, 0x72, 0x7f,
  0x93, 0x64, 0x7f, 0xad, 0x52, 0x6c, 0x62, 0x99, 0x6d, 0x5e, 0x5c, 0xa2,
  0x5f, 0x9f, 0x42, 0xc4, 0x74, 0x80, 0x6e, 0xa5, 0x68, 0x7c, 0x54, 0xb0,
  0x80, 0x88, 0x73, 0x82, 0x48, 0x89, 0x80, 0x6e, 0x72, 0x70, 0x6e, 0xa3,
  0x58, 0x85, 0x86, 0x7f, 0x6c, 0x74, 0x54, 0x7d, 0x49, 0x9f, 0x89, 0x89,
  0x8f, 0xa1, 0xa3, 0x8b, 0x5d, 0x6d, 0x60, 0x9d, 0x89, 0x7e, 0x6a, 0xa1,
  0x50, 0x9d, 0x76, 0x7e, 0x8c, 0x53, 0x83, 0x9d, 0x6e, 0x9a, 0x81, 0xa3,
  0xa8, 0x54, 0x8e, 0x9c, 0x57, 0x93, 0x7b, 0x91, 0x87, 0x98, 0x56, 0x6b,
  0x5d, 0xaf, 0x82, 0x7f, 0x9b, 0x88, 0x83, 0x91, 0x92, 0x9b, 0x85, 0x67,
  0x96, 0x78, 0xa6, 0x9e, 0x89, 0x99, 0x97, 0x8d, 0x84, 0x82, 0xa1, 0x58,
  0x7a, 0x8a, 0x8d, 0x95, 0x8b, 0x55, 0x54, 0x72, 0x88, 0x6f, 0x88, 0x8e,
  0x97, 0x7a, 0x76, 0x8d, 0x6d, 0x7d, 0x7b, 0x7a, 0x7e, 0x6b, 0x9f, 0x7b,
  0x96, 0x7c, 0x8c, 0x91, 0x8e, 0x9a, 0x7f, 0x95, 0x99, 0x8d, 0x5e, 0x57,
  0x7e, 0x72, 0x88, 0x91, 0x80, 0x95, 0x7d, 0x7c, 0x72, 0x83, 0x79, 0x96,
  0x8f, 0x63, 0x76, 0x8a, 0x9c, 0x74, 0x93, 0x70, 0x97, 0x6e, 0xa1, 0x65,
  0x9b, 0x7c, 0x6c, 0x74, 0x8e, 0x93, 0x81, 0x82, 0xc4, 0x6b, 0x7e, 0x6b,
  0x8c, 0x90, 0xa9, 0x58, 0x98, 0xa6, 0x82, 0x90, 0x6a, 0xa4, 0x98, 0x82,
  0x84, 0x87, 0xa0, 0x87, 0x7d, 0x96, 0x8f, 0x8e, 0xa9, 0x93, 0xad, 0x65,
  0x86, 0x7c, 0x8f, 0x86, 0x94, 0x75, 0x98, 0x8a, 0x6a, 0x90, 0x8b, 0x68,
  0x99, 0x8a, 0x63, 0x9a, 0x8f, 0x66, 0x70, 0x73, 0x8e, 0x5a, 0x86, 0x59,
  0x88, 0x7b, 0xab, 0x59, 0x95, 0xa9, 0x8e, 0x7e, 0x8f, 0x8a, 0x6a, 0xa6,
  0x98, 0xaf, 0x57, 0x6c, 0x60, 0x89, 0x8c, 0x69, 0x7f, 0x89, 0x8c, 0x8d,
  0x7c, 0x96, 0x6f, 0x67, 0x69, 0x69, 0x83, 0x7e, 0x83, 0x99, 0x67, 0x7e,
  0x9a, 0x59, 0x87, 0x6a, 0x78, 0x75, 0x7a, 0x81, 0x81, 0x85, 0x79, 0x9a,
  0x64, 0x7d, 0x8a, 0x8d, 0x89, 0x78, 0x8d, 0xab, 0x86, 0x85, 0xae, 0x8e,
  0x81, 0x66, 0x82, 0x76, 0x94, 0x84, 0x72, 0x8d, 0x73, 0x8a, 0x87, 0x73,
  0x7e, 0x9f, 0x76, 0x84, 0x85, 0x8f, 0x6b, 0x77, 0x6f, 0xa5, 0x83, 0x98,
  0x8b, 0x7a, 0x66, 0x52, 0x69, 0x70, 0x83, 0x82, 0x68, 0x5c, 0x8e, 0x6c,
  0x6b, 0x8e, 0x83, 0x7d, 0x9b, 0x8f, 0x6a, 0xab, 0x5f, 0x75, 0x6f, 0x85,
  0x9e, 0x67, 0x86, 0x74, 0x65, 0x79, 0x6b, 0x76, 0xa3, 0x6d, 0x74, 0x67,
  0x8e, 0x92, 0x87, 0x85, 0xa2, 0x73, 0x75, 0xa9, 0x75, 0x5f, 0x82, 0x93,
  0x7e, 0x87, 0x75, 0x7a, 0x7d, 0x8c, 0x7c, 0x6e, 0x89, 0x84, 0x96, 0x6a,
  0x76, 0x7f, 0x57, 0x76, 0x7f, 0x85, 0x71, 0xac, 0x7e, 0x85, 0x93, 0x7f,
  0xa3, 0x6a, 0xa9, 0x8b, 0x7a, 0x76, 0x5b, 0x93, 0x96, 0x8e, 0xa2, 0xaf,
  0x78, 0x8d, 0x98, 0x9e, 0x91, 0x88, 0x66, 0x8a, 0x84, 0x67, 0x7d, 0x93,
  0x7c, 0x84, 0x6f, 0x76, 0x93, 0x66, 0x6e, 0x7d, 0x73, 0x8b, 0x79, 0x8a,
  0x8f, 0x7b, 0x81, 0x9a, 0x8b, 0x6a, 0x7b, 0x50, 0x77, 0x8c, 0x8c, 0x75,
  0x78, 0x7b, 0x6c, 0x7e, 0x96, 0xa3, 0x8a, 0x82, 0x77, 0x69, 0x82, 0x6a,
  0x8f, 0x7c, 0x88, 0x7c, 0x89, 0x9a, 0x93, 0x95, 0x93, 0x87, 0xa2, 0x91,
  0x7e, 0x7d, 0x5b, 0x8d, 0x87, 0x6e, 0x6f, 0x5b, 0x6d, 0x96, 0x74, 0x69,
  0x91, 0x90, 0x79, 0x8d, 0x85, 0xa4, 0x69, 0x74, 0x87, 0x81, 0x6f, 0x81,
  0x72, 0x79, 0x7c, 0xa6, 0x80, 0xb0, 0x7f, 0x94, 0xbb, 0x8a, 0x9d, 0x8f,
  0x93, 0x84, 0x5f, 0x74, 0x9f, 0x75, 0x83, 0xaa, 0x86, 0x66, 0x63, 0x93,
  0x8e, 0xad, 0x90, 0xaf, 0x87, 0x84, 0x98, 0x93, 0x9a, 0x6a, 0x97, 0x97,
  0x81, 0x7a, 0x7b, 0x85, 0x83, 0x7d, 0x7b, 0x71, 0x75, 0xa8, 0x95, 0x72,
  0x7d, 0x64, 0x8c, 0x9b, 0x84, 0x5b, 0x73, 0x8d, 0x75, 0x74, 0x76, 0x61,
  0x87, 0x86, 0x5d, 0x64, 0x8e, 0x8b, 0xb0, 0x73, 0x73, 0x6e, 0x8c, 0x85,
  0x88, 0x79, 0x8b, 0x95, 0x69, 0x8a, 0x77, 0x73, 0x75, 0x6f, 0x8b, 0x7a,
  0x8e, 0x66, 0x98, 0x7c, 0x75, 0x78, 0x85, 0xa7, 0x98, 0x7c, 0x81, 0x76,
  0x8b, 0x91, 0x90, 0x86, 0x89, 0x64, 0x58, 0x81, 0x99, 0xa9, 0x6f, 0x7a,
  0x6c, 0xa3, 0x88, 0x80, 0x6e, 0xa0, 0x62, 0x7b, 0x8b, 0xaa, 0x9f, 0x7a,
  0x7d, 0x65, 0x59, 0x5b, 0x8b, 0x60, 0x93, 0x8e, 0x8d, 0x76, 0x7c, 0x93,
  0x9b, 0x84, 0xa8, 0x99, 0x70, 0x8b, 0x88, 0x85, 0x96, 0x7c, 0x87, 0x82,
  0x71, 0x7c, 0x8c, 0x54, 0x88, 0x65, 0x8d, 0x85, 0x8f, 0x7c, 0x93, 0x79,
  0x84, 0x77, 0xab, 0x6f, 0x8a, 0xa7, 0x5a, 0x67, 0x8f, 0x77, 0x8d, 0x70,
  0xa9, 0x79, 0x86, 0x5c, 0x82, 0x67, 0x61, 0x67, 0xb0, 0x87, 0x75, 0x99,
  0x7f, 0x9a, 0x6d, 0x59, 0xa4, 0x7f, 0x85, 0xb0, 0x88, 0x88, 0xa2, 0x51,
  0xa4, 0x83, 0x79, 0x57, 0x8b, 0x5f, 0x92, 0x7f, 0x67, 0x7a, 0x7d, 0x7e,
  0x76, 0x62, 0x79, 0x63, 0x8a, 0x8f, 0x8e, 0x80, 0x85, 0x8c, 0xa1, 0x92,
  0x71, 0x8c, 0x81, 0x86, 0x7c, 0x83, 0x83, 0x70, 0xa8, 0x94, 0x6f, 0xa9,
  0x9a, 0x9b, 0x5c, 0x94, 0x77, 0x94, 0x97, 0x69, 0x85, 0x62, 0x7c, 0x75,
  0x72, 0x8c, 0x73, 0x97, 0x84, 0x8f, 0x80, 0x81, 0x89, 0x97, 0x84, 0x7b,
  0x80, 0x6b, 0x8a, 0x69, 0x97, 0x92, 0x6e, 0x6e, 0x94, 0x71, 0x75, 0x6f,
  0x8b, 0x5a, 0x77, 0x64, 0x8d, 0x7b, 0x85, 0x6e, 0x7c, 0x80, 0x89, 0x66,
  0x6d, 0x9a, 0x8b, 0x81, 0x8c, 0x58, 0x78, 0x75, 0x9e, 0x7e, 0x9b, 0x9c,
  0x96, 0x86, 0x39, 0x70, 0x9a, 0x74, 0x89, 0x79, 0x62, 0x70, 0x68, 0x79,
  0x8f, 0x77, 0x83, 0x91, 0x65, 0x8a, 0x7c, 0x77, 0x86, 0x96, 0x8b, 0x7e,
  0x88, 0xa0, 0xb3, 0x6b, 0x8b, 0x70, 0x91, 0x60, 0x8f, 0xad, 0x92, 0x68,
  0x84, 0x8b, 0x7b, 0x5f, 0x9b, 0x90, 0x54, 0x83, 0xa5, 0x7b, 0x6b, 0x67,
  0xd0, 0x9a, 0x79, 0x86, 0x89, 0x5d, 0x56, 0x72, 0xc7, 0x85, 0x75, 0x7f,
  0x99, 0x7b, 0x96, 0x85, 0x81, 0x7d, 0x62, 0x98, 0x95, 0x6b, 0x8c, 0x69,
  0x8a, 0xab, 0x97, 0x6c, 0x91, 0x80, 0x80, 0x72, 0x90, 0x84, 0x89, 0x95,
  0x8e, 0x9d, 0x6e, 0x75, 0x7a, 0x97, 0x9e, 0x8a, 0x88, 0x7a, 0x6d, 0x7f,
  0x85, 0x9d, 0x83, 0x86, 0x8c, 0x75, 0x51, 0x7d, 0x7d, 0xa1, 0x8d, 0x75,
  0x78, 0x96, 0xa8, 0x7a, 0x78, 0xad, 0x86, 0x8f, 0x89, 0x96, 0x7d, 0x5a,
  0x57, 0x79, 0x9b, 0x7f, 0x90, 0x51, 0x74, 0x7c, 0x85, 0x76, 0x9d, 0x60,
  0x87, 0x92, 0x80, 0x7a, 0x92, 0x73, 0x77, 0x8b, 0x72, 0x8a, 0x8d, 0x97,
  0x73, 0x74, 0x6f, 0x82, 0x70, 0x8a, 0x8d, 0x7a, 0xa2, 0x6a, 0x91, 0x6e,
  0xab, 0x8d, 0x8a, 0x81, 0x7b, 0x8b, 0x5f, 0x70, 0xb8, 0x65, 0x8e, 0x5a,
  0x93, 0x68, 0x71, 0x91, 0x95, 0x85, 0x79, 0x7a, 0x61, 0x74, 0x81, 0x74,
  0x7f, 0x71, 0x87, 0x56, 0x77, 0xc1, 0x91, 0x73, 0x8e, 0xa4, 0x9f, 0x66,
  0x81, 0xc8, 0x88, 0x60, 0xae, 0x71, 0x8c, 0x63, 0x9f, 0xbd, 0x5b, 0x7e,
  0xb6, 0x68, 0x64, 0x87, 0xc2, 0x85, 0x61, 0xa6, 0xa1, 0x83, 0x62, 0xa2,
  0x9c, 0xc5, 0x99, 0x76, 0x91, 0x75, 0x67, 0x83, 0x84, 0xaa, 0x6a, 0x86,
  0x87, 0x8b, 0x7a, 0x62, 0x68, 0x9c, 0x86, 0x8a, 0x82, 0x80, 0x8b, 0x6e,
  0x7d, 0x8c, 0x84, 0x93, 0x9e, 0x7a, 0x8c, 0x6b, 0x82, 0xb5, 0x6b, 0x77,
  0x82, 0x8e, 0x89, 0x87, 0x84, 0xb9, 0x8f, 0x85, 0x94, 0x77, 0x7b, 0x8c,
  0x8a, 0xa1, 0x92, 0x70, 0x8a, 0x8d, 0x5e, 0x7a, 0x76, 0x9f, 0xac, 0xa3,
  0x8d, 0x88, 0x87, 0x79, 0x6d, 0x95, 0x9f, 0x91, 0x7c, 0x79, 0x8e, 0x5f,
  0x76, 0x90, 0x89, 0x7d, 0x8c, 0x7c, 0x7b, 0x64, 0x83, 0x91, 0x8e, 0x7b,
  0x75, 0x79, 0x71, 0xa0, 0x72, 0xad, 0x97, 0x71, 0x97, 0x88, 0x81, 0x88,
  0x9d, 0x8c, 0x66, 0x7e, 0xa9, 0x7a, 0x92, 0xa5, 0x8d, 0xb3, 0x49, 0x9e,
  0xac, 0x6f, 0x7c, 0x61, 0x87, 0x94, 0x53, 0xac, 0x85, 0xa2, 0x7e, 0x86,
  0x5c, 0xaa, 0x7d, 0x7f, 0x8f, 0x97, 0x9b, 0x7f, 0x74, 0xb2, 0x6d, 0x33,
  0x91, 0x7b, 0xb0, 0x77, 0x8a, 0xd3, 0xa0, 0x5e, 0x93, 0x71, 0x8a, 0x6a,
  0xb4, 0xb9, 0x6b, 0x81, 0xa6, 0x7e, 0x83, 0x90, 0xcb, 0xa1, 0x58, 0x8b,
  0xa9, 0x82, 0x55, 0x7a, 0xb1, 0x9d, 0x52, 0x8e, 0xb3, 0x7a, 0x7b, 0x88,
  0x8f, 0xae, 0x82, 0x5c, 0x90, 0x7e, 0x6f, 0x87, 0x4b, 0x87, 0x9a, 0x88,
  0x77, 0xa3, 0x73, 0x64, 0x8b, 0xaa, 0x68, 0x81, 0x85, 0x97, 0x70, 0x77,
  0x79, 0x9e, 0x9d, 0x8d, 0xa4, 0x65, 0x85, 0xa2, 0x7f, 0xcd, 0x85, 0x8d,
  0xaf, 0x7f, 0x66, 0x71, 0x8a, 0x9e, 0x8e, 0x63, 0x89, 0x8a, 0x7b, 0x83,
  0x58, 0x93, 0x7a, 0x91, 0x8a, 0x99, 0x96, 0x80, 0x5f, 0x77, 0x9d, 0x8f,
  0x89, 0x7b, 0x8f, 0x64, 0x59, 0x8a, 0x61, 0x7d, 0x82, 0x6e, 0xa3, 0x8e,
  0x79, 0x82, 0x86, 0x72, 0x63, 0x90, 0x7f, 0x7e, 0x88, 0x8b, 0x9f, 0x87,
  0x78, 0x7b, 0x87, 0x7b, 0xa0, 0xb4, 0x43, 0x7d, 0xa2, 0x84, 0xa4, 0x7c,
  0x8b, 0xad, 0x30, 0x7e, 0xba, 0x60, 0x83, 0x6a, 0x87, 0xb5, 0x55, 0x7e,
  0x99, 0x71, 0x83, 0x6e, 0x77, 0xc7, 0x8a, 0x6e, 0x6d, 0x8b, 0x7c, 0x92,
  0x5c, 0xd6, 0x89, 0x3b, 0x91, 0x77, 0x80, 0x6f, 0x9c, 0xd6, 0x7c, 0x5e,
  0xbd, 0x8f, 0x88, 0x7f, 0xa5, 0xd7, 0x58, 0x66, 0xbd, 0x72, 0x80, 0x9e,
  0xa8, 0xb1, 0x7b, 0x94, 0xb4, 0x8d, 0x7b, 0x94, 0x97, 0xa8, 0x80, 0x8d,
  0xa1, 0x8d, 0x60, 0x8c, 0x7b, 0xbe, 0xa5, 0x6a, 0x90, 0x97, 0x8d, 0x77,
  0x75, 0xa4, 0x83, 0x7b, 0x91, 0x74, 0x5e, 0x6e, 0x76, 0x8e, 0x95, 0x7c,
  0x93, 0x67, 0x7b, 0x78, 0x98, 0xca, 0x77, 0x91, 0x96, 0x78, 0x87, 0x9b,
  0x77, 0xb9, 0x91, 0x95, 0xab, 0x92, 0x66, 0x97, 0x94, 0xbf, 0x98, 0x61,
  0x8f, 0x6c, 0x84, 0x8b, 0x6c, 0x88, 0xa3, 0x96, 0x74, 0x71, 0x86, 0x9f,
  0x6d, 0x92, 0x78, 0x75, 0x8b, 0x66, 0x94, 0x70, 0x90, 0x80, 0x71, 0x80,
  0x85, 0xab, 0x82, 0x91, 0x79, 0x60, 0x85, 0x84, 0x66, 0x8e, 0x80, 0x86,
  0x7d, 0xa9, 0x86, 0x6d, 0x7a, 0x65, 0x81, 0x78, 0x83, 0x96, 0x61, 0x73,
  0xb1, 0x88, 0xac, 0x81, 0x8d, 0xc5, 0x3b, 0x91, 0xa4, 0x76, 0x71, 0x70,
  0x97, 0xb7, 0x45, 0x84, 0x85, 0x6a, 0xa6, 0x93, 0x5f, 0xb8, 0x8a, 0x66,
  0x8d, 0x69, 0x72, 0x81, 0x6c, 0xc4, 0x8a, 0x39, 0x89, 0xa4, 0x95, 0x86,
  0x98, 0xe4, 0xa9, 0x59, 0xad, 0x77, 0x8a, 0x7c, 0x9f, 0xd4, 0x5d, 0x77,
  0xc0, 0x64, 0x7e, 0x9b, 0xb8, 0xab, 0x75, 0x6c, 0xaf, 0x7b, 0x72, 0x76,
  0x98, 0xa5, 0x88, 0x73, 0xbd, 0x96, 0x65, 0x84, 0x85, 0xb5, 0x86, 0x7f,
  0x9d, 0x5d, 0x6b, 0x78, 0x77, 0xab, 0x81, 0x73, 0x7e, 0x61, 0x69, 0x7e,
  0x7d, 0xa4, 0xa0, 0x88, 0x93, 0xa0, 0x82, 0x81, 0x82, 0xa2, 0xb7, 0x7f,
  0x77, 0x6d, 0x66, 0x9a, 0x8e, 0xbc, 0xc4, 0x91, 0x88, 0x61, 0x7d, 0x76,
  0x97, 0xb8, 0xb2, 0x88, 0x8e, 0x6a, 0x59, 0x88, 0x78, 0xa4, 0x73, 0x7a,
  0x92, 0x83, 0x88, 0x8e, 0x62, 0x94, 0x7f, 0x85, 0x81, 0x6c, 0xa7, 0x98,
  0x7e, 0x7d, 0x89, 0x82, 0x90, 0x6f, 0x6e, 0x9e, 0x73, 0x7c, 0x88, 0x77,
  0x8d, 0x7e, 0x8b, 0x97, 0x97, 0xb8, 0x85, 0x83, 0xa7, 0x65, 0x84, 0x8c,
  0x88, 0xb4, 0x5e, 0x69, 0xa9, 0x85, 0xb9, 0x86, 0x9d, 0xdf, 0x38, 0x6e,
  0xa2, 0x93, 0x6c, 0x7a, 0x85, 0xc9, 0x48, 0x9e, 0x96, 0x70, 0x94, 0x6d,
  0x75, 0xca, 0x8b, 0x3c, 0x72, 0x82, 0x8e, 0x86, 0x80, 0xe7, 0xa1, 0x4a,
  0x7f, 0x80, 0xa8, 0x7f, 0x94, 0xcb, 0x94, 0x53, 0xb4, 0x94, 0x89, 0x95,
  0xbb, 0xc2, 0x6c, 0x82, 0xaa, 0x85, 0x6c, 0x7c, 0xbc, 0xa1, 0x62, 0x97,
  0xc9, 0x79, 0x77, 0x72, 0x95, 0x9a, 0x9b, 0x70, 0xb8, 0x65, 0x88, 0x88,
  0x80, 0xa8, 0x96, 0x72, 0x73, 0x6a, 0x72, 0x84, 0x86, 0xae, 0x9a, 0x7b,
  0x77, 0x84, 0x7a, 0x82, 0x81, 0x99, 0xb8, 0x7a, 0x67, 0x7d, 0x7d, 0x7b,
  0x7f, 0xa7, 0x86, 0x6e, 0x86, 0x5d, 0x7b, 0x90, 0x80, 0x9d, 0x86, 0x83,
  0x8f, 0x8d, 0x79, 0x7f, 0x80, 0xb8, 0x6f, 0x83, 0x93, 0x90, 0x98, 0x8e,
  0x5d, 0x9c, 0x97, 0x84, 0x97, 0x73, 0x7c, 0x92, 0x61, 0x83, 0x77, 0x8b,
  0x8c, 0x5b, 0x99, 0x99, 0x88, 0x8b, 0x6f, 0xa5, 0x80, 0x89, 0x6b, 0x9d,
  0x79, 0x92, 0x90, 0x80, 0x88, 0x97, 0x86, 0x94, 0x8f, 0xcb, 0x82, 0xa1,
  0x94, 0x7a, 0x79, 0x6f, 0x92, 0x9a, 0x68, 0x79, 0xa8, 0x93, 0xb3, 0x9b,
  0x97, 0xc8, 0x49, 0x8b, 0xa7, 0x98, 0x85, 0x66, 0x80, 0xc4, 0x77, 0x65,
  0x8e, 0x86, 0x83, 0x98, 0x6f, 0xcc, 0xab, 0x43, 0x7b, 0x82, 0x85, 0x85,
  0x6b, 0xdc, 0xa7, 0x30, 0x8c, 0x91, 0x89, 0x8a, 0x90, 0xcf, 0xa6, 0x46,
  0xc2, 0x7f, 0x77, 0x7d, 0xa8, 0xba, 0x75, 0x5e, 0xcb, 0xa8, 0x7d, 0x8c,
  0xae, 0xce, 0x61, 0x7a, 0xc9, 0x7f, 0x71, 0x88, 0x99, 0xb0, 0x63, 0x8b,
  0xac, 0x99, 0x6d, 0x85, 0x77, 0xbc, 0x86, 0x71, 0xa8, 0x6a, 0x6e, 0x96,
  0x76, 0xbb, 0x7c, 0x84, 0x7d, 0x69, 0x79, 0x83, 0x77, 0x92, 0xa2, 0x9a,
  0x8a, 0x63, 0x56, 0x7b, 0x65, 0x93, 0x8e, 0x6c, 0x98, 0x5e, 0x73, 0x77,
  0x80, 0xa5, 0xa9, 0x99, 0x9f, 0x62, 0x74, 0x7f, 0x88, 0xc7, 0x82, 0x6d,
  0x8a, 0x4a, 0x72, 0x93, 0x75, 0xb0, 0x7b, 0x9c, 0x78, 0x6c, 0x9b, 0x8a,
  0x69, 0x81, 0x87, 0x77, 0x9b, 0x7c, 0x88, 0x89, 0x76, 0x8e, 0x83, 0x8b,
  0x8f, 0x7c, 0xa1, 0x93, 0x80, 0x7d, 0x85, 0x76, 0x71, 0x64, 0x84, 0x7a,
  0x8a, 0xc4, 0x7e, 0x94, 0x87, 0x81, 0x7f, 0x8a, 0x95, 0xac, 0x54, 0x8b,
  0x9b, 0x8d, 0xbe, 0x8c, 0x93, 0xd7, 0x51, 0x6b, 0xb2, 0x80, 0x8e, 0x5a,
  0x88, 0xba, 0x67, 0x94, 0x97, 0x96, 0x81, 0x99, 0x57, 0xcc, 0x9c, 0x62,
  0x73, 0x80, 0x74, 0x72, 0x94, 0xd3, 0xa4, 0x46, 0x7b, 0x76, 0x8c, 0x7f,
  0x91, 0xe0, 0x8f, 0x5c, 0x9c, 0x92, 0x8d, 0x95, 0xad, 0xb0, 0x85, 0x7a,
  0xd6, 0x8c, 0x6d, 0x7c, 0xcb, 0xd0, 0x76, 0x7b, 0xc4, 0x50, 0x6b, 0x8c,
  0xa2, 0xc2, 0x96, 0x70, 0xc4, 0x6e, 0x76, 0x78, 0x71, 0xc8, 0x9b, 0x94,
  0x90, 0x6a, 0x72, 0x7c, 0x6f, 0xa4, 0x99, 0x75, 0x85, 0x6b, 0x77, 0x84,
  0x81, 0x90, 0x89, 0x79, 0x75, 0x51, 0x68, 0x74, 0x74, 0xa9, 0x6b, 0x6c,
  0x83, 0x4e, 0x70, 0x87, 0x7b, 0xad, 0x99, 0x8a, 0x95, 0x5c, 0x93, 0x8c,
  0x87, 0xc6, 0x82, 0x75, 0x8b, 0x5d, 0x73, 0x68, 0x69, 0xb4, 0xab, 0x90,
  0x82, 0x78, 0x8d, 0x92, 0x7f, 0x84, 0x7f, 0x92, 0x92, 0x79, 0x8c, 0xa2,
  0x8a, 0x73, 0x61, 0x8a, 0x8f, 0x57, 0x63, 0x7f, 0x82, 0x9d, 0x8f, 0x72,
  0x9a, 0x6a, 0x85, 0x86, 0x90, 0xcd, 0x7d, 0x8e, 0x90, 0x71, 0x81, 0x8a,
  0x8c, 0xba, 0x7a, 0x85, 0xbc, 0x57, 0xbc, 0x94, 0xb0, 0xc8, 0x51, 0x90,
  0xa1, 0x89, 0x96, 0x58, 0x86, 0xbd, 0x55, 0x72, 0xa7, 0x7f, 0x88, 0x70,
  0x77, 0x9d, 0xad, 0x5b, 0x86, 0x6b, 0x8f, 0x8a, 0x91, 0xeb, 0xa8, 0x51,
  0x8e, 0x7c, 0x9b, 0x88, 0xa7, 0xe2, 0xb0, 0x45, 0xb2, 0x95, 0x86, 0x7a,
  0xa0, 0xc6, 0x6c, 0x9a, 0xba, 0x8d, 0x8d, 0x77, 0xb1, 0xae, 0x67, 0x86,
  0xd3, 0x66, 0x80, 0x89, 0xa5, 0xa6, 0xa4, 0x7f, 0xc4, 0x5b, 0x6f, 0x90,
  0x7f, 0xbc, 0x9e, 0x9f, 0x9c, 0x81, 0x8f, 0x8c, 0x70, 0xb4, 0x7d, 0x80,
  0x73, 0x3b, 0x4f, 0x5f, 0x87, 0x87, 0x8a, 0x89, 0x84, 0x73, 0x57, 0x87,
  0x80, 0x83, 0x6c, 0x91, 0x9a, 0x66, 0x8b, 0x69, 0x85, 0xad, 0x7b, 0xbb,
  0x89, 0x5d, 0x6f, 0x7e, 0x7f, 0xce, 0x9a, 0x81, 0xa8, 0x4c, 0x89, 0x75,
  0x64, 0xa2, 0xad, 0x84, 0x8b, 0x4b, 0x9d, 0x87, 0x6b, 0x86, 0x8b, 0x98,
  0x8f, 0x4a, 0x6c, 0x9b, 0x71, 0x90, 0x6e, 0x8e, 0x96, 0x63, 0x85, 0xa8,
  0x7f, 0x81, 0xa6, 0x8f, 0x80, 0x5f, 0x8c, 0xa1, 0x83, 0xb7, 0x95, 0x87,
  0x85, 0x71, 0x85, 0x7d, 0x98, 0xc0, 0x6e, 0x65, 0xa3, 0x73, 0xb1, 0x78,
  0xa8, 0xd5, 0x2e, 0x80, 0x8b, 0x83, 0x8b, 0x60, 0x75, 0xa9, 0x44, 0x67,
  0x8d, 0x73, 0x98, 0x73, 0x8a, 0xcc, 0xa4, 0x81, 0x81, 0x75, 0x7c, 0x83,
  0xa4, 0xcb, 0x99, 0x7e, 0x72, 0x4e, 0xb4, 0x89, 0xb7, 0xe7, 0x83, 0x6a,
  0xb7, 0x9e, 0x89, 0x7f, 0xae, 0xc7, 0x7c, 0x74, 0xb7, 0x5d, 0x89, 0x93,
  0xbf, 0xcc, 0x76, 0x73, 0xb7, 0x72, 0x60, 0x82, 0x87, 0xbb, 0x8a, 0x62,
  0xbb, 0x60, 0x78, 0x7c, 0x72, 0xb0, 0x97, 0x93, 0x86, 0x67, 0x7e, 0x7e,
  0x79, 0xb0, 0x9a, 0x82, 0x80, 0x81, 0x65, 0x6a, 0x7a, 0x86, 0x6e, 0x73,
  0x69, 0x4f, 0x6b, 0x8c, 0x89, 0x85, 0x93, 0x98, 0x91, 0x58, 0x81, 0x8d,
  0x77, 0x98, 0x8c, 0xb0, 0x91, 0x5d, 0x9d, 0x8b, 0x6e, 0xa4, 0x93, 0x89,
  0x7d, 0x2b, 0x85, 0x7c, 0x66, 0xa1, 0x8f, 0x99, 0x7c, 0x45, 0x86, 0x88,
  0x86, 0x7a, 0x68, 0x6b, 0xa1, 0x47, 0x8d, 0xad, 0x81, 0x94, 0x74, 0x99,
  0x8f, 0x45, 0x57, 0x93, 0xa0, 0x8e, 0x91, 0x78, 0x93, 0x5d, 0x7e, 0x83,
  0x80, 0xce, 0x73, 0x95, 0x8f, 0x8d, 0x82, 0x7e, 0xa6, 0xb7, 0x71, 0x7a,
  0x9c, 0x64, 0xb4, 0x5c, 0xa1, 0xc1, 0x3c, 0x78, 0xa1, 0x7a, 0x8a, 0x54,
  0x79, 0xa9, 0x4d, 0x94, 0xac, 0x9c, 0x97, 0x7f, 0x89, 0xac, 0x96, 0x70,
  0x83, 0x9f, 0x91, 0x79, 0x90, 0xdb, 0xa3, 0x51, 0x90, 0x89, 0xa4, 0x83,
  0x98, 0xd5, 0x9b, 0x59, 0xa2, 0x57, 0x71, 0x80, 0x9f, 0xd1, 0x87, 0x7d,
  0xb8, 0x68, 0x79, 0x8c, 0xb4, 0xd1, 0x74, 0x6e, 0xe1, 0x73, 0x63, 0x8a,
  0x94, 0xa7, 0x8b, 0x82, 0xad, 0x60, 0x56, 0x95, 0x68, 0xa3, 0x71, 0x8b,
  0xbb, 0x57, 0x82, 0x8b, 0x7a, 0xcb, 0x70, 0x81, 0x7f, 0x41, 0x6b, 0x8a,
  0x70, 0x98, 0x84, 0x66, 0x7d, 0x41, 0x70, 0x88, 0x7b, 0x98, 0x92, 0x8a,
  0x95, 0x60, 0x9e, 0x6f, 0x74, 0xbc, 0x77, 0xb0, 0x89, 0x20, 0x86, 0x78,
  0x6d, 0xa6, 0x8b, 0x8f, 0x85, 0x24, 0x6a, 0x82, 0x5c, 0xa9, 0x94, 0x92,
  0x95, 0x52, 0xa6, 0x88, 0x69, 0x6e, 0x73, 0x91, 0x9f, 0x4f, 0x6d, 0x99,
  0x70, 0x92, 0x5b, 0x9e, 0xa4, 0x78, 0x5e, 0x7c, 0x7b, 0x95, 0x88, 0x93,
  0x95, 0x70, 0x95, 0x8f, 0x9a, 0xa7, 0x87, 0x8b, 0x77, 0x4c, 0x62, 0x62,
  0xa8, 0xa4, 0x69, 0x69, 0xac, 0x68, 0xae, 0x70, 0x90, 0xbe, 0x3f, 0x9d,
  0xb7, 0x89, 0x90, 0x7e, 0x84, 0xb3, 0x43, 0x82, 0xab, 0x98, 0x7d, 0x6b,
  0x66, 0xaa, 0x9c, 0x59, 0x88, 0x6c, 0x83, 0x76, 0x8d, 0xcf, 0xb7, 0x6a,
  0x72, 0x8e, 0xae, 0x7f, 0xa8, 0xc3, 0x86, 0x75, 0x91, 0x88, 0x7b, 0x7e,
  0xa8, 0xab, 0x7e, 0x88, 0xb3, 0x90, 0x7f, 0x7e, 0xab, 0xd0, 0x6e, 0x57,
  0xbe, 0x5e, 0x6d, 0x82, 0x83, 0xb2, 0x7f, 0x73, 0xb4, 0x7a, 0x6d, 0x89,
  0x86, 0xb8, 0x6c, 0x68, 0x9d, 0x59, 0x85, 0x85, 0x6a, 0xb1, 0x9c, 0x7b,
  0x79, 0x6c, 0x67, 0x88, 0x7e, 0x99, 0x81, 0x71, 0x8b, 0x44, 0x73, 0x8f,
  0x7f, 0xa4, 0x9e, 0x9b, 0x8a, 0x4e, 0x82, 0x7e, 0x80, 0x95, 0x7b, 0xab,
  0x75, 0x4b, 0x95, 0x8a, 0x65, 0xa6, 0x96, 0x90, 0x7e, 0x5c, 0x83, 0x70,
  0x62, 0xa4, 0x85, 0x95, 0x97, 0x64, 0x8a, 0x73, 0x7d, 0x7a, 0x79, 0x7e,
  0x9e, 0x52, 0x71, 0xa2, 0x7b, 0x84, 0x63, 0xa5, 0xa5, 0x77, 0x8c, 0x7d,
  0x78, 0xba, 0x8f, 0x82, 0x87, 0x6c, 0x8d, 0x8e, 0x84, 0xd3, 0x74, 0x7d,
  0x9d, 0x73, 0x70, 0x5a, 0x9b, 0xbc, 0x63, 0x83, 0xbc, 0x97, 0xb4, 0x6f,
  0x9e, 0xc5, 0x2a, 0x94, 0xb5, 0x84, 0x7a, 0x68, 0x85, 0xb4, 0x59, 0x8d,
  0x8e, 0x50, 0x84, 0x75, 0x6c, 0xaa, 0x95, 0x7a, 0x9e, 0x69, 0x92, 0x79,
  0x78, 0xc4, 0xa1, 0x6b, 0x6c, 0x5b, 0x86, 0xad, 0xac, 0xd9, 0x94, 0x81,
  0xaa, 0x98, 0x84, 0x95, 0xb5, 0xa8, 0x93, 0xb0, 0xc5, 0x88, 0x69, 0x8b,
  0xc5, 0xc5, 0x6f, 0x84, 0x9f, 0x52, 0x8b, 0x89, 0x75, 0xb2, 0x82, 0x7f,
  0xae, 0x6a, 0x77, 0x84, 0x6a, 0x96, 0x8c, 0x76, 0x94, 0x5e, 0x80, 0x91,
  0x77, 0xc2, 0x67, 0x7c, 0x75, 0x3e, 0x75, 0x7f, 0x76, 0xa2, 0x6d, 0x6b,
  0x77, 0x44, 0x6e, 0x9b, 0x81, 0x98, 0x5f, 0x98, 0x90, 0x58, 0x8c, 0x83,
  0x62, 0xaa, 0x8f, 0x95, 0x85, 0x58, 0x72, 0x9f, 0x68, 0xb0, 0x84, 0x9b,
  0x5c, 0x4e, 0x6b, 0x84, 0x64, 0xa1, 0xaf, 0x7c, 0x8f, 0x3c, 0x75, 0x73,
  0x71, 0x86, 0x76, 0x7f, 0x91, 0x69, 0x7b, 0x9d, 0x5c, 0x95, 0x63, 0x9b,
  0x94, 0x68, 0x57, 0x70, 0x77, 0x95, 0x87, 0x76, 0x83, 0x8a, 0x85, 0x83,
  0x7f, 0xc6, 0x85, 0xa4, 0x8a, 0x69, 0x72, 0x71, 0x90, 0xa4, 0x7d, 0x7e,
  0xa9, 0x56, 0xaa, 0x89, 0x7a, 0xc0, 0x30, 0x7e, 0xb2, 0x81, 0x70, 0x68,
  0x86, 0xa0, 0x74, 0xb2, 0xae, 0x5c, 0x7f, 0x74, 0x80, 0x95, 0x85, 0x80,
  0x9f, 0x67, 0x8f, 0x94, 0x9a, 0xc1, 0x9a, 0x6a, 0x8b, 0x91, 0x99, 0x76,
  0xa5, 0xd2, 0xa9, 0x76, 0xb1, 0x7a, 0x8b, 0x8d, 0xa3, 0xa9, 0x6e, 0x9c,
  0xbb, 0x89, 0x90, 0x94, 0xba, 0xce, 0x6e, 0x85, 0xab, 0x84, 0x8f, 0x9d,
  0x95, 0xa7, 0x82, 0x6d, 0xaf, 0x58, 0x7d, 0x8e, 0x8c, 0xa4, 0x82, 0x81,
  0x9e, 0x68, 0x60, 0x8e, 0x67, 0xb9, 0x6b, 0x7d, 0x84, 0x4b, 0x64, 0x8a,
  0x8a, 0x9e, 0x7e, 0x73, 0x6a, 0x4f, 0x62, 0x89, 0x77, 0xc3, 0x7c, 0x81,
  0x77, 0x5c, 0x72, 0x74, 0x83, 0x9f, 0x89, 0xae, 0x78, 0x3c, 0x89, 0x87,
  0x6c, 0xac, 0x82, 0x9a, 0x88, 0x4e, 0x7a, 0x99, 0x66, 0x99, 0x9c, 0x95,
  0x75, 0x50, 0x72, 0x78, 0x70, 0x87, 0x89, 0x82, 0xa9, 0x61, 0x79, 0x9f,
  0x87, 0x9e, 0x70, 0x92, 0x8e, 0x73, 0x6a, 0x75, 0x81, 0xaa, 0x77, 0x71,
  0x80, 0x6d, 0x9c, 0x7e, 0x84, 0xe5, 0x99, 0xa7, 0x8f, 0x86, 0x6a, 0x70,
  0x80, 0xb3, 0x51, 0x82, 0xb1, 0x56, 0x9d, 0x8a, 0x75, 0xb3, 0x1c, 0x99,
  0xb9, 0x93, 0x8b, 0x5f, 0x6f, 0xb7, 0x4d, 0xc3, 0xa0, 0x67, 0x76, 0x8a,
  0x68, 0xbb, 0x8a, 0x80, 0x93, 0x82, 0x89, 0x7a, 0x85, 0xc0, 0x9a, 0x5c,
  0x91, 0x71, 0x8a, 0x80, 0xaf, 0xca, 0xa9, 0x88, 0x8f, 0x81, 0xaa, 0x81,
  0x95, 0xc4, 0x5c, 0x96, 0xbc, 0x8e, 0x77, 0x8e, 0xad, 0xdf, 0x7e, 0x71,
  0xae, 0x57, 0x57, 0x93, 0x87, 0xb1, 0x94, 0x89, 0xa7, 0x70, 0x84, 0x91,
  0x76, 0xc0, 0x6a, 0x89, 0x6b, 0x54, 0x9b, 0x96, 0x72, 0xa2, 0x8b, 0x75,
  0x5b, 0x72, 0x72, 0x8f, 0x6c, 0x92, 0x86, 0x93, 0x87, 0x4c, 0x62, 0x96,
  0x8b, 0x9c, 0x60, 0x95, 0x75, 0x55, 0x70, 0x7b, 0x70, 0xb8, 0xa3, 0x9d,
  0x6a, 0x35, 0x86, 0x88, 0x58, 0xaf, 0x9f, 0x98, 0x7e, 0x35, 0x7d, 0x84,
  0x62, 0x92, 0x64, 0xae, 0x94, 0x56, 0x7f, 0x7b, 0x5c, 0x84, 0x84, 0x93,
  0x98, 0x5a, 0x90, 0x9e, 0x6e, 0x84, 0x61, 0x87, 0x9c, 0x81, 0x81, 0x78,
  0x85, 0x82, 0x77, 0x70, 0x80, 0x5e, 0x87, 0x7d, 0x8d, 0xca, 0x94, 0x88,
  0x9f, 0x61, 0x75, 0x47, 0x6f, 0xb2, 0x5f, 0x95, 0xa2, 0x68, 0xb2, 0x76,
  0x7a, 0xb5, 0x28, 0x97, 0xc9, 0x58, 0x7a, 0x6d, 0x7a, 0xc4, 0x46, 0x85,
  0xb7, 0x5c, 0x83, 0x5c, 0x68, 0xcb, 0x99, 0x5d, 0x93, 0x70, 0x8b, 0x77,
  0x89, 0xaa, 0xac, 0x74, 0x8f, 0x7c, 0x9e, 0x9d, 0x94, 0xd0, 0x98, 0x87,
  0x8e, 0x92, 0x8f, 0x7b, 0x94, 0xc6, 0x72, 0x98, 0xb4, 0x76, 0x89, 0x70,
  0xab, 0xec, 0x74, 0x76, 0x94, 0x75, 0x7d, 0x91, 0x95, 0xc7, 0x8a, 0x83,
  0xa6, 0x75, 0x89, 0x8b, 0x6d, 0xa5, 0x75, 0x94, 0x6e, 0x92, 0x97, 0x8a,
  0x76, 0x9a, 0x66, 0x90, 0x60, 0x6b, 0x63, 0x79, 0x88, 0x81, 0x6d, 0x90,
  0x70, 0x5a, 0x6a, 0x87, 0x83, 0xbf, 0x85, 0x86, 0x75, 0x54, 0x71, 0x84,
  0x7f, 0xad, 0x86, 0x96, 0x7d, 0x4b, 0x7e, 0x86, 0x56, 0xb3, 0x75, 0xaa,
  0x97, 0x48, 0x6f, 0x87, 0x5a, 0xa6, 0x96, 0x9e, 0x75, 0x48, 0x70, 0x8b,
  0x5c, 0x83, 0x89, 0x98, 0xaa, 0x55, 0x71, 0xa4, 0x6c, 0x85, 0x79, 0x9c,
  0xa3, 0x63, 0x7d, 0x85, 0x8c, 0xa4, 0x7f, 0x84, 0x9d, 0x62, 0x88, 0x7f,
  0x85, 0xe1, 0xa1, 0xa1, 0x82, 0x51, 0x6d, 0x50, 0x94, 0xae, 0x66, 0x80,
  0xbc, 0x60, 0xa3, 0x60, 0x84, 0xbd, 0x59, 0x9c, 0xd6, 0x73, 0x91, 0x78,
  0x74, 0xb5, 0x49, 0x99, 0x9c, 0x7a, 0x95, 0x7c, 0x5c, 0xa9, 0x7e, 0x91,
  0x7c, 0x8c, 0x8b, 0x7d, 0x8d, 0xb3, 0x8c, 0x76, 0x7a, 0x97, 0xa2, 0xa3,
  0xa3, 0xb7, 0x99, 0x79, 0x95, 0x83, 0xa6, 0x85, 0xb1, 0xdf, 0x8f, 0xba,
  0xb7, 0x7b, 0x69, 0x7c, 0xb3, 0xd5, 0x85, 0x90, 0x8c, 0x86, 0x51, 0x90,
  0x83, 0xce, 0xa1, 0x95, 0xb9, 0x7b, 0x88, 0x87, 0x7f, 0x91, 0x95, 0x8f,
  0x69, 0x63, 0x7b, 0x87, 0x7d, 0xaa, 0x6a, 0x83, 0x72, 0x73, 0x56, 0x7a,
  0x83, 0x8b, 0x87, 0x97, 0x61, 0x4e, 0x4c, 0x76, 0x75, 0xab, 0x68, 0x74,
  0x80, 0x68, 0x6f, 0x7e, 0x71, 0xb0, 0x97, 0xaa, 0x77, 0x5e, 0x79, 0x87,
  0x48, 0xa1, 0x83, 0x99, 0x7d, 0x40, 0x7f, 0x76, 0x69, 0x9b, 0x88, 0x8e,
  0x6b, 0x37, 0x82, 0x7f, 0x54, 0x81, 0x91, 0x9d, 0xa3, 0x52, 0x92, 0x96,
  0x94, 0x7d, 0x72, 0xa5, 0x8e, 0x7c, 0x77, 0x8c, 0x6b, 0x8f, 0x79, 0x7d,
  0x96, 0x66, 0x8c, 0x58, 0x85, 0xc6, 0x7d, 0x8d, 0x9b, 0x50, 0x74, 0x56,
  0x9a, 0xa2, 0x72, 0x90, 0xb2, 0x8c, 0x88, 0x80, 0x9b, 0x9e, 0x52, 0x91,
  0xe1, 0x8f, 0x98, 0x4d, 0x7b, 0xbf, 0x4d, 0xa6, 0xab, 0x66, 0x81, 0x81,
  0x7c, 0xb5, 0x65, 0x76, 0x66, 0x6d, 0x82, 0x9e, 0x86, 0xd5, 0xa1, 0x77,
  0x95, 0x6b, 0x9e, 0x6f, 0x9c, 0xaa, 0x97, 0x81, 0xa2, 0xa8, 0xbc, 0x7f,
  0xa7, 0xd0, 0x7f, 0xa2, 0xc0, 0x8b, 0x7c, 0xaa, 0x95, 0xbb, 0x54, 0x82,
  0x9f, 0x8a, 0x5e, 0x7e, 0x6e, 0xc9, 0x93, 0x79, 0xa5, 0x67, 0x7f, 0x86,
  0x70, 0xb7, 0x85, 0x8c, 0x78, 0x6a, 0x97, 0x81, 0x71, 0xaa, 0x7c, 0x92,
  0x5f, 0x4d, 0x72, 0x7f, 0x68, 0x9a, 0x84, 0x9c, 0x61, 0x73, 0x76, 0x8e,
  0x77, 0xa3, 0x67, 0x78, 0x81, 0x45, 0x69, 0x7e, 0x67, 0xba, 0x8b, 0xa3,
  0x92, 0x64, 0x83, 0x7e, 0x40, 0xa3, 0x73, 0xaf, 0x81, 0x59, 0x8f, 0x6c,
  0x77, 0x95, 0x7f, 0x85, 0x5c, 0x49, 0x81, 0x86, 0x50, 0x80, 0x77, 0x9d,
  0x85, 0x45, 0xa3, 0x8f, 0x7c, 0x81, 0x56, 0x8a, 0x99, 0x4e, 0x65, 0x7c,
  0x87, 0x97, 0x84, 0x6a, 0x87, 0x4a, 0x7f, 0x7d, 0x71, 0xb2, 0x6b, 0x93,
  0xb2, 0x7b, 0x96, 0x4f, 0xaa, 0xa8, 0x79, 0x81, 0xcf, 0x6d, 0x84, 0x4b,
  0x8e, 0xb5, 0x55, 0x93, 0xcb, 0x65, 0x8d, 0x66, 0x70, 0x9e, 0x6f, 0x9b,
  0x96, 0x8d, 0x7a, 0x64, 0x68, 0xab, 0x6a, 0x9c, 0x83, 0x55, 0x9e, 0x8b,
  0xac, 0xba, 0xb7, 0x7b, 0x8d, 0x53, 0xbe, 0x7e, 0xb3, 0xcd, 0xb2, 0x9a,
  0x9d, 0x85, 0xbf, 0x83, 0xa6, 0xd7, 0x76, 0xb8, 0xa0, 0x89, 0xa2, 0x9f,
  0x8e, 0xdb, 0x70, 0x7b, 0xa8, 0x80, 0x67, 0x8d, 0x97, 0xcd, 0x8b, 0x8f,
  0x9e, 0x6b, 0x8a, 0x97, 0x78, 0x98, 0x7d, 0x83, 0x6a, 0x73, 0x9e, 0x83,
  0x74, 0x94, 0x64, 0x7b, 0x7a, 0x62, 0x70, 0x67, 0x3f, 0x87, 0x84, 0x85,
  0x76, 0x57, 0x5a, 0x81, 0x59, 0xa8, 0x64, 0x87, 0x95, 0x62, 0x77, 0x8a,
  0x51, 0xb4, 0x8c, 0xa5, 0x93, 0x60, 0x9f, 0x86, 0x47, 0xaa, 0x7e, 0x94,
  0x8c, 0x4a, 0x86, 0x7b, 0x5f, 0x82, 0x7e, 0x88, 0x90, 0x34, 0x9b, 0x91,
  0x51, 0x72, 0x82, 0x79, 0x89, 0x57, 0x80, 0x8f, 0x7f, 0x7a, 0x84, 0x8a,
  0x9f, 0x66, 0x80, 0x8c, 0x79, 0x69, 0x81, 0x75, 0x85, 0x63, 0x7a, 0x5b,
  0x78, 0x9a, 0x90, 0x71, 0xb9, 0x56, 0x96, 0x56, 0x85, 0x9a, 0x82, 0x71,
  0xcc, 0x57, 0x83, 0x7d, 0x69, 0xb5, 0x6f, 0x7c, 0xb7, 0x82, 0xa3, 0x4c,
  0x6f, 0xa5, 0x54, 0x83, 0xab, 0x7c, 0x6e, 0x8c, 0x91, 0x82, 0x51, 0x51,
  0x7d, 0x9d, 0x84, 0x59, 0x8d, 0xac, 0x7b, 0x7e, 0x96, 0x72, 0xab, 0x74,
  0x94, 0xcd, 0x84, 0xb0, 0x9d, 0x87, 0xbe, 0x73, 0x88, 0xaa, 0x90, 0x8d,
  0x8d, 0x9f, 0x8e, 0x77, 0x7c, 0xd1, 0x53, 0x9a, 0xa6, 0x87, 0x53, 0x84,
  0x72, 0xbe, 0x71, 0x9a, 0xa7, 0x6a, 0x7d, 0x84, 0x6b, 0x99, 0x8e, 0x8e,
  0x75, 0x75, 0xad, 0x89, 0x6e, 0x97, 0x5d, 0x9b, 0x7c, 0x5d, 0x7c, 0x6a,
  0x73, 0x9f, 0x75, 0x80, 0x7e, 0x59, 0x65, 0x73, 0x7e, 0x9a, 0x6b, 0x60,
  0x92, 0x79, 0x72, 0x62, 0x59, 0xa3, 0x75, 0x7b, 0x91, 0x3f, 0x83, 0x67,
  0x40, 0xb4, 0x92, 0x87, 0xa1, 0x63, 0x83, 0x63, 0x59, 0x9f, 0x7a, 0x78,
  0x7f, 0x30, 0x83, 0x71, 0x54, 0x8a, 0x85, 0x7e, 0x75, 0x4c, 0x8f, 0x92,
  0x7c, 0x76, 0x62, 0x7b, 0x9e, 0x89, 0x56, 0x74, 0x8f, 0x94, 0x88, 0x6a,
  0x75, 0x83, 0x83, 0x5b, 0x77, 0x83, 0x7d, 0x78, 0x6e, 0x77, 0xa1, 0x73,
  0x98, 0x96, 0x56, 0x8c, 0xa6, 0x6d, 0x75, 0x88, 0x7d, 0x8e, 0x99, 0x62,
  0xba, 0x69, 0xa6, 0x5d, 0x97, 0x67, 0x8d, 0x85, 0x7f, 0x84, 0x76, 0x78,
  0x75, 0x81, 0x70, 0x5d, 0x6e, 0x8a, 0x6e, 0x71, 0x84, 0xa0, 0xb4, 0x5a,
  0xa7, 0x8a, 0xb2, 0x6f, 0xb9, 0xcd, 0xbf, 0x92, 0xa5, 0x85, 0x8f, 0x5f,
  0x96, 0xc1, 0x94, 0xad, 0xb9, 0xa6, 0x74, 0x78, 0x97, 0xaa, 0x71, 0xaa,
  0x88, 0x8e, 0x6c, 0x77, 0xad, 0xc6, 0x67, 0x7b, 0x99, 0x71, 0x78, 0x7b,
  0x88, 0x9a, 0xa2, 0x67, 0x79, 0x68, 0x9c, 0x7d, 0x80, 0x7b, 0xa0, 0x62,
  0x6a, 0x85, 0x61, 0x78, 0x8e, 0x85, 0x69, 0x73, 0x8b, 0x68, 0x5a, 0x64,
  0x79, 0x73, 0x63, 0x75, 0xa7, 0x63, 0x63, 0x72, 0x82, 0x95, 0x9d, 0x95,
  0x89, 0x5e, 0x8f, 0x79, 0x64, 0x7e, 0x7b, 0x7f, 0x61, 0x54, 0x76, 0x8d,
  0x61, 0x91, 0x81, 0x56, 0x8a, 0x6c, 0x7f, 0x57, 0x7a, 0x72, 0xac, 0x6d,
  0x58, 0x6a, 0x7d, 0x93, 0x74, 0x6c, 0x84, 0x83, 0x76, 0x80, 0x8e, 0x8b,
  0x89, 0x8f, 0x77, 0x60, 0x71, 0x6b, 0xae, 0xa7, 0xa2, 0x74, 0x7a, 0x73,
  0x94, 0x86, 0x90, 0x95, 0x9a, 0x94, 0x57, 0xad, 0x77, 0x9e, 0x6c, 0xa0,
  0x94, 0x6d, 0x62, 0x7d, 0x6d, 0x6e, 0x72, 0xb5, 0x8c, 0x83, 0x5c, 0x8b,
  0x70, 0x61, 0x7a, 0xac, 0x84, 0xa2, 0x99, 0x54, 0x8b, 0x65, 0x85, 0x8e,
  0x8b, 0x76, 0x7d, 0x84, 0x9f, 0x78, 0x85, 0x71, 0xb6, 0x6d, 0xa8, 0x5f,
  0x91, 0xa1, 0x89, 0x7c, 0x8c, 0x71, 0x9d, 0x7c, 0x68, 0x8e, 0x98, 0xa5,
  0xa1, 0x7d, 0x7d, 0x9d, 0xb5, 0x79, 0x64, 0xa1, 0x8d, 0x97, 0x98, 0x80,
  0x8a, 0x82, 0x93, 0x7a, 0x8c, 0x94, 0x5d, 0x7f, 0x64, 0xa1, 0x6b, 0x83,
  0xae, 0x84, 0x84, 0x85, 0x8c, 0x76, 0x77, 0xa8, 0x87, 0x80, 0x90, 0x7d,
  0xa6, 0xa7, 0x70, 0x68, 0x99, 0x6c, 0xa2, 0x95, 0x85, 0x8a, 0x87, 0xa3,
  0x94, 0x7b, 0xae, 0x76, 0xad, 0x72, 0x91, 0x69, 0x9b, 0xa1, 0xaf, 0x82,
  0xac, 0xb2, 0x6f, 0x88, 0xa7, 0x93, 0x8e, 0x7d, 0x69, 0x6c, 0x57, 0x9e,
  0x95, 0x86, 0x75, 0x82, 0x86, 0x8d, 0x84, 0x79, 0x88, 0x7b, 0x88, 0x95,
  0x83, 0x73, 0x82, 0x89, 0xaf, 0x72, 0xa5, 0x7f, 0x9e, 0x7a, 0x8e, 0x91,
  0x89, 0x8f, 0x74, 0x99, 0x87, 0x85, 0x63, 0x8b, 0x76, 0x9a, 0x6b, 0x95,
  0x8a, 0xa2, 0x7c, 0xb4, 0x8d, 0x60, 0x64, 0x7b, 0x9d, 0x78, 0x81, 0xab,
  0x89, 0x74, 0x89, 0x8f, 0x82, 0x89, 0xa2, 0x99, 0x78, 0x5f, 0x7d, 0x8f,
  0x94, 0xa6, 0x84, 0xa1, 0x8f, 0x7f, 0x85, 0x91, 0x87, 0x68, 0x88, 0x9e,
  0x7c, 0x8e, 0x82, 0x89, 0x73, 0x70, 0x93, 0x96, 0x8f, 0x74, 0x75, 0x6f,
  0x67, 0x71, 0x7b, 0x9b, 0x7f, 0xa9, 0x6e, 0x8e, 0x79, 0x87, 0x6c, 0x81,
  0x82, 0x92, 0x8b, 0xab, 0x92, 0x8a, 0x88, 0x98, 0x8c, 0x94, 0x71, 0x99,
  0x67, 0x6c, 0x77, 0x82, 0x76, 0x87, 0x5b, 0x69, 0x7e, 0x6e, 0x7f, 0x80,
  0x8d, 0x5a, 0x65, 0x7a, 0x81, 0x85, 0x80, 0x8d, 0x96, 0x58, 0x5c, 0x76,
  0x8f, 0x65, 0x9c, 0x98, 0x98, 0x9a, 0xa5, 0x91, 0x8a, 0x7d, 0x93, 0x7d,
  0x95, 0x8c, 0x65, 0x89, 0x79, 0x8d, 0x59, 0x8e, 0x86, 0x81, 0x70, 0x9d,
  0x92, 0x7a, 0x87, 0x82, 0x74, 0xa5, 0x9e, 0x74, 0x96, 0x8b, 0x81, 0x76,
  0x94, 0x7a, 0x71, 0xa8, 0x8e, 0x98, 0x7b, 0xad, 0x9b, 0x9a, 0x9d, 0x5d,
  0x90, 0xa3, 0x8e, 0x82, 0x8e, 0x8c, 0x7c, 0x85, 0x63, 0x7e, 0x9a, 0x9b,
  0x68, 0x82, 0x9d, 0x9f, 0x98, 0x9f, 0x81, 0x6f, 0x79, 0x77, 0x7b, 0x7c,
  0xab, 0x7a, 0xd3, 0x9d, 0x56, 0x55, 0x79, 0x6c, 0x8d, 0x7e, 0xc5, 0x81,
  0x64, 0x5e, 0x93, 0x7f, 0xab, 0x7f, 0xbb, 0x92, 0x79, 0x7b, 0x84, 0x8c,
  0x9f, 0x81, 0x8b, 0x8c, 0x97, 0x7f, 0xb0, 0x7a, 0x84, 0x78, 0x79, 0x80,
  0x8a, 0xb2, 0x77, 0x77, 0x94, 0x97, 0x70, 0x7d, 0x69, 0x80, 0x90, 0x84,
  0x9b, 0x84, 0x7b, 0x6a, 0x99, 0x87, 0x7c, 0x98, 0x93, 0x92, 0x7e, 0x97,
  0xac, 0x9b, 0x7f, 0x8b, 0x79, 0x87, 0x5f, 0xb7, 0x81, 0xb2, 0x80, 0x99,
  0x84, 0x7d, 0x6d, 0x98, 0xb3, 0x87, 0x63, 0x75, 0x83, 0x89, 0x6d, 0x88,
  0x80, 0x99, 0x7f, 0x7e, 0x90, 0x86, 0x9c, 0x97, 0x98, 0x86, 0x77, 0x66,
  0x7c, 0x65, 0x83, 0x89, 0x87, 0x86, 0x72, 0x6d, 0x7d, 0x71, 0x6d, 0x7d,
  0x70, 0x7a, 0x76, 0x8d, 0x90, 0xad, 0x71, 0x6b, 0x91, 0x5a, 0x9e, 0x59,
  0x98, 0x70, 0x74, 0x87, 0x9c, 0x8f, 0x9e, 0x89, 0x8c, 0x83, 0xa5, 0x9e,
  0x9f, 0x78, 0x8d, 0x70, 0x8c, 0x89, 0x8e, 0x81, 0x76, 0xb3, 0x9b, 0xc4,
  0x7d, 0x8a, 0x82, 0x89, 0x6c, 0x82, 0x9b, 0xa8, 0x72, 0x71, 0xc1, 0x85,
  0x5c, 0x5c, 0x77, 0x75, 0x96, 0x82, 0xe3, 0x8e, 0x6b, 0x89, 0x7a, 0x9d,
  0x9d, 0x94, 0xe4, 0xa1, 0x7c, 0x78, 0xb4, 0xa0, 0x90, 0x80, 0xd2, 0x90,
  0x61, 0xa0, 0x8c, 0x9c, 0x90, 0x93, 0xa1, 0xab, 0x9c, 0x7d, 0x6a, 0xa3,
  0x84, 0x7c, 0x92, 0x8e, 0x78, 0x9b, 0x7e, 0x8d, 0x79, 0x79, 0x86, 0xae,
  0x95, 0x5f, 0x75, 0x8e, 0x90, 0x84, 0x8d, 0x8d, 0xb0, 0x93, 0x9a, 0x7d,
  0x83, 0x80, 0x6a, 0x78, 0xc5, 0x7b, 0x74, 0xba, 0x7a, 0x95, 0x61, 0x64,
  0x8f, 0x8d, 0x7d, 0x95, 0x78, 0x8e, 0x76, 0xaf, 0x85, 0x83, 0x9e, 0x83,
  0x91, 0x6e, 0x49, 0x8d, 0xa1, 0x79, 0x94, 0x95, 0x89, 0x89, 0x6b, 0x98,
  0x83, 0x8e, 0x88, 0x85, 0x9b, 0x87, 0x82, 0x83, 0x84, 0x6e, 0x72, 0x74,
  0xa7, 0x6d, 0x7c, 0x6a, 0x78, 0x58, 0x69, 0x56, 0x8d, 0xac, 0x87, 0xa5,
  0x85, 0x73, 0x71, 0x90, 0x7d, 0x8c, 0x6e, 0x8d, 0x88, 0x86, 0xaa, 0x91,
  0x98, 0x5e, 0xa6, 0xa0, 0x8c, 0x8c, 0x96, 0x6f, 0x98, 0x8d, 0x8d, 0x7b,
  0x87, 0x97, 0x73, 0x9d, 0xb2, 0x8b, 0x80, 0x79, 0x60, 0x6e, 0x8d, 0x75,
  0x84, 0xac, 0xbc, 0x9b, 0x52, 0x5f, 0x7f, 0x88, 0x7e, 0x95, 0xe9, 0x7c,
  0x50, 0x92, 0x87, 0x80, 0x88, 0x87, 0xfc, 0x92, 0x4c, 0x77, 0x77, 0x9c,
  0xa0, 0x6f, 0xc8, 0x6d, 0x79, 0x9c, 0x98, 0x99, 0xa5, 0xa0, 0xa4, 0xa0,
  0x91, 0x6d, 0x5e, 0x7f, 0x7c, 0x7d, 0x8b, 0x85, 0x8a, 0x6f, 0xa6, 0x96,
  0x8e, 0x9d, 0xa5, 0x7a, 0x97, 0x88, 0x7f, 0xb4, 0x8e, 0x86, 0x81, 0x95,
  0xb1, 0x86, 0x53, 0x94, 0x9e, 0x8e, 0x74, 0x7c, 0xb0, 0x4c, 0x80, 0x9e,
  0x8f, 0x9f, 0x7e, 0x8c, 0xab, 0x9a, 0x77, 0x80, 0x95, 0x87, 0x75, 0x74,
  0x97, 0x79, 0xa2, 0x67, 0x88, 0x6b, 0x5a, 0x7d, 0x70, 0x53, 0x8f, 0x61,
  0xaa, 0x8e, 0x6e, 0x80, 0x89, 0x58, 0x7d, 0x81, 0x83, 0x8b, 0x9a, 0x8c,
  0x77, 0x72, 0x70, 0x9f, 0x85, 0x8c, 0x8f, 0x7b, 0x90, 0x77, 0x7a, 0x95,
  0x8a, 0x93, 0x5d, 0x94, 0x5a, 0x5c, 0x91, 0x64, 0x90, 0x72, 0x64, 0x99,
  0x76, 0x78, 0x81, 0x84, 0x8d, 0x90, 0x5c, 0x68, 0x95, 0x80, 0x93, 0x85,
  0x88, 0x7c, 0x92, 0x8a, 0x8a, 0x88, 0x6e, 0xa3, 0x68, 0x8b, 0x99, 0x72,
  0x79, 0x77, 0x87, 0x8e, 0x8a, 0x82, 0xba, 0x91, 0x52, 0x33, 0x97, 0x89,
  0x7d, 0x96, 0xf1, 0x9f, 0x6c, 0x52, 0xb2, 0x80, 0x83, 0x9f, 0xf2, 0x95,
  0x50, 0x4b, 0x90, 0xa2, 0xa2, 0x80, 0xcb, 0x84, 0x7c, 0x6a, 0x8b, 0xad,
  0x9f, 0x99, 0x81, 0x6e, 0x8b, 0x78, 0x71, 0x8f, 0x8f, 0x74, 0x7e, 0x80,
  0x70, 0x7f, 0x6b, 0x68, 0x99, 0x6b, 0x8e, 0x6a, 0x8d, 0x69, 0x73, 0x76,
  0x99, 0x6c, 0x9a, 0x90, 0x9d, 0x7f, 0x56, 0x93, 0xae, 0x8b, 0x64, 0x5c,
  0x9d, 0x99, 0x77, 0x9c, 0x8f, 0x74, 0x59, 0x62, 0x8a, 0x81, 0x69, 0xb1,
  0x9d, 0x7c, 0x7c, 0x58, 0x8d, 0x5f, 0x75, 0x77, 0x9a, 0x6d, 0x6b, 0x90,
  0x92, 0x4f, 0x80, 0x7a, 0x94, 0x9d, 0x8a, 0x70, 0x7e, 0x5e, 0x9e, 0x7e,
  0x8a, 0x6d, 0xa2, 0x93, 0x84, 0x67, 0xa8, 0x8b, 0x94, 0x73, 0x7b, 0x62,
  0x71, 0x53, 0xa6, 0x83, 0x88, 0xa4, 0x81, 0x93, 0x94, 0x64, 0x82, 0x83,
  0x8f, 0xa7, 0x69, 0x86, 0x76, 0x8b, 0x9c, 0x78, 0x90, 0x6e, 0x77, 0x64,
  0x87, 0xa1, 0xa9, 0x81, 0xac, 0x81, 0x84, 0x83, 0x82, 0x8f, 0x77, 0x9d,
  0x89, 0xa4, 0x9b, 0x79, 0x68, 0x51, 0x82, 0x9f, 0x80, 0x76, 0xd6, 0x9e,
  0x5a, 0x4c, 0x94, 0x74, 0x70, 0x7f, 0xe6, 0x86, 0x5e, 0x56, 0x93, 0x6d,
  0x78, 0x7c, 0xec, 0x78, 0x5b, 0x3a, 0xb1, 0x8d, 0xa1, 0x6f, 0xe7, 0x7c,
  0x75, 0x6b, 0x66, 0xa8, 0x9f, 0xa4, 0x98, 0x7a, 0x7b, 0x65, 0x78, 0xb6,
  0x7e, 0x9e, 0x90, 0x6a, 0x78, 0x7f, 0x79, 0xa6, 0x73, 0x7f, 0x99, 0x73,
  0x80, 0x72, 0x5f, 0x81, 0x96, 0x92, 0x7e, 0x87, 0xaf, 0x79, 0x4d, 0xa2,
  0xbb, 0x81, 0x73, 0x71, 0xb0, 0x6d, 0x64, 0xa9, 0xa5, 0x71, 0x4a, 0x7a,
  0x7f, 0x6b, 0x7c, 0x9d, 0x95, 0xa4, 0x65, 0x6c, 0x93, 0x77, 0x78, 0xa6,
  0x80, 0xa8, 0x91, 0x7e, 0x7d, 0x6a, 0x89, 0x71, 0xa3, 0x75, 0x84, 0x75,
  0x69, 0x77, 0x70, 0x7d, 0x9e, 0x92, 0x88, 0x6b, 0x7c, 0x73, 0xa0, 0x6c,
  0x95, 0x97, 0xa5, 0x58, 0x59, 0x6a, 0x85, 0x69, 0x6e, 0x9e, 0x7d, 0x7b,
  0x58, 0x4f, 0x6a, 0x69, 0x8d, 0x76, 0x61, 0x91, 0x6e, 0x82, 0x5e, 0x8a,
  0x8c, 0xb2, 0x78, 0x80, 0x75, 0xa6, 0xa0, 0x7c, 0x8e, 0x64, 0x8a, 0x6b,
  0x99, 0x82, 0x70, 0x99, 0x86, 0xa3, 0x9b, 0x72, 0x5e, 0x47, 0x84, 0xaa,
  0x89, 0x65, 0xce, 0x7f, 0x50, 0x0e, 0x8d, 0x69, 0x71, 0x80, 0xe2, 0x95,
  0x59, 0x66, 0x87, 0x8e, 0x94, 0x60, 0xe8, 0x60, 0x67, 0x6a, 0x9b, 0x8b,
  0x88, 0x85, 0xbe, 0x86, 0x76, 0x76, 0x56, 0xa0, 0x96, 0x78, 0x83, 0x80,
  0x7e, 0x5c, 0x69, 0xa5, 0x9c, 0x74, 0x89, 0x80, 0x72, 0x7a, 0x83, 0x7a,
  0x8f, 0x99, 0x9d, 0x82, 0x87, 0x6a, 0x61, 0x8d, 0x90, 0x7b, 0xa5, 0x8f,
  0xa0, 0x98, 0x56, 0xbf, 0xb2, 0x74, 0x60, 0x77, 0xaa, 0x68, 0x5b, 0xaf,
  0x9c, 0x8f, 0x74, 0x79, 0x8f, 0x78, 0x7e, 0x91, 0xa4, 0x8c, 0x5c, 0x66,
  0x9b, 0x63, 0x53, 0x73, 0x9b, 0x89, 0x80, 0x7d, 0x8e, 0x7e, 0x7e, 0x80,
  0x87, 0x6a, 0x8b, 0x7e, 0x6d, 0x6f, 0x7a, 0x88, 0x9e, 0x85, 0x98, 0x7f,
  0x71, 0x62, 0xa7, 0x8d, 0x7b, 0x96, 0xbe, 0x6e, 0x61, 0x67, 0x76, 0x63,
  0x67, 0x7f, 0x99, 0x94, 0x76, 0x64, 0x98, 0x51, 0x95, 0x98, 0x70, 0x84,
  0x65, 0x80, 0x87, 0x7a, 0x93, 0x86, 0x71, 0x73, 0x7e, 0x7d, 0x8e, 0x91,
  0xb8, 0x83, 0x89, 0x5c, 0x8b, 0x6b, 0x8b, 0x7d, 0x7a, 0x8f, 0xa3, 0x74,
  0x4d, 0x35, 0x8f, 0x81, 0x94, 0x76, 0xe1, 0x6e, 0x5b, 0x04, 0x97, 0x71,
  0x67, 0x7a, 0xd7, 0x8c, 0x62, 0x3b, 0x79, 0x7a, 0x8e, 0x8b, 0xfe, 0x7e,
  0x6a, 0x3e, 0x90, 0xa7, 0xaa, 0x84, 0xce, 0x79, 0x7e, 0x5c, 0x6c, 0x9d,
  0x8e, 0x70, 0x85, 0x8b, 0x76, 0x61, 0x6c, 0xa4, 0x88, 0x80, 0x7c, 0x7d,
  0x70, 0x85, 0x63, 0x88, 0x8d, 0x96, 0x9a, 0x8d, 0x8d, 0x4e, 0x73, 0x70,
  0x9a, 0x91, 0x89, 0x7a, 0x9d, 0x8f, 0x4c, 0xae, 0xd0, 0x91, 0x6c, 0x82,
  0x9c, 0x5e, 0x42, 0xae, 0xab, 0x8a, 0x5b, 0x7a, 0xac, 0x5a, 0x82, 0x99,
  0x93, 0x71, 0x69, 0x7f, 0xa9, 0x67, 0x80, 0xa9, 0xa5, 0xa8, 0x80, 0x78,
  0x89, 0x54, 0x7d, 0x77, 0x84, 0x7b, 0x82, 0x7c, 0x7a, 0x6b, 0x95, 0x7f,
  0x83, 0x73, 0xaf, 0x6f, 0x57, 0x50, 0xbc, 0xa5, 0x7e, 0x9e, 0x99, 0x6f,
  0x71, 0x5e, 0x9e, 0x75, 0x80, 0x80, 0x93, 0x7a, 0x6c, 0x65, 0x6d, 0x65,
  0x82, 0x6f, 0x7a, 0x6f, 0x64, 0x6d, 0x87, 0x85, 0x9f, 0x82, 0x79, 0x64,
  0x78, 0x87, 0xa3, 0x7b, 0x70, 0x8b, 0x94, 0x73, 0xa0, 0x70, 0x87, 0x92,
  0x84, 0x8c, 0xb9, 0x87, 0x43, 0x33, 0x7d, 0x7a, 0x7a, 0x79, 0xcf, 0x80,
  0x5b, 0x16, 0x6e, 0x7a, 0x71, 0x87, 0xcb, 0x96, 0x67, 0x27, 0x78, 0x91,
  0x98, 0x89, 0xe3, 0x63, 0x86, 0x43, 0x94, 0x84, 0x99, 0x80, 0xd2, 0x86,
  0x93, 0x52, 0x66, 0xb1, 0x88, 0x71, 0xa1, 0x83, 0x79, 0x49, 0x60, 0xa3,
  0x92, 0x74, 0x80, 0x93, 0x7a, 0x6b, 0x7a, 0x7e, 0x76, 0x84, 0x83, 0x72,
  0x81, 0x54, 0x63, 0x73, 0xa4, 0x97, 0x93, 0x5e, 0x94, 0x56, 0x4d, 0xab,
  0xbc, 0x70, 0x6a, 0x8b, 0x91, 0x61, 0x3d, 0xa5, 0x87, 0x8d, 0x66, 0x83,
  0xb8, 0x50, 0x74, 0x83, 0x96, 0x9b, 0x83, 0x85, 0xae, 0x7f, 0x73, 0xab,
  0x79, 0x9d, 0x8f, 0x7b, 0x88, 0x6c, 0x6b, 0x79, 0x8c, 0x89, 0x86, 0x73,
  0x85, 0x5b, 0x74, 0x78, 0x7a, 0xb2, 0xa3, 0x70, 0x56, 0x63, 0x80, 0x86,
  0x65, 0x9b, 0xc8, 0x80, 0x57, 0x59, 0x71, 0x8f, 0x75, 0x7e, 0xa4, 0x86,
  0x7c, 0x59, 0xa9, 0x65, 0x8d, 0x72, 0x90, 0x54, 0x68, 0x84, 0x94, 0x95,
  0x81, 0xb0, 0x68, 0x78, 0x89, 0x9d, 0xae, 0x8b, 0x9f, 0xa9, 0x8e, 0x6e,
  0x91, 0x75, 0x83, 0x92, 0x7a, 0x88, 0xaa, 0x70, 0x4e, 0x22, 0x96, 0x93,
  0x79, 0xb0, 0xce, 0x74, 0x4b, 0x01, 0x88, 0x75, 0x70, 0x79, 0xd3, 0x8d,
  0x60, 0x24, 0x9c, 0x7f, 0x9d, 0xa1, 0xd3, 0x87, 0x76, 0x4b, 0x9b, 0x7d,
  0xa5, 0x75, 0xca, 0x88, 0x6c, 0x4d, 0x9f, 0xb3, 0x8c, 0x83, 0x84, 0x86,
  0x6c, 0x4d, 0x5c, 0x96, 0x83, 0x8b, 0x64, 0x85, 0x79, 0x65, 0x68, 0x8b,
  0x99, 0x6c, 0x8f, 0x85, 0x86, 0x79, 0x5b, 0x77, 0x96, 0x99, 0x86, 0x81,
  0x91, 0x59, 0x43, 0xc6, 0xa4, 0x8c, 0x71, 0x7d, 0x9d, 0x64, 0x3e, 0x8d,
  0xb5, 0x87, 0x55, 0x9d, 0xa2, 0x67, 0x57, 0x7e, 0x9b, 0x8f, 0x8d, 0x8e,
  0x91, 0x85, 0x83, 0x98, 0x91, 0x9c, 0x93, 0x74, 0x75, 0x6e, 0x68, 0x6d,
  0x9a, 0xba, 0x7b, 0x69, 0x7c, 0x61, 0x86, 0x63, 0x94, 0x81, 0x9e, 0x82,
  0x5d, 0x71, 0x9d, 0x77, 0x76, 0x90, 0x94, 0x8e, 0x68, 0x63, 0xb3, 0x8a,
  0x66, 0x8f, 0xb4, 0x8a, 0x64, 0x5a, 0xa0, 0x5d, 0x88, 0x7d, 0x80, 0x60,
  0x52, 0x92, 0x94, 0x7c, 0x9b, 0x79, 0x6d, 0x80, 0x8e, 0x64, 0x8d, 0x7f,
  0x6f, 0x6e, 0x8b, 0x5e, 0x91, 0x64, 0x85, 0x99, 0x60, 0xac, 0xa0, 0x85,
  0x66, 0x42, 0x76, 0x90, 0x7d, 0x81, 0xd6, 0x6f, 0x3a, 0x38, 0x97, 0x5d,
  0x7e, 0x65, 0xdc, 0x7f, 0x68, 0x28, 0x8d, 0x8e, 0x9a, 0x95, 0xc3, 0x85,
  0x5b, 0x59, 0x97, 0xb0, 0x93, 0x97, 0xb9, 0x7b, 0x7f, 0x45, 0x77, 0xa2,
  0x7c, 0x75, 0x83, 0x89, 0x7a, 0x57, 0x51, 0x97, 0x6e, 0x7e, 0x79, 0x9c,
  0x86, 0x60, 0x51, 0x70, 0x9e, 0x62, 0x7d, 0x7b, 0xa0, 0x81, 0x67, 0x76,
  0x96, 0x7c, 0x8f, 0x81, 0xa2, 0x59, 0x52, 0xb4, 0xb4, 0x7c, 0x7a, 0x7b,
  0xa3, 0x70, 0x2b, 0xbb, 0x93, 0x93, 0x64, 0x75, 0x9b, 0x50, 0x89, 0x82,
  0x8c, 0x8e, 0x99, 0x8c, 0x94, 0x86, 0x64, 0xb2, 0x8c, 0x96, 0x88, 0x76,
  0x8e, 0x72, 0x62, 0x7b, 0x80, 0x9b, 0x84, 0x7f, 0x84, 0x79, 0x93, 0x6e,
  0x81, 0xa2, 0xba, 0x7a, 0x6d, 0x75, 0xac, 0x6e, 0x5f, 0x95, 0x9a, 0x6a,
  0x60, 0x72, 0xac, 0x77, 0x64, 0xb1, 0x93, 0x8d, 0x81, 0x5a, 0x99, 0x73,
  0x90, 0xa1, 0x9f, 0x88, 0x51, 0x70, 0x96, 0x66, 0x92, 0x6a, 0x5e, 0x6f,
  0x8b, 0x73, 0xa5, 0x89, 0x79, 0x9b, 0x92, 0x74, 0x8c, 0x6a, 0x79, 0x91,
  0x63, 0xa9, 0xad, 0x91, 0x3d, 0x57, 0x8b, 0xab, 0x8a, 0x97, 0xd7, 0x74,
  0x63, 0x28, 0x9a, 0x7d, 0x6b, 0x9a, 0xd5, 0x82, 0x60, 0x36, 0x86, 0x92,
  0xa8, 0x6c, 0xde, 0x65, 0x81, 0x39, 0x9c, 0x97, 0xa9, 0x60, 0xdd, 0x9b,
  0x6e, 0x45, 0x84, 0xa3, 0x95, 0x9f, 0x8d, 0x85, 0x82, 0x4e, 0x51, 0x9a,
  0x89, 0x77, 0x60, 0x70, 0x83, 0x81, 0x2e, 0x89, 0x7f, 0x70, 0xa7, 0x66,
  0x8e, 0x4e, 0x46, 0x8a, 0xa0, 0x6f, 0x9d, 0x7f, 0xad, 0x42, 0x61, 0xb3,
  0xb0, 0x63, 0x72, 0x8e, 0xa4, 0x6f, 0x39, 0xb8, 0x95, 0xa4, 0x78, 0x88,
  0xa1, 0x5d, 0x71, 0x77, 0x92, 0x8a, 0x86, 0x6a, 0x93, 0x7d, 0x71, 0xa7,
  0x91, 0x91, 0x77, 0x7f, 0x90, 0x73, 0x65, 0x7f, 0x9a, 0x91, 0x88, 0x6a,
  0x83, 0x91, 0x71, 0x7b, 0x8b, 0xac, 0x8f, 0x78, 0x70, 0x71, 0xb5, 0x92,
  0x87, 0xa5, 0xa2, 0x70, 0x69, 0x68, 0xb1, 0x77, 0x68, 0xa1, 0xa5, 0x83,
  0x6b, 0x54, 0x9f, 0x85, 0x88, 0xc1, 0x9c, 0x84, 0x4c, 0x86, 0x96, 0x6a,
  0x8e, 0xa4, 0x75, 0x9e, 0x8f, 0x61, 0xc1, 0xa8, 0xb8, 0x93, 0x9b, 0x80,
  0x80, 0x68, 0x93, 0x87, 0x6b, 0x8b, 0xa8, 0x8b, 0x46, 0x4c, 0x87, 0xa3,
  0x86, 0x99, 0xc9, 0x6e, 0x4e, 0x38, 0x80, 0x78, 0x57, 0x9f, 0xcf, 0x80,
  0x57, 0x36, 0x69, 0x75, 0x95, 0x87, 0xdc, 0x81, 0x95, 0x79, 0x81, 0xaa,
  0xa1, 0x77, 0xc0, 0x7d, 0x7c, 0x30, 0x7b, 0xc3, 0x6e, 0x6d, 0xa5, 0x92,
  0xa0, 0x58, 0x32, 0xb4, 0x88, 0xa1, 0x7d, 0x7a, 0x8a, 0x73, 0x43, 0x71,
  0x78, 0x86, 0x94, 0x83, 0xa5, 0x69, 0x60, 0x88, 0x88, 0x74, 0x8a, 0x87,
  0x8f, 0x6f, 0x55, 0x9f, 0xa8, 0x72, 0x7f, 0x74, 0xb0, 0x62, 0x40, 0x9b,
  0x97, 0x85, 0x72, 0x79, 0x9f, 0x65, 0x6e, 0x85, 0x9d, 0x8b, 0x78, 0x6c,
  0x90, 0x72, 0x7c, 0x9f, 0x8a, 0x97, 0x89, 0x8c, 0x99, 0x6c, 0x64, 0x8d,
  0xa3, 0x8e, 0x7d, 0x94, 0x76, 0x79, 0x87, 0x77, 0x77, 0x9c, 0xbd, 0x7d,
  0x80, 0x64, 0x87, 0x90, 0x72, 0xaa, 0xb7, 0x7a, 0x6f, 0x70, 0x81, 0x75,
  0x74, 0x94, 0x91, 0x8e, 0x8b, 0x62, 0x96, 0x63, 0x8d, 0xa7, 0x8f, 0x86,
  0x57, 0x89, 0x9c, 0x81, 0x90, 0x84, 0x89, 0x94, 0xab, 0x79, 0x9c, 0x90,
  0x79, 0x99, 0x8e, 0x70, 0x86, 0x70, 0x7d, 0x8f, 0x60, 0x8f, 0xb6, 0x90,
  0x46, 0x50, 0x7a, 0x95, 0x7d, 0x5c, 0xd4, 0x75, 0x3f, 0x2a, 0x95, 0x72,
  0x73, 0xa3, 0xd5, 0x71, 0x46, 0x41, 0x77, 0x80, 0x96, 0x96, 0xdd, 0x7a,
  0x75, 0x70, 0xb2, 0x9e, 0x8b, 0x84, 0xd2, 0x80, 0x79, 0x49, 0x73, 0xa6,
  0x97, 0x97, 0x9f, 0x82, 0x7f, 0x4b, 0x55, 0xb2, 0x7d, 0x78, 0x6a, 0x75,
  0x93, 0x76, 0x5e, 0x57, 0x84, 0x7c, 0x8a, 0x7b, 0xa0, 0x65, 0x74, 0x96,
  0xb8, 0x64, 0x86, 0x7c, 0xad, 0x71, 0x37, 0xc3, 0xa5, 0x78, 0x65, 0x8a,
  0x98, 0x5a, 0x44, 0xab, 0xb7, 0x70, 0x6f, 0x8a, 0xa5, 0x7e, 0x66, 0x73,
  0xa6, 0x70, 0x71, 0x87, 0x88, 0x72, 0x65, 0x8c, 0x97, 0x88, 0x8f, 0x7b,
  0x80, 0x6a, 0x6e, 0x73, 0x9e, 0xb7, 0x89, 0x77, 0x78, 0x88, 0x88, 0x7e,
  0x79, 0x97, 0x98, 0x71, 0x6e, 0x65, 0x84, 0x8f, 0x7b, 0xb2, 0x9a, 0x84,
  0x66, 0x93, 0x99, 0x81, 0x89, 0xc0, 0x91, 0x8e, 0x62, 0x4e, 0x99, 0x86,
  0x8b, 0xb0, 0x95, 0x85, 0x67, 0x8e, 0x96, 0x88, 0xa0, 0x82, 0x6c, 0x8f,
  0x95, 0x62, 0x93, 0x98, 0x8a, 0xaa, 0xa0, 0x75, 0x87, 0x6a, 0x74, 0x9a,
  0x6f, 0x94, 0x9a, 0x79, 0x48, 0x41, 0x83, 0x90, 0x93, 0x96, 0xc3, 0x6c,
  0x37, 0x29, 0x82, 0x9f, 0x80, 0x76, 0xdd, 0x9a, 0x49, 0x4b, 0x83, 0x74,
  0x83, 0x6b, 0xc8, 0x7e, 0x68, 0x6e, 0x92, 0x97, 0x95, 0x7e, 0xbb, 0x8a,
  0x67, 0x3f, 0x52, 0xa7, 0x83, 0x84, 0xac, 0x74, 0x81, 0x44, 0x40, 0xae,
  0x7d, 0x8f, 0x70, 0x8e, 0x92, 0x6a, 0x50, 0x4f, 0x7d, 0x70, 0x91, 0x6a,
  0xa3, 0x63, 0x46, 0x7e, 0x9b, 0x7b, 0x8c, 0x6a, 0xa4, 0x6d, 0x4f, 0xba,
  0xaa, 0x94, 0x75, 0x78, 0xb7, 0x69, 0x51, 0x95, 0xb3, 0x7d, 0x61, 0x80,
  0x99, 0x80, 0x6e, 0x71, 0x99, 0x83, 0x74, 0x7e, 0x91, 0x70, 0x7e, 0x88,
  0xb4, 0x8e, 0x95, 0x88, 0x89, 0x6f, 0x7f, 0x79, 0x9b, 0xa3, 0x7b, 0x70,
  0x76, 0x62, 0x73, 0x84, 0x78, 0xbd, 0xa1, 0x7a, 0x70, 0x70, 0x85, 0x7d,
  0x88, 0xcc, 0xaf, 0x6d, 0x65, 0x79, 0xaf, 0x83, 0x85, 0xa8, 0x8c, 0x85,
  0x70, 0x55, 0x99, 0x77, 0x82, 0xa0, 0xa2, 0x95, 0x55, 0x80, 0x9e, 0x8a,
  0x94, 0x70, 0x84, 0x84, 0x8d, 0x89, 0x9e, 0x93, 0x93, 0x96, 0xa0, 0x69,
  0x81, 0x75, 0x72, 0x9a, 0x9a, 0x80, 0x9d, 0x72, 0x41, 0x6d, 0x74, 0x9a,
  0x83, 0x7c, 0xde, 0x99, 0x35, 0x3c, 0x7f, 0x90, 0x69, 0x88, 0xd2, 0x7c,
  0x5f, 0x4f, 0x8d, 0x7f, 0x70, 0xa0, 0xc3, 0x66, 0x75, 0x61, 0x83, 0xaf,
  0xa6, 0x74, 0xca, 0x84, 0x58, 0x5b, 0x81, 0xbf, 0x80, 0x6d, 0x6b, 0xa4,
  0x80, 0x61, 0x51, 0xac, 0x82, 0x6e, 0x5f, 0x91, 0x9c, 0x4a, 0x4e, 0x68,
  0xa2, 0x74, 0x83, 0x6f, 0xbb, 0x64, 0x56, 0xae, 0x7d, 0x6a, 0xa7, 0x6c,
  0x97, 0x6e, 0x42, 0xc8, 0xb8, 0x8d, 0x73, 0x81, 0x93, 0x48, 0x59, 0xb1,
  0xa1, 0x8e, 0x61, 0x7a, 0xa5, 0x80, 0x60, 0x75, 0x99, 0xa6, 0x7a, 0x6e,
  0x8c, 0x5f, 0xa0, 0x89, 0x98, 0x8e, 0x9a, 0x7f, 0x83, 0x71, 0x47, 0x6c,
  0xa2, 0x8a, 0x85, 0x7c, 0x6d, 0x84, 0x72, 0x78, 0x7f, 0xb7, 0x91, 0x96,
  0x85, 0x7b, 0x9b, 0x84, 0x73, 0xa7, 0xb3, 0x8b, 0x72, 0x8c, 0xa6, 0x64,
  0x7f, 0xb8, 0x8e, 0x83, 0x6e, 0x64, 0xa6, 0x77, 0x71, 0x93, 0x93, 0x8f,
  0x46, 0x8d, 0x7c, 0x7f, 0x83, 0xb6, 0x63, 0x7e, 0x8e, 0x83, 0x99, 0x80,
  0x77, 0x8e, 0x91, 0x66, 0x86, 0x82, 0x80, 0xa2, 0x61, 0x7d, 0xa2, 0x7e,
  0x30, 0x56, 0x84, 0x76, 0x74, 0x90, 0xc0, 0x89, 0x32, 0x47, 0x99, 0x76,
  0x61, 0x76, 0xe6, 0x86, 0x62, 0x3c, 0xb5, 0x97, 0x82, 0xa0, 0xce, 0x71,
  0x87, 0x5d, 0xb2, 0xa9, 0xa2, 0x84, 0xbb, 0x8c, 0x96, 0x51, 0x99, 0xb2,
  0x89, 0x60, 0x77, 0x6f, 0x78, 0x68, 0x85, 0xbd, 0x97, 0x97, 0x5c, 0x8a,
  0x8c, 0x49, 0x38, 0x66, 0x96, 0x71, 0xa6, 0x78, 0xb9, 0x5f, 0x4e, 0xa6,
  0x94, 0x90, 0xa4, 0x8d, 0xb4, 0x4f, 0x53, 0xbe, 0xb4, 0x86, 0x69, 0x82,
  0xa9, 0x44, 0x5b, 0xbc, 0xb0, 0x6a, 0x43, 0x8f, 0x9c, 0x7a, 0x6b, 0x72,
  0xa5, 0xa5, 0x6b, 0x8e, 0x95, 0x7c, 0x86, 0x98, 0x9f, 0x86, 0x93, 0x74,
  0x7c, 0x8e, 0x78, 0x65, 0x8e, 0xac, 0x68, 0x64, 0x77, 0x66, 0x7c, 0x8c,
  0x87, 0xa9, 0xa5, 0x8c, 0x80, 0x6f, 0x9f, 0x9c, 0x8d, 0xab, 0xb4, 0x9f,
  0x75, 0x6b, 0x8e, 0x7c, 0x6a, 0xb6, 0x7d, 0x90, 0x7e, 0x6d, 0x9f, 0x78,
  0x73, 0xa3, 0x7b, 0x81, 0x5e, 0x9c, 0x97, 0x8d, 0x8d, 0x8f, 0x67, 0x91,
  0x98, 0x72, 0x87, 0x8c, 0x69, 0xac, 0xac, 0x57, 0x81, 0x71, 0x8b, 0x9b,
  0x65, 0xb1, 0x9c, 0x81, 0x42, 0x69, 0x60, 0x94, 0x75, 0xb4, 0xc3, 0x7a,
  0x25, 0x49, 0x82, 0x8e, 0x63, 0x74, 0xf6, 0x7e, 0x45, 0x4d, 0x90, 0xa0,
  0x77, 0x80, 0xc6, 0x86, 0x7c, 0x6d, 0xa4, 0xba, 0x9f, 0x72, 0xc1, 0x85,
  0x77, 0x4b, 0x9b, 0xa8, 0x8f, 0x81, 0x6d, 0x77, 0x78, 0x4c, 0x53, 0xab,
  0x7d, 0x6c, 0x71, 0x88, 0x95, 0x4f, 0x3d, 0x55, 0x91, 0x7e, 0x88, 0x7d,
  0xae, 0x74, 0x50, 0x94, 0xa8, 0x5f, 0x79, 0x6d, 0xb3, 0x52, 0x5c, 0xd5,
  0xac, 0x9e, 0x75, 0x7b, 0xc1, 0x5b, 0x45, 0xbb, 0x82, 0x93, 0x81, 0x8a,
  0xae, 0x77, 0x89, 0x76, 0x87, 0x95, 0x73, 0x81, 0x84, 0x61, 0x89, 0xa6,
  0xb6, 0x9e, 0x98, 0x85, 0x92, 0x7c, 0x65, 0x79, 0x81, 0xab, 0x69, 0x74,
  0x79, 0x7d, 0x99, 0x75, 0x7c, 0x95, 0x96, 0x8f, 0x6f, 0x6b, 0x92, 0x85,
  0x8a, 0x9e, 0xa3, 0x8f, 0x6c, 0x7d, 0x8a, 0x9f, 0x89, 0xbf, 0x9a, 0x8f,
  0x74, 0x6e, 0x90, 0x8a, 0x70, 0xc5, 0x82, 0x81, 0x4b, 0x7f, 0x82, 0x7e,
  0x8e, 0x68, 0x77, 0x8b, 0x87, 0x81, 0x87, 0x83, 0x7c, 0xad, 0x8d, 0x4e,
  0x93, 0x81, 0x83, 0xa3, 0x8e, 0xab, 0x9b, 0x61, 0x37, 0x59, 0x68, 0x86,
  0x5d, 0xb0, 0xdd, 0x50, 0x2b, 0x4a, 0x92, 0x96, 0x5e, 0x88, 0xde, 0x7a,
  0x46, 0x5c, 0x97, 0x73, 0x85, 0x61, 0xd3, 0x6d, 0x7c, 0x7a, 0xa5, 0x93,
  0xa8, 0x5a, 0xa3, 0x66, 0x65, 0x59, 0x7f, 0xc2, 0x84, 0x63, 0x73, 0x87,
  0x87, 0x63, 0x6c, 0xab, 0x74, 0x5f, 0x50, 0x8e, 0x93, 0x57, 0x5c, 0x4f,
  0x9b, 0x71, 0x8e, 0x6e, 0x9e, 0x76, 0x54, 0x8f, 0x90, 0x9f, 0x94, 0x73,
  0xb4, 0x63, 0x69, 0xcb, 0xa7, 0x9c, 0x7c, 0x78, 0x99, 0x48, 0x4e, 0xc0,
  0x95, 0x77, 0x67, 0x88, 0xad, 0x76, 0x73, 0x7a, 0x82, 0x72, 0x66, 0x74,
  0xa7, 0x62, 0x7c, 0xa3, 0x9b, 0x9f, 0x92, 0x8b, 0x88, 0x8a, 0x67, 0x78,
  0x7e, 0xab, 0x75, 0x79, 0x7d, 0x72, 0x7c, 0x6d, 0x97, 0xb8, 0x8f, 0x7f,
  0x75, 0x8b, 0x89, 0x83, 0x91, 0xa3, 0x8a, 0x90, 0x76, 0x90, 0x9f, 0x8d,
  0x85, 0xa6, 0x7e, 0x89, 0x77, 0x65, 0x97, 0x92, 0x84, 0x8d, 0x6f, 0x91,
  0x66, 0x84, 0x86, 0x99, 0x8b, 0x7f, 0xa0, 0x92, 0xaf, 0x5e, 0x90, 0x7f,
  0x67, 0x87, 0x9f, 0x65, 0x99, 0x90, 0x7d, 0xa3, 0x74, 0x83, 0xa3, 0x71,
  0x54, 0x57, 0x7e, 0x81, 0x74, 0xa3, 0xe5, 0x66, 0x47, 0x65, 0x8f, 0x9a,
  0x63, 0x7c, 0xff, 0x86, 0x65, 0x64, 0x7e, 0x96, 0x7f, 0x59, 0xed, 0x73,
  0x62, 0x4f, 0xb3, 0x9b, 0x9a, 0x87, 0xb2, 0x79, 0x76, 0x4e, 0x6b, 0xbf,
  0x6a, 0x64, 0x6c, 0x89, 0x88, 0x5e, 0x51, 0x89, 0x7c, 0x77, 0x6c, 0x6d,
  0x9f, 0x4b, 0x6b, 0x7a, 0xa5, 0x93, 0x6b, 0x71, 0xa6, 0x59, 0x6a, 0x7a,
  0x91, 0x7a, 0x84, 0x76, 0x91, 0x60, 0x59, 0xda, 0xb3, 0x85, 0x7f, 0x7e,
  0xaa, 0x51, 0x66, 0xb2, 0xa8, 0x92, 0x5b, 0x84, 0x93, 0x83, 0x91, 0x6d,
  0x94, 0x8f, 0x72, 0x7f, 0xa4, 0x63, 0x8b, 0x8e, 0x89, 0x93, 0x7f, 0x79,
  0x7f, 0x6b, 0x8e, 0x7c, 0xaa, 0x9c, 0x79, 0x71, 0x83, 0x83, 0x9b, 0x7c,
  0x94, 0xb3, 0x8d, 0x83, 0x6e, 0x81, 0x9a, 0x7d, 0x74, 0xb0, 0xa7, 0x7e,
  0x71, 0x91, 0x92, 0x8c, 0x7b, 0xb1, 0x8b, 0x83, 0x70, 0x7d, 0x93, 0x89,
  0x8d, 0x99, 0x82, 0xa2, 0x70, 0x7f, 0x79, 0x89, 0x7a, 0x99, 0x71, 0xa6,
  0x95, 0x6b, 0x8f, 0x84, 0x53, 0x7b, 0x9f, 0x5f, 0x9a, 0x9f, 0x6c, 0x9a,
  0x85, 0x9d, 0xa3, 0x67, 0x5e, 0x5a, 0x9a, 0x86, 0x82, 0x9a, 0xeb, 0x7a,
  0x56, 0x51, 0x86, 0xa3, 0x7e, 0x63, 0xef, 0x86, 0x75, 0x75, 0x90, 0x7e,
  0x82, 0x79, 0xe4, 0x5d, 0x7e, 0x64, 0xa5, 0xa0, 0x87, 0x8f, 0xaa, 0x6f,
  0x7e, 0x70, 0x71, 0xd6, 0x71, 0x8a, 0x95, 0x6c, 0x7f, 0x55, 0x8d, 0xa9,
  0x93, 0x98, 0x7d, 0x87, 0x97, 0x5c, 0x64, 0x71, 0x99, 0x68, 0x7e, 0x93,
  0xa2, 0x67, 0x50, 0x87, 0x9d, 0x7f, 0x82, 0x60, 0x85, 0x6a, 0x66, 0xb5,
  0x92, 0x6a, 0x7b, 0x70, 0x95, 0x81, 0x50, 0x9c, 0xa7, 0x80, 0x75, 0x71,
  0x9a, 0x8f, 0x7c, 0x86, 0x99, 0x95, 0x69, 0x80, 0x94, 0x8b, 0x86, 0xa1,
  0x8c, 0xa2, 0xa4, 0x89, 0x9e, 0x6c, 0x78, 0x76, 0x8f, 0x8b, 0x76, 0x74,
  0x86, 0x85, 0x93, 0x92, 0x99, 0xc7, 0x8f, 0x86, 0x7c, 0x87, 0xaf, 0x84,
  0x5c, 0xbc, 0x97, 0x7f, 0x7a, 0x8a, 0xaa, 0x84, 0x6f, 0x97, 0x77, 0x8a,
  0x81, 0x75, 0x97, 0xa2, 0x73, 0x99, 0x91, 0x81, 0x5a, 0x75, 0x5a, 0x8f,
  0x7d, 0xa5, 0x81, 0x8f, 0x97, 0xa3, 0xa7, 0x7b, 0x76, 0x7f, 0x8c, 0x5d,
  0x94, 0x7d, 0x81, 0x88, 0x98, 0x84, 0xa4, 0x74, 0x53, 0x71, 0x7b, 0x93,
  0xa0, 0x7b, 0xe7, 0x54, 0x53, 0x6e, 0x80, 0x71, 0x73, 0x8d, 0xd1, 0x7a,
  0x7c, 0x68, 0x85, 0x69, 0x86, 0x90, 0xcc, 0x60, 0x65, 0x65, 0x7e, 0xa5,
  0x9b, 0x69, 0xcb, 0x62, 0x64, 0x66, 0x89, 0xbe, 0x8d, 0x8a, 0x95, 0x6a,
  0x80, 0x83, 0x93, 0xa4, 0x96, 0xa0, 0x7b, 0x8a, 0x8e, 0x69, 0x48, 0x6a,
  0x94, 0x6f, 0x85, 0x85, 0xb2, 0x8c, 0x73, 0x84, 0xb7, 0x87, 0x90, 0x6e,
  0xa9, 0x6f, 0x6e, 0xb6, 0xb2, 0x9a, 0x86, 0x80, 0xaa, 0x72, 0x6d, 0xa1,
  0xab, 0x7b, 0x67, 0x86, 0xa8, 0x4d, 0x70, 0x5a, 0x9b, 0x73, 0x77, 0x6a,
  0x91, 0x73, 0x91, 0x8a, 0x8f, 0x93, 0x7e, 0x81, 0x81, 0x75, 0x7a, 0x7a,
  0xa1, 0x91, 0x7e, 0x75, 0x8a, 0x79, 0x95, 0x87, 0x90, 0xbd, 0x9b, 0x89,
  0x82, 0x8b, 0x80, 0x79, 0x6b, 0xae, 0x9c, 0x8c, 0x82, 0x86, 0xbd, 0x9c,
  0x97, 0xb4, 0xa0, 0x91, 0x65, 0x7f, 0x91, 0x79, 0x6f, 0xab, 0x6d, 0x94,
  0x5b, 0x7d, 0x77, 0x9a, 0x8b, 0x8b, 0x89, 0x9e, 0xb4, 0x8d, 0x90, 0x71,
  0x54, 0x84, 0x83, 0x54, 0x87, 0x82, 0x73, 0x8d, 0x6f, 0x77, 0x9a, 0x78,
  0x70, 0x7a, 0x7b, 0x5e, 0xb9, 0x8d, 0xa8, 0x6d, 0x44, 0x86, 0x82, 0x68,
  0xac, 0x81, 0xb4, 0x58, 0x79, 0x89, 0x69, 0x64, 0xae, 0x7b, 0x9c, 0x77,
  0x8b, 0x58, 0x8c, 0x68, 0xaf, 0x75, 0xa5, 0x8a, 0x7a, 0x62, 0x98, 0x95,
  0x96, 0x6c, 0x83, 0x74, 0x7d, 0x73, 0x55, 0x89, 0x97, 0x7f, 0x74, 0x73,
  0x8f, 0x55, 0x69, 0x61, 0x82, 0x6d, 0x81, 0x71, 0x91, 0x8e, 0x72, 0x6e,
  0x8f, 0x81, 0x74, 0x66, 0x91, 0x51, 0x65, 0x84, 0x9a, 0x95, 0x75, 0x6b,
  0x7b, 0x53, 0x7d, 0xa2, 0x9a, 0x82, 0x72, 0x9d, 0x85, 0x66, 0x75, 0x89,
  0x9b, 0x94, 0x7e, 0x74, 0x9a, 0x72, 0x74, 0x7b, 0x86, 0xb6, 0x8e, 0x7f,
  0xa5, 0x68, 0x77, 0x63, 0x87, 0xab, 0x8f, 0x79, 0xb3, 0x76, 0x9c, 0x6d,
  0x7a, 0xa3, 0x8b, 0x6e, 0x96, 0x8a, 0xb2, 0x84, 0x87, 0x97, 0xa7, 0x73,
  0x87, 0xae, 0xb0, 0x83, 0x78, 0x7b, 0x9a, 0x88, 0x7c, 0x9c, 0x9c, 0x96,
  0x78, 0x93, 0x96, 0x86, 0x78, 0x82, 0x99, 0x7b, 0x81, 0x8d, 0x8e, 0x9c,
  0x73, 0x89, 0x8a, 0x80, 0xa1, 0x8b, 0x6f, 0x67, 0x7a, 0x84, 0x83, 0x8a,
  0x5f, 0x6b, 0xa6, 0x7c, 0x75, 0x77, 0x72, 0x7e, 0x8f, 0x7c, 0xb6, 0x8e,
  0x63, 0x85, 0x93, 0x6e, 0xad, 0x6a, 0xbc, 0x8d, 0x7a, 0x6c, 0x9c, 0x5c,
  0x92, 0x6f, 0x9a, 0x63, 0x7b, 0x53, 0xbe, 0x71, 0x87, 0x85, 0x9f, 0x7f,
  0x79, 0x71, 0x87, 0x62, 0xa5, 0x72, 0x7f, 0x6d, 0x9f, 0x86, 0x75, 0x65,
  0xbd, 0x89, 0x6a, 0x9f, 0x83, 0x6e, 0x74, 0x53, 0xa9, 0x7f, 0x75, 0xa2,
  0x98, 0x62, 0x85, 0x7b, 0x9c, 0x72, 0x7a, 0x72, 0x79, 0x53, 0x7f, 0x8b,
  0x87, 0x8f, 0x72, 0x8b, 0x95, 0x5a, 0x64, 0x6c, 0x85, 0x6f, 0x71, 0x9e,
  0x81, 0x40, 0x88, 0x7a, 0x71, 0x91, 0x5f, 0x85, 0x9c, 0x6f, 0x89, 0x80,
  0x79, 0x7e, 0x7d, 0x9e, 0x96, 0x61, 0x93, 0x77, 0x72, 0x7c, 0x71, 0x6e,
  0x8a, 0x71, 0x7c, 0x78, 0x98, 0x75, 0xa2, 0x94, 0x81, 0x6e, 0xac, 0x83,
  0x98, 0x8f, 0x9c, 0x8b, 0x70, 0x99, 0x92, 0x78, 0x8c, 0x96, 0x8d, 0x8f,
  0x9a, 0x79, 0xa7, 0x80, 0x83, 0x98, 0x81, 0xa3, 0x96, 0x7c, 0x99, 0x95,
  0x8b, 0x91, 0x85, 0x95, 0x85, 0x70, 0x7c, 0x64, 0x61, 0x7e, 0x8d, 0x76,
  0x94, 0x88, 0x7a, 0x86, 0x7f, 0x84, 0x87, 0x83, 0xa1, 0x95, 0x75, 0x74,
  0x88, 0x75, 0x72, 0x8a, 0x95, 0x86, 0x99, 0x85, 0x85, 0x95, 0x60, 0x8d,
  0x9f, 0x64, 0x96, 0x9a, 0x98, 0x8f, 0x73, 0x88, 0xa0, 0x9c, 0x6c, 0x64,
  0xa3, 0x98, 0x89, 0x76, 0x93, 0x6a, 0x9a, 0xad, 0x82, 0x92, 0x7f, 0x8f,
  0xaa, 0xa2, 0x78, 0x8f, 0x78, 0x7c, 0x76, 0x91, 0x96, 0x8d, 0x89, 0x5a,
  0x9d, 0x88, 0x5d, 0x83, 0xa8, 0x71, 0x80, 0x7f, 0x92, 0x90, 0x81, 0x91,
  0x7f, 0x56, 0xa2, 0x6e, 0x74, 0x8d, 0x65, 0x7e, 0x71, 0x84, 0x8c, 0x8b,
  0x7b, 0x75, 0x8b, 0x7f, 0x90, 0x81, 0x8e, 0x56, 0x7c, 0x75, 0x76, 0x7f,
  0x77, 0x76, 0x8d, 0x99, 0x6a, 0x88, 0x69, 0x6e, 0x96, 0x8b, 0x5e, 0x87,
  0xad, 0x74, 0x81, 0x6f, 0x8a, 0x81, 0x6c, 0x59, 0x82, 0x73, 0x95, 0x70,
  0xa0, 0x72, 0x89, 0x92, 0x95, 0x71, 0x90, 0xa1, 0xb0, 0x63, 0x6e, 0x82,
  0xb0, 0x87, 0x8b, 0x8f, 0x88, 0x86, 0x44, 0x67, 0x62, 0x71, 0x6f, 0x7b,
  0x85, 0x85, 0x70, 0x70, 0x7b, 0x61, 0x5f, 0xb1, 0xa3, 0x91, 0x97, 0x62,
  0x7a, 0x67, 0x7a, 0x74, 0x94, 0xa4, 0x94, 0x74, 0x55, 0x6c, 0x84, 0x7d,
  0x93, 0x78, 0x81, 0x9a, 0x88, 0x9d, 0x93, 0x85, 0x98, 0x83, 0x81, 0x7e,
  0x9d, 0x78, 0x74, 0x85, 0x9e, 0x72, 0x8b, 0x8a, 0x85, 0x8f, 0x6c, 0x83,
  0x96, 0x5f, 0x93, 0x66, 0x9b, 0x91, 0x77, 0x7a, 0x9d, 0x87, 0x78, 0x9d,
  0x8d, 0x7d, 0x8b, 0x7f, 0x6c, 0x81, 0x89, 0x98, 0x81, 0x73, 0x96, 0x87,
  0x87, 0x75, 0x6e, 0x86, 0x7b, 0x7e, 0x86, 0x81, 0x6b, 0x9f, 0x72, 0x8f,
  0x8c, 0x6f, 0x80, 0x7f, 0x7d, 0x85, 0x7b, 0x81, 0xa6, 0x7b, 0x90, 0x7e,
  0x84, 0x83, 0x71, 0x9b, 0x8c, 0x81, 0x70, 0x91, 0x7f, 0x62, 0x66, 0x7b,
  0x84, 0x93, 0x8b, 0x7e, 0x7b, 0x7a, 0x79, 0x7a, 0x8a, 0x5e, 0x83, 0x7a,
  0x7c, 0x9f, 0x89, 0xa2, 0x85, 0x73, 0x80, 0x81, 0xaa, 0x83, 0x83, 0x8c,
  0x86, 0x69, 0x8d, 0x6a, 0xae, 0x73, 0x6e, 0x84, 0x66, 0x78, 0x7c, 0x8a,
  0x94, 0x7b, 0x96, 0x92, 0x7f, 0x68, 0x75, 0x73, 0x80, 0xa0, 0x83, 0xab,
  0x88, 0x84, 0x9d, 0x94, 0x83, 0x85, 0x70, 0x70, 0x8c, 0x91, 0x7a, 0xa7,
  0x8f, 0x7d, 0x7e, 0x63, 0x64, 0x7d, 0x82, 0x7b, 0x8f, 0x62, 0x9a, 0x93,
  0x55, 0x85, 0x95, 0x8e, 0x88, 0x99, 0x5f, 0x69, 0x86, 0x86, 0x56, 0x65,
  0x7c, 0xa8, 0x77, 0x76, 0x97, 0x5f, 0x72, 0x91, 0xac, 0x9a, 0x88, 0x64,
  0x81, 0x6c, 0x67, 0x76, 0x79, 0x9a, 0x8f, 0x7a, 0x9e, 0x7f, 0x70, 0x8e,
  0x97, 0x79, 0x7c, 0xb4, 0x8b, 0x70, 0x51, 0x69, 0x84, 0x7f, 0x68, 0x78,
  0x7a, 0x99, 0xa6, 0x87, 0x67, 0x9c, 0x92, 0xaf, 0x86, 0x84, 0xa2, 0x9f,
  0x86, 0xa7, 0xa6, 0x6c, 0x95, 0x8b, 0xbb, 0x94, 0x5a, 0x5c, 0x62, 0x79,
  0x8f, 0x94, 0xbe, 0x92, 0x62, 0x92, 0x89, 0x72, 0x88, 0x6c, 0xac, 0xa3,
  0x81, 0xa7, 0x98, 0xa1, 0x7f, 0x91, 0x95, 0x82, 0x80, 0x91, 0x96, 0x70,
  0x80, 0x7d, 0x64, 0x76, 0x70, 0x7f, 0x7e, 0xa7, 0x82, 0x78, 0x62, 0x8b,
  0x94, 0xab, 0x99, 0x9b, 0x64, 0x83, 0x7a, 0x73, 0x93, 0x7b, 0x8c, 0xa8,
  0x70, 0x72, 0x86, 0x66, 0x79, 0x66, 0x79, 0x7b, 0x84, 0x5d, 0x6b, 0x93,
  0x6f, 0x7f, 0x77, 0x82, 0x88, 0x9a, 0x92, 0x6e, 0x7c, 0x82, 0xa7, 0x98,
  0x88, 0x87, 0x8d, 0x95, 0x9d, 0x7b, 0x73, 0x72, 0x87, 0xa7, 0x85, 0x68,
  0x7f, 0x88, 0x8c, 0xa7, 0x98, 0x62, 0x89, 0x86, 0x8c, 0xb5, 0x91, 0x98,
  0x74, 0xa3, 0x6f, 0x82, 0xaa, 0xca, 0xb5, 0x8f, 0x9b, 0x91, 0x5e, 0x69,
  0xa4, 0xc5, 0x72, 0x7e, 0x8e, 0x70, 0x5a, 0x94, 0xb5, 0xa5, 0x6b, 0x96,
  0x8f, 0x59, 0x79, 0x94, 0x9f, 0xb7, 0x73, 0x94, 0x7e, 0x7e, 0x8b, 0x7f,
  0x61, 0x9f, 0x7e, 0x81, 0x80, 0x8d, 0x90, 0xa1, 0x62, 0x89, 0x89, 0x8a,
  0x71, 0x56, 0xb3, 0xa6, 0x70, 0x82, 0xb1, 0x60, 0x8a, 0x71, 0xc0, 0x59,
  0x5d, 0x8c, 0x8b, 0x78, 0x86, 0x81, 0xc4, 0x80, 0x6d, 0x97, 0x74, 0x72,
  0x89, 0x81, 0xbd, 0x7a, 0x75, 0x6f, 0x7c, 0x98, 0x7d, 0x57, 0xb0, 0x87,
  0x70, 0x86, 0x91, 0x88, 0x85, 0x77, 0x73, 0x8c, 0x7e, 0x7a, 0x63, 0x6d,
  0x77, 0x9b, 0x87, 0x92, 0x93, 0x7c, 0x5b, 0xa4, 0x7f, 0x90, 0x74, 0x72,
  0x93, 0x8f, 0x6d, 0x84, 0x84, 0x77, 0x66, 0x86, 0x98, 0x6a, 0x80, 0x77,
  0x7d, 0x7b, 0x8e, 0x77, 0x6d, 0x93, 0x61, 0x7e, 0x74, 0x89, 0x84, 0x97,
  0x72, 0x7b, 0x6e, 0x81, 0x8d, 0x83, 0x8f, 0x91, 0x8a, 0x63, 0x7f, 0x6e,
  0x93, 0x95, 0x86, 0x4e, 0x8a, 0x6c, 0x99, 0x76, 0x84, 0xa3, 0x7b, 0x7a,
  0x8e, 0xa4, 0x9d, 0x9e, 0x75, 0x89, 0x57, 0x8e, 0x82, 0xb6, 0x89, 0x83,
  0x84, 0x8b, 0x6f, 0x5d, 0x9e, 0xae, 0x99, 0x5e, 0x7c, 0x69, 0x68, 0x95,
  0x9f, 0xc8, 0x84, 0x85, 0xa7, 0x94, 0x63, 0x8a, 0xa3, 0xb0, 0x9b, 0xa2,
  0x98, 0xa1, 0x63, 0x77, 0x6f, 0x57, 0x7e, 0x7f, 0x78, 0x8e, 0x9f, 0x7c,
  0x5e, 0x6d, 0xab, 0x74, 0x8c, 0x67, 0xbc, 0x91, 0x4a, 0x91, 0xa1, 0x84,
  0x78, 0x78, 0xc3, 0x97, 0x47, 0x8c, 0x7e, 0x71, 0x7e, 0x85, 0xd0, 0x83,
  0x56, 0x7f, 0x91, 0x64, 0x8c, 0x85, 0xc0, 0xa3, 0x79, 0x7c, 0x99, 0x92,
  0x8e, 0xa3, 0xa2, 0x96, 0x88, 0x8f, 0xb8, 0x6e, 0x81, 0x6c, 0x80, 0xa0,
  0x76, 0x87, 0x79, 0x9b, 0x7b, 0x7f, 0x7b, 0xa5, 0x94, 0x6b, 0x55, 0x6e,
  0x6b, 0x8b, 0x82, 0x80, 0x79, 0x7e, 0x80, 0x81, 0x65, 0x7a, 0x7b, 0x6e,
  0x92, 0x9d, 0x82, 0x90, 0x85, 0x6c, 0x70, 0x69, 0x8b, 0x77, 0x82, 0x52,
  0x81, 0x80, 0x77, 0x80, 0x89, 0x75, 0x5a, 0x7b, 0x84, 0x6b, 0x6f, 0x6c,
  0x94, 0x78, 0x85, 0x82, 0x7f, 0xa4, 0x8b, 0x6e, 0x8d, 0x8b, 0x97, 0x93,
  0x7c, 0x81, 0x88, 0x7b, 0x98, 0xbb, 0x93, 0xa5, 0x82, 0x84, 0x46, 0x5e,
  0x9a, 0xd8, 0xdf, 0x8c, 0x9e, 0x8b, 0x5a, 0x72, 0xa5, 0x9e, 0x93, 0x9a,
  0x99, 0x73, 0x42, 0x9f, 0xb8, 0xa9, 0x59, 0x72, 0xa7, 0x6e, 0x64, 0x65,
  0xa1, 0x6d, 0x7d, 0xa3, 0xa7, 0x69, 0x4c, 0x80, 0x75, 0x65, 0x61, 0x67,
  0x82, 0x9d, 0xa4, 0x93, 0x52, 0x61, 0xc8, 0x64, 0x84, 0x97, 0xc0, 0x8b,
  0x2a, 0x6b, 0xa1, 0x88, 0x74, 0x8f, 0xd7, 0x86, 0x27, 0x6f, 0xac, 0x56,
  0x5a, 0x67, 0xb9, 0x94, 0x38, 0x75, 0x8e, 0x57, 0x6f, 0x58, 0xbc, 0x79,
  0x55, 0x9c, 0x86, 0x7a, 0x81, 0x95, 0xc9, 0x84, 0x63, 0x81, 0x85, 0x7c,
  0x88, 0xa2, 0x8d, 0x79, 0x91, 0x7a, 0x8d, 0x92, 0x69, 0x8b, 0xb5, 0x6f,
  0x73, 0x85, 0xa5, 0x9b, 0x76, 0x67, 0x8f, 0x78, 0x91, 0x88, 0x7d, 0xa4,
  0x71, 0x67, 0x5d, 0x65, 0x9c, 0x8b, 0x5d, 0xa9, 0x81, 0x81, 0x5c, 0x87,
  0xa9, 0x85, 0x6a, 0x83, 0x76, 0x88, 0x79, 0x7c, 0x8c, 0x8e, 0x9c, 0x79,
  0x85, 0x87, 0x61, 0x9c, 0x83, 0xa1, 0x9e, 0x73, 0x77, 0x93, 0x7f, 0x69,
  0x83, 0x91, 0x83, 0x93, 0xa4, 0x95, 0x82, 0x87, 0x79, 0xcc, 0x94, 0x96,
  0x89, 0x6c, 0x44, 0x7f, 0x96, 0xe3, 0xbb, 0xa0, 0x9b, 0x73, 0x4e, 0x75,
  0xa7, 0xad, 0x8e, 0x5f, 0x87, 0x80, 0x46, 0x9e, 0xab, 0xa0, 0x73, 0x9c,
  0xb4, 0x80, 0x72, 0x7f, 0x9d, 0x58, 0x72, 0xa3, 0x9f, 0x63, 0x71, 0x7e,
  0x66, 0x6c, 0x6d, 0x5e, 0x6a, 0x78, 0xb4, 0x91, 0x5b, 0x4e, 0x9b, 0x51,
  0x4f, 0x86, 0xcb, 0x82, 0x39, 0x99, 0xa8, 0x76, 0x59, 0x88, 0xb3, 0x78,
  0x0f, 0x60, 0x8f, 0x60, 0x46, 0x75, 0xd3, 0x8c, 0x59, 0x71, 0x91, 0x43,
  0x81, 0x85, 0xa6, 0x81, 0x35, 0x80, 0x9e, 0x7a, 0x7c, 0x6b, 0xa8, 0x7c,
  0x6a, 0x7f, 0x61, 0x7f, 0x6d, 0x7c, 0x9a, 0x86, 0x6a, 0x82, 0x87, 0x7c,
  0x84, 0x63, 0x83, 0x74, 0x77, 0x95, 0x7c, 0x81, 0x83, 0x66, 0x7a, 0x6b,
  0x89, 0x85, 0x75, 0x87, 0x76, 0x6e, 0x7a, 0x75, 0x91, 0x99, 0x6f, 0x77,
  0x74, 0x80, 0x73, 0x68, 0x90, 0x8c, 0x83, 0x6e, 0x85, 0x83, 0x6d, 0x95,
  0x82, 0x84, 0x92, 0x74, 0x7e, 0xa4, 0x7d, 0x5b, 0x78, 0x88, 0x99, 0x6b,
  0x65, 0x80, 0x81, 0x5f, 0x97, 0x75, 0x9f, 0xa9, 0x83, 0x91, 0x89, 0x82,
  0x7c, 0xcc, 0xab, 0x98, 0x84, 0x5d, 0x3f, 0x74, 0x84, 0xd1, 0xbf, 0x73,
  0xa9, 0x73, 0x5f, 0x91, 0x99, 0xb0, 0x82, 0x64, 0x9d, 0x77, 0x41, 0x7c,
  0xbc, 0xb5, 0x77, 0xac, 0x96, 0x69, 0x51, 0x99, 0x7e, 0x6d, 0x56, 0x9f,
  0x9f, 0x7b, 0x65, 0x73, 0x74, 0x4a, 0xa0, 0x75, 0x8b, 0x79, 0xb5, 0x8d,
  0x5b, 0x69, 0xbd, 0x65, 0x4e, 0x85, 0xcc, 0x7e, 0x22, 0x90, 0xcb, 0x83,
  0x3f, 0x71, 0xd3, 0x83, 0x0e, 0x55, 0xaa, 0x5d, 0x41, 0x8b, 0xbb, 0x8f,
  0x57, 0x73, 0xc0, 0x7c, 0x84, 0x65, 0xd3, 0x6c, 0x5b, 0x7d, 0x8b, 0x85,
  0x97, 0x7a, 0x98, 0x78, 0x69, 0x59, 0x6d, 0x76, 0x80, 0x73, 0x9a, 0x87,
  0x68, 0x80, 0x7d, 0x70, 0x6a, 0x9a, 0x9b, 0x86, 0x87, 0xa2, 0x7e, 0x80,
  0x7a, 0x87, 0x78, 0x88, 0x95, 0xa0, 0x64, 0x81, 0x6d, 0x81, 0x75, 0x7a,
  0x8d, 0xb7, 0x91, 0x84, 0x76, 0x59, 0x65, 0x84, 0x95, 0xb1, 0x79, 0x63,
  0x73, 0x78, 0x80, 0x9f, 0x92, 0x77, 0x77, 0x65, 0x80, 0xa2, 0x7a, 0x61,
  0x7c, 0x83, 0x8f, 0x83, 0x8a, 0x81, 0x80, 0x60, 0x8b, 0x74, 0xa0, 0x80,
  0x8f, 0x6b, 0x7d, 0x82, 0x88, 0xb3, 0xad, 0x97, 0x9f, 0x63, 0x2a, 0x60,
  0x8b, 0xd4, 0xc5, 0x7b, 0x9f, 0x77, 0x61, 0x84, 0xa1, 0xa7, 0x8a, 0x7f,
  0x94, 0x76, 0x62, 0x90, 0xa2, 0x8f, 0x4d, 0xb9, 0xbd, 0x6b, 0x5d, 0x75,
  0x92, 0x52, 0x5d, 0xb7, 0x9f, 0x9d, 0x82, 0x8f, 0x6f, 0x56, 0xa1, 0x84,
  0x82, 0x69, 0xae, 0x78, 0x50, 0x56, 0x9f, 0x90, 0x50, 0x7e, 0xc3, 0x89,
  0x2a, 0x63, 0xdb, 0x6a, 0x4a, 0x66, 0xb4, 0x64, 0x2a, 0x66, 0xba, 0x5d,
  0x49, 0x81, 0xbe, 0x7f, 0x51, 0x8c, 0xbf, 0x51, 0x90, 0x78, 0xae, 0x7c,
  0x5f, 0x62, 0x74, 0x90, 0x7e, 0x93, 0x9f, 0x83, 0x68, 0x75, 0x80, 0x7f,
  0x89, 0x7c, 0x88, 0x8c, 0x61, 0x64, 0x83, 0x93, 0x5b, 0x7f, 0x99, 0x8c,
  0x96, 0x85, 0x60, 0x96, 0x65, 0x87, 0x89, 0x84, 0x8d, 0x7e, 0x63, 0x80,
  0x81, 0x83, 0x51, 0x81, 0x9e, 0x8c, 0x6e, 0x7d, 0xa5, 0x6d, 0x4d, 0x80,
  0x9b, 0xb2, 0x70, 0x90, 0x69, 0x86, 0x85, 0x67, 0x92, 0x72, 0x95, 0x5a,
  0x8f, 0x91, 0x98, 0x6a, 0x6f, 0x6b, 0x90, 0x71, 0x98, 0x76, 0x91, 0x73,
  0x95, 0x6c, 0xa2, 0x8f, 0xb0, 0x82, 0x96, 0x8a, 0x76, 0xb4, 0xa0, 0x89,
  0x8e, 0x5a, 0x2e, 0x6d, 0x9c, 0xdc, 0xde, 0x85, 0x9f, 0x60, 0x54, 0x8b,
  0xa3, 0xb0, 0x80, 0x92, 0xad, 0x7c, 0x5c, 0x6c, 0xc6, 0x8d, 0x4e, 0xa4,
  0xb0, 0x83, 0x6c, 0x8b, 0x8e, 0x52, 0x82, 0xa8, 0x97, 0x84, 0x99, 0x84,
  0x74, 0x48, 0x93, 0x6d, 0x8d, 0x81, 0xa7, 0x95, 0x60, 0x58, 0xc5, 0x83,
  0x3c, 0x85, 0x9e, 0x71, 0x3c, 0x7d, 0xbf, 0x81, 0x50, 0x89, 0xb1, 0x60,
  0x27, 0x63, 0xcb, 0x53, 0x41, 0x60, 0xc2, 0x8b, 0x56, 0x7b, 0x7a, 0x62,
  0x61, 0x67, 0xb5, 0x7b, 0x60, 0x66, 0xa0, 0xa4, 0x82, 0x93, 0xae, 0x8e,
  0x74, 0x4b, 0x6e, 0x8d, 0x5a, 0x76, 0x9b, 0x84, 0x73, 0x67, 0x6b, 0x61,
  0x6a, 0x96, 0x8a, 0x95, 0x96, 0x79, 0xa1, 0x53, 0x7e, 0x84, 0x8d, 0x87,
  0x88, 0x82, 0x5b, 0x73, 0x7c, 0x8c, 0x7b, 0x9c, 0x8f, 0xa0, 0x77, 0x99,
  0x9d, 0x7b, 0x58, 0x92, 0xa2, 0xa3, 0x74, 0x8c, 0x7b, 0x5e, 0x82, 0x57,
  0xb2, 0x8d, 0x6e, 0x75, 0x74, 0x59, 0x79, 0x7b, 0x77, 0x91, 0x94, 0x81,
  0x94, 0x65, 0x8f, 0x7d, 0x8c, 0x6e, 0x8a, 0xa7, 0xb4, 0x89, 0x80, 0x73,
  0x91, 0x8f, 0xab, 0x91, 0x8e, 0x6e, 0x36, 0x73, 0x8d, 0xcf, 0xdf, 0x80,
  0xa0, 0x74, 0x5a, 0x6e, 0xa6, 0xa8, 0xa4, 0x6e, 0xa0, 0x73, 0x4e, 0x8e,
  0xb2, 0x9b, 0x6c, 0xb1, 0xc1, 0x9c, 0x5f, 0x7d, 0x82, 0x58, 0x62, 0x9c,
  0xa0, 0x66, 0x85, 0x90, 0x76, 0x47, 0xaf, 0x84, 0x8c, 0x6e, 0x9b, 0x83,
  0x54, 0x54, 0xbd, 0xa1, 0x54, 0x70, 0xa8, 0x88, 0x3d, 0x5f, 0xbf, 0x86,
  0x32, 0x8f, 0xa7, 0x77, 0x28, 0x66, 0xac, 0x70, 0x21, 0x76, 0xbe, 0x87,
  0x62, 0x97, 0x9d, 0x56, 0x90, 0x72, 0xba, 0x9a, 0x62, 0x7b, 0x91, 0xa5,
  0x83, 0x88, 0xa7, 0x89, 0x55, 0x82, 0x8e, 0x86, 0x7a, 0x8b, 0x85, 0x8a,
  0x54, 0x89, 0x87, 0x5b, 0x7e, 0x97, 0x92, 0x7f, 0x89, 0x86, 0x84, 0x71,
  0x93, 0x8a, 0x83, 0x99, 0x94, 0x93, 0x62, 0x4b, 0x93, 0x68, 0x56, 0xa2,
  0x90, 0x9b, 0x6d, 0x89, 0x99, 0x7f, 0x78, 0x8f, 0x8c, 0x9f, 0x80, 0x86,
  0x89, 0x7d, 0x84, 0x7e, 0xa1, 0x8d, 0x8c, 0x5e, 0x81, 0x65, 0xa9, 0x7c,
  0x7b, 0xa6, 0x89, 0x7e, 0x97, 0x72, 0x8b, 0x6b, 0x7f, 0x58, 0x8e, 0x93,
  0x98, 0x7b, 0x81, 0x80, 0xa9, 0xac, 0x9b, 0x8a, 0x92, 0x6c, 0x32, 0x71,
  0x94, 0xdb, 0xef, 0x61, 0xb8, 0x80, 0x69, 0x7d, 0xb1, 0xac, 0x90, 0x8c,
  0xad, 0x7a, 0x54, 0x89, 0x84, 0xae, 0x50, 0xac, 0xbb, 0x8d, 0x51, 0x71,
  0x7c, 0x52, 0x7a, 0xa4, 0x94, 0x80, 0x7d, 0x83, 0x65, 0x57, 0x98, 0x73,
  0x83, 0x88, 0xb1, 0x9f, 0x69, 0x47, 0xca, 0x7f, 0x57, 0x78, 0x95, 0x82,
  0x40, 0x69, 0xc3, 0x79, 0x44, 0x82, 0xa0, 0x82, 0x42, 0x7c, 0xbd, 0x6d,
  0x3e, 0x84, 0xc2, 0x75, 0x5f, 0x95, 0xa9, 0x5d, 0x73, 0x79, 0xb3, 0x84,
  0x5e, 0x51, 0x87, 0xa5, 0x85, 0x82, 0xb1, 0x8f, 0x68, 0x82, 0x86, 0x66,
  0x6a, 0xa7, 0x9a, 0x92, 0x75, 0x8b, 0x95, 0x84, 0x62, 0x97, 0x91, 0x9e,
  0x8d, 0x8d, 0x97, 0x66, 0x75, 0x6c, 0xa4, 0x98, 0x98, 0x8b, 0x5d, 0x62,
  0x97, 0x87, 0x5f, 0x7f, 0x8c, 0xb0, 0x82, 0x69, 0x89, 0x64, 0x6e, 0x92,
  0xae, 0x91, 0x52, 0x98, 0x8d, 0x89, 0x98, 0x6f, 0x9e, 0x77, 0xa8, 0x62,
  0x7e, 0x6c, 0x91, 0x7d, 0x83, 0x9f, 0x8e, 0x78, 0x8f, 0x8b, 0x8f, 0x7e,
  0x7c, 0x63, 0xa9, 0x9c, 0xa0, 0x7b, 0x95, 0x8d, 0x88, 0xb6, 0xaf, 0x95,
  0xa9, 0x63, 0x32, 0x76, 0xae, 0xd0, 0xf6, 0x7a, 0xa5, 0x87, 0x5b, 0x72,
  0xbb, 0xad, 0x9e, 0x88, 0xbf, 0x97, 0x67, 0x7d, 0xaa, 0x7a, 0x42, 0xac,
  0xc9, 0x8c, 0x69, 0x88, 0x7f, 0x51, 0x5b, 0x9b, 0xb6, 0x73, 0x80, 0x82,
  0x78, 0x5f, 0x9f, 0x79, 0x97, 0x85, 0xab, 0x76, 0x63, 0x32, 0xa9, 0xa7,
  0x59, 0x6c, 0xb3, 0x71, 0x2a, 0x42, 0xb7, 0x99, 0x3c, 0x5c, 0xab, 0x7a,
  0x49, 0x6a, 0xc7, 0x60, 0x39, 0xa8, 0xbb, 0x84, 0x63, 0x86, 0xbf, 0x79,
  0x67, 0x71, 0xc7, 0x83, 0x5c, 0x60, 0x86, 0x8f, 0x7e, 0x82, 0x97, 0x71,
  0x67, 0x7b, 0x97, 0x69, 0x7b, 0x8e, 0x8a, 0x98, 0x80, 0x8b, 0xa4, 0x70,
  0x78, 0x94, 0xaf, 0x87, 0x9a, 0x86, 0x73, 0x74, 0x8d, 0x72, 0x78, 0x8a,
  0x8f, 0xa4, 0x66, 0x61, 0xb4, 0x90, 0x70, 0x84, 0x8b, 0x77, 0x86, 0x59,
  0x98, 0x9a, 0x7f, 0x87, 0x9a, 0x87, 0x71, 0x9b, 0x81, 0x70, 0x82, 0x73,
  0xab, 0x88, 0x87, 0x62, 0x7f, 0x5d, 0x7f, 0xa9, 0x83, 0x94, 0xa8, 0x87,
  0x99, 0x88, 0x93, 0x93, 0x62, 0x5a, 0xaa, 0x84, 0xb5, 0x83, 0x8f, 0x7e,
  0x8e, 0xac, 0xc3, 0x7f, 0x97, 0x6a, 0x2e, 0x73, 0xa6, 0xd2, 0xca, 0x73,
  0x94, 0x72, 0x59, 0x60, 0xac, 0xa2, 0x8b, 0x6e, 0xb5, 0x8c, 0x78, 0x79,
  0xb7, 0x9f, 0x47, 0xbe, 0xc3, 0x8e, 0x4b, 0x7a, 0x80, 0x53, 0x64, 0xad,
  0x9a, 0x9d, 0x85, 0x8f, 0x7b, 0x53, 0xab, 0x87, 0xa3, 0x75, 0xae, 0x80,
  0x5e, 0x46, 0xc2, 0x7a, 0x5b, 0x76, 0xb4, 0x8d, 0x2b, 0x5d, 0xcf, 0x86,
  0x28, 0x6a, 0x9e, 0x78, 0x2f, 0x5e, 0xb8, 0x4b, 0x29, 0x6c, 0xb3, 0x71,
  0x64, 0x87, 0xb8, 0x71, 0x68, 0x9c, 0xb7, 0x89, 0x5b, 0x67, 0x97, 0x98,
  0x7b, 0x87, 0x9d, 0x7d, 0x68, 0x73, 0x5e, 0x68, 0x76, 0x90, 0x9b, 0x9f,
  0x7c, 0x6a, 0xb4, 0x79, 0x85, 0x78, 0x98, 0xa6, 0x86, 0x85, 0x72, 0x82,
  0x8e, 0x6f, 0xaf, 0x92, 0x9b, 0x80, 0x5c, 0x6b, 0xa1, 0x92, 0x83, 0x8a,
  0x86, 0x84, 0x7d, 0x86, 0x87, 0x63, 0x80, 0x9b, 0xbe, 0x8a, 0x31, 0x81,
  0x91, 0x8b, 0x82, 0x8d, 0x9a, 0x95, 0x88, 0x7d, 0x78, 0x6d, 0x88, 0x94,
  0x91, 0x76, 0x83, 0x70, 0x6f, 0x72, 0x88, 0x7d, 0x64, 0x7e, 0x95, 0x9d,
  0xac, 0x73, 0x9e, 0x96, 0x9d, 0xb5, 0xaa, 0x79, 0x86, 0x54, 0x46, 0x68,
  0xab, 0xb8, 0xdd, 0x69, 0xaa, 0x80, 0x5e, 0x49, 0xa1, 0xaf, 0x9c, 0x82,
  0xb0, 0x7a, 0x7e, 0x94, 0xb1, 0x84, 0x4a, 0xa9, 0xb2, 0x6b, 0x6f, 0x78,
  0x8a, 0x60, 0x64, 0x93, 0xc1, 0x7d, 0x8b, 0x7f, 0x63, 0x64, 0xa5, 0x8c,
  0x99, 0x8f, 0xa1, 0x84, 0x5f, 0x53, 0xd0, 0x62, 0x5e, 0x6f, 0xab, 0x8b,
  0x1c, 0x61, 0xcb, 0x87, 0x55, 0xa8, 0x9f, 0x6a, 0x4b, 0x6d, 0xba, 0x75,
  0x2d, 0x67, 0x9b, 0x89, 0x5e, 0x7a, 0xd3, 0x6c, 0x80, 0x98, 0xb3, 0x88,
  0x74, 0x63, 0x79, 0xa2, 0x84, 0x9c, 0x93, 0x9a, 0x68, 0x79, 0x93, 0x6a,
  0x76, 0x71, 0xa1, 0x8e, 0x6c, 0x6f, 0xa3, 0x7d, 0x8b, 0x8b, 0xb4, 0x83,
  0x8f, 0x95, 0x78, 0x70, 0x8e, 0x67, 0x96, 0x7f, 0x93, 0x8d, 0x4a, 0x64,
  0x98, 0x94, 0x6b, 0x8b, 0x7b, 0x83, 0x80, 0x70, 0x9b, 0x6e, 0x84, 0x8d,
  0x99, 0x77, 0x3f, 0xa4, 0x85, 0x87, 0x90, 0x8e, 0xad, 0x93, 0x9b, 0x8b,
  0x90, 0x74, 0x84, 0x87, 0x79, 0x9c, 0x85, 0x81, 0x9f, 0x7f, 0x96, 0x6a,
  0x76, 0x55, 0x8c, 0x94, 0xa2, 0x79, 0x87, 0x6f, 0xb1, 0x9a, 0xa6, 0x6e,
  0x9c, 0x5c, 0x2c, 0x6b, 0xb5, 0xb5, 0xd1, 0x5b, 0xbb, 0x8f, 0x64, 0x5a,
  0xaa, 0xa6, 0x8f, 0x8f, 0xb1, 0x92, 0x69, 0x86, 0x99, 0x85, 0x4a, 0xa7,
  0xac, 0x7a, 0x62, 0x5f, 0x80, 0x5e, 0x4c, 0x9b, 0xa4, 0x87, 0x9e, 0x77,
  0x65, 0x5f, 0x9f, 0x6a, 0x94, 0x8f, 0xb5, 0x8b, 0x56, 0x49, 0xc1, 0x7d,
  0x6e, 0x7f, 0xb0, 0x7a, 0x19, 0x66, 0xaa, 0x78, 0x50, 0x7a, 0xa0, 0x73,
  0x40, 0x81, 0xb3, 0x59, 0x44, 0x89, 0xa7, 0x7d, 0x74, 0x8d, 0xbd, 0x5f,
  0x85, 0x68, 0xba, 0x86, 0x5b, 0x52, 0x9d, 0xa3, 0x84, 0x7b, 0x9b, 0x97,
  0x6c, 0x7c, 0x77, 0x6e, 0x97, 0x87, 0xa2, 0x97, 0x82, 0x70, 0xc8, 0x95,
  0x83, 0x7a, 0x9d, 0x8e, 0x88, 0x73, 0x87, 0x76, 0x7c, 0xa2, 0x9f, 0x8e,
  0x86, 0x8a, 0x89, 0x63, 0xa2, 0x8c, 0x79, 0x81, 0x83, 0x78, 0x89, 0x85,
  0x9f, 0x85, 0x80, 0x82, 0xa2, 0x87, 0x6c, 0x87, 0x82, 0x73, 0x7d, 0x9e,
  0x97, 0x84, 0x94, 0x8c, 0x83, 0x5d, 0x8f, 0x80, 0x70, 0x8b, 0x88, 0x78,
  0xa9, 0x7e, 0x96, 0x67, 0x6b, 0x5d, 0x87, 0x83, 0xa4, 0x69, 0x98, 0x7e,
  0x90, 0xb4, 0x8c, 0x87, 0xa3, 0x85, 0x51, 0x73, 0xc9, 0xb5, 0xbd, 0x65,
  0xb7, 0x71, 0x5e, 0x51, 0xbb, 0xa2, 0xb4, 0x7e, 0x9a, 0x73, 0x54, 0x69,
  0x9d, 0x8a, 0x41, 0xb5, 0xbc, 0x86, 0x84, 0x70, 0x78, 0x79, 0x60, 0x9f,
  0xa0, 0x84, 0x8f, 0x98, 0x70, 0x7a, 0x9a, 0x7c, 0xa1, 0x72, 0xb2, 0x8e,
  0x69, 0x4c, 0xdd, 0x88, 0x8a, 0x9a, 0xa8, 0x75, 0x43, 0x60, 0xbf, 0x9e,
  0x3a, 0x6d, 0xb4, 0x73, 0x3c, 0x6d, 0xb5, 0x5d, 0x57, 0x9f, 0xb0, 0x6e,
  0x5b, 0x79, 0xd8, 0x5c, 0x7a, 0xab, 0xb5, 0x80, 0x6a, 0x6d, 0x6c, 0x96,
  0x79, 0x76, 0xaf, 0x84, 0x6e, 0x75, 0x74, 0x78, 0x88, 0x75, 0x95, 0x95,
  0x80, 0x71, 0x8a, 0x7b, 0x9a, 0x74, 0xaf, 0x8e, 0x86, 0x80, 0x84, 0x6d,
  0x86, 0x7e, 0x8c, 0xa8, 0x9b, 0x94, 0x6d, 0x6f, 0x8b, 0x83, 0x83, 0x96,
  0x9b, 0x89, 0x83, 0x67, 0x99, 0x8e, 0x7d, 0x81, 0xb2, 0x81, 0x53, 0x85,
  0x7b, 0x95, 0x8f, 0xa0, 0xa6, 0x96, 0x71, 0x87, 0x83, 0x7c, 0x98, 0x7b,
  0x5f, 0x5b, 0x83, 0x6a, 0x90, 0x74, 0x8a, 0x69, 0x4f, 0x5f, 0x73, 0xa0,
  0x94, 0x6e, 0x98, 0x89, 0x77, 0xa0, 0xa7, 0x63, 0x90, 0x6d, 0x39, 0x69,
  0xae, 0xba, 0xdd, 0x3a, 0xac, 0x6d, 0x54, 0x63, 0xc2, 0x8d, 0xb9, 0x79,
  0xb2, 0xa5, 0x5a, 0x7f, 0xb8, 0x7d, 0x60, 0xbf, 0xc3, 0xb7, 0x74, 0x79,
  0xb0, 0x7b, 0x65, 0x9a, 0xb9, 0x67, 0x7e, 0x6a, 0x6e, 0x80, 0xb3, 0x50,
  0xb0, 0x97, 0xa9, 0x71, 0x51, 0x4e, 0xbd, 0x74, 0x90, 0x8f, 0xcc, 0x7e,
  0x3f, 0x45, 0xc1, 0x89, 0x4b, 0x81, 0xc5, 0x7f, 0x4b, 0x76, 0x9c, 0x5c,
  0x66, 0x7f, 0xb1, 0x87, 0x69, 0x7c, 0xcb, 0x82, 0x8e, 0x69, 0x8f, 0x92,
  0x62, 0x6d, 0x6d, 0xa1, 0x89, 0x92, 0xb4, 0x9d, 0x84, 0x8b, 0x69, 0x9d,
  0x86, 0x87, 0x9b, 0x8c, 0x78, 0xa3, 0xa9, 0x81, 0x83, 0x87, 0x97, 0x8a,
  0x85, 0x6d, 0x94, 0x8f, 0x91, 0x81, 0x9e, 0x8f, 0x9b, 0x8a, 0x8c, 0x7b,
  0xaa, 0x86, 0x88, 0xa2, 0x94, 0x74, 0x80, 0x81, 0x97, 0x81, 0x77, 0x85,
  0xb3, 0x8d, 0x6d, 0x96, 0x8b, 0x71, 0x89, 0x9a, 0xbd, 0xa3, 0x8e, 0x90,
  0x79, 0x8c, 0xaf, 0x8b, 0x6f, 0x95, 0x6e, 0x63, 0x8c, 0x92, 0xa9, 0x59,
  0x4c, 0x49, 0xa2, 0x8a, 0x9e, 0x83, 0x9c, 0x93, 0x98, 0xa5, 0x87, 0x89,
  0x9a, 0x81, 0x46, 0x6d, 0xc1, 0xa8, 0xc0, 0x47, 0xae, 0x7d, 0x69, 0x50,
  0xab, 0xa8, 0x8b, 0x8a, 0xa0, 0x68, 0x56, 0x8c, 0xa6, 0x95, 0x7e, 0xb2,
  0xbd, 0x92, 0x82, 0x78, 0xa0, 0x71, 0x48, 0x75, 0xc3, 0x86, 0x85, 0x76,
  0x70, 0x7e, 0x98, 0x71, 0x92, 0x7b, 0xc3, 0x78, 0x45, 0x6f, 0xb4, 0x6b,
  0x76, 0x71, 0xbd, 0x87, 0x3d, 0x7f, 0xb8, 0x62, 0x57, 0x8b, 0x9e, 0x71,
  0x58, 0x81, 0xb1, 0x5b, 0x5b, 0x91, 0xb0, 0x8c, 0x65, 0x77, 0x9d, 0x7c,
  0x6a, 0x7a, 0xc8, 0x9a, 0x80, 0x5e, 0x97, 0x9b, 0x6a, 0x90, 0xb5, 0x97,
  0x72, 0x6d, 0x74, 0x8d, 0xa5, 0x88, 0x94, 0x93, 0x93, 0x7d, 0x9f, 0x8e,
  0x73, 0x78, 0x8d, 0x93, 0x8f, 0x8b, 0x9e, 0x72, 0x76, 0x92, 0x9a, 0x93,
  0x94, 0x7c, 0x7b, 0x7b, 0xa1, 0x7e, 0x82, 0xa1, 0x9c, 0x7c, 0x5b, 0x9f,
  0xaa, 0x7f, 0x94, 0x96, 0xa6, 0x81, 0x65, 0x9e, 0x98, 0x76, 0x8c, 0x95,
  0xa6, 0x8e, 0x92, 0x76, 0x89, 0x7b, 0x8e, 0x87, 0x61, 0x64, 0x6a, 0x69,
  0x93, 0xa3, 0x8c, 0x65, 0x6a, 0x38, 0x99, 0x70, 0x86, 0x7a, 0xab, 0x82,
  0x91, 0x9c, 0x80, 0x8a, 0x7d, 0x82, 0x58, 0x44, 0xbb, 0xb0, 0xbe, 0x3c,
  0xb2, 0xa5, 0x41, 0x46, 0xac, 0xb1, 0x8f, 0x65, 0xb4, 0x8f, 0x6c, 0x7b,
  0xa4, 0xb5, 0x7a, 0x8f, 0xcc, 0x76, 0x69, 0x6f, 0x90, 0x6a, 0x4a, 0x99,
  0xbb, 0x71, 0x7c, 0x8d, 0x60, 0x75, 0x9f, 0x69, 0x90, 0x58, 0xa4, 0x77,
  0x58, 0x67, 0xc4, 0x51, 0x7e, 0x69, 0xc6, 0x6b, 0x3f, 0x4e, 0xbc, 0x76,
  0x3b, 0x6e, 0xbe, 0x6b, 0x50, 0x75, 0xa0, 0x54, 0x61, 0x99, 0xb8, 0x8a,
  0x6a, 0x7b, 0xb0, 0x75, 0x87, 0x91, 0xb9, 0x8d, 0x6d, 0x53, 0x86, 0xaa,
  0x80, 0x6f, 0xa6, 0x99, 0x83, 0x6c, 0x64, 0xa1, 0x97, 0x77, 0x98, 0x9c,
  0x80, 0x88, 0x92, 0x8a, 0x7d, 0x84, 0x9d, 0x9a, 0xa1, 0x6e, 0xa6, 0x77,
  0x9f, 0x80, 0x86, 0x8f, 0xa4, 0x79, 0x7c, 0x77, 0xa7, 0x6d, 0x70, 0x94,
  0xa6, 0x77, 0x79, 0x87, 0xa7, 0x8c, 0x81, 0x93, 0x9d, 0x87, 0x7e, 0xa8,
  0xa8, 0x6c, 0x72, 0xa8, 0xa5, 0x8c, 0xa4, 0x93, 0x83, 0x77, 0xa0, 0x93,
  0x8a, 0x89, 0x6e, 0x6d, 0x7e, 0x72, 0x9e, 0x75, 0x73, 0x68, 0x9e, 0x7b,
  0x77, 0x60, 0xa6, 0x86, 0x8d, 0xa8, 0x88, 0x80, 0x8f, 0x9b, 0x5c, 0x4d,
  0xa2, 0xb6, 0xc5, 0x6a, 0xb1, 0x9e, 0x56, 0x5b, 0x9e, 0x9b, 0xa3, 0x5a,
  0x97, 0x79, 0x79, 0x79, 0xa6, 0x8d, 0x72, 0xa3, 0xb8, 0xb0, 0x80, 0x7f,
  0x96, 0x69, 0x5c, 0x93, 0xae, 0x88, 0x74, 0x77, 0x6f, 0x69, 0xa6, 0x71,
  0x8b, 0x84, 0xbb, 0x66, 0x56, 0x77, 0xb3, 0x66, 0x73, 0x9b, 0xb2, 0x69,
  0x3b, 0x5a, 0xcc, 0x78, 0x3f, 0x5b, 0xa7, 0x6d, 0x4c, 0x67, 0xb7, 0x51,
  0x6e, 0x8e, 0xb9, 0x8b, 0x79, 0x78, 0xb5, 0x66, 0xb0, 0x7c, 0xa1, 0x80,
  0x65, 0x6f, 0x9e, 0xa6, 0x98, 0x85, 0xa6, 0x9a, 0x8a, 0x64, 0x6d, 0x88,
  0x92, 0x7c, 0x82, 0x86, 0x81, 0x82, 0x9d, 0x7c, 0x99, 0x9b, 0x97, 0x9e,
  0xa9, 0x72, 0x96, 0x7c, 0x82, 0x85, 0x82, 0x8f, 0xab, 0x7a, 0x71, 0x6e,
  0x97, 0x81, 0x84, 0x84, 0xa3, 0x79, 0x71, 0x87, 0xa9, 0x67, 0x81, 0x8b,
  0x9f, 0x87, 0x5a, 0x95, 0xac, 0x77, 0x80, 0x9b, 0xae, 0x81, 0x9a, 0x90,
  0x7a, 0x84, 0x82, 0x99, 0x7a, 0x7b, 0x6c, 0x66, 0x9f, 0x8d, 0x8c, 0x6f,
  0x6b, 0x54, 0x9f, 0x68, 0x87, 0x8d, 0x9e, 0x76, 0x9c, 0x96, 0x9d, 0xaa,
  0x96, 0x6d, 0x59, 0x66, 0xb8, 0x97, 0xae, 0x5b, 0xb1, 0xab, 0x5e, 0x63,
  0x9b, 0xa3, 0xa6, 0x4b, 0xb8, 0x8e, 0x8c, 0x64, 0xa1, 0x9a, 0x6e, 0x9a,
  0xb4, 0x9c, 0x74, 0x62, 0xa7, 0x88, 0x72, 0x89, 0xc0, 0x88, 0x82, 0x6e,
  0x57, 0x6a, 0x84, 0x66, 0x6f, 0x8a, 0xd3, 0x5f, 0x6f, 0x70, 0xb8, 0x7f,
  0x61, 0x61, 0xd3, 0x92, 0x4e, 0x4f, 0x9a, 0x7b, 0x60, 0x73, 0xab, 0x48,
  0x49, 0x57, 0xb7, 0x48, 0x5d, 0x95, 0xb5, 0x92, 0x80, 0x9f, 0xab, 0x62,
  0xa2, 0x6a, 0xab, 0x73, 0x6d, 0x73, 0xa0, 0xa1, 0x99, 0x83, 0xa5, 0x9e,
  0x77, 0x82, 0x85, 0x7c, 0x77, 0x70, 0xa6, 0x9e, 0x8e, 0x85, 0x95, 0x92,
  0x74, 0x75, 0x92, 0x99, 0x98, 0x83, 0x88, 0x81, 0x89, 0x6e, 0x82, 0x92,
  0xa9, 0x78, 0x93, 0x82, 0x98, 0x9b, 0x86, 0x8b, 0xb0, 0x78, 0x62, 0x88,
  0x98, 0x66, 0x67, 0x95, 0x9b, 0x89, 0x6c, 0x9e, 0x93, 0x77, 0x89, 0x89,
  0x9d, 0x7b, 0x83, 0x99, 0x94, 0x6c, 0x8a, 0x91, 0x6b, 0x79, 0x7e, 0x53,
  0xa4, 0x7f, 0x83, 0x75, 0x5f, 0x47, 0x6b, 0x90, 0x9e, 0x9c, 0x89, 0x91,
  0x8c, 0x91, 0x97, 0x9c, 0xaa, 0x7f, 0x68, 0x64, 0xb5, 0xa6, 0xb4, 0x59,
  0x83, 0x63, 0x6a, 0x6e, 0x9e, 0x90, 0x8c, 0x5c, 0x96, 0x90, 0x82, 0x6a,
  0x73, 0x90, 0x95, 0xa6, 0xc4, 0x86, 0x8d, 0x63, 0x80, 0x7e, 0x73, 0x9c,
  0xbd, 0x9b, 0x7f, 0x6b, 0x81, 0x6a, 0x75, 0x6f, 0x8b, 0x78, 0xc6, 0x6d,
