/* Copyright 2018 The TensorFlow Authors. All Rights Reserved.

Licensed under the Apache License, Version 2.0 (the "License");
you may not use this file except in compliance with the License.
You may obtain a copy of the License at

    http://www.apache.org/licenses/LICENSE-2.0

Unless required by applicable law or agreed to in writing, software
distributed under the License is distributed on an "AS IS" BASIS,
WITHOUT WARRANTIES OR CONDITIONS OF ANY KIND, either express or implied.
See the License for the specific language governing permissions and
limitations under the License.
==============================================================================*/

// Automatically created from a TensorFlow Lite flatbuffer using the command:
// xxd -i tiny_conv.tflite > tiny_conv_simple_features_model_data.cc
// See the README for a full description of the creation process.

#include "tiny_conv_micro_features_model_data.h"

// We need to keep the data array aligned on some architectures.
#ifdef __has_attribute
#define HAVE_ATTRIBUTE(x) __has_attribute(x)
#else
#define HAVE_ATTRIBUTE(x) 0
#endif
#if HAVE_ATTRIBUTE(aligned) || (defined(__GNUC__) && !defined(__clang__))
#define DATA_ALIGN_ATTRIBUTE __attribute__((aligned(4)))
#else
#define DATA_ALIGN_ATTRIBUTE
#endif

const unsigned char
    g_tiny_conv_micro_features_model_data[] DATA_ALIGN_ATTRIBUTE = {
  0x1c, 0x00, 0x00, 0x00, 0x54, 0x46, 0x4c, 0x33, 0x00, 0x00, 0x00, 0x00,
  0x00, 0x00, 0x0e, 0x00, 0x18, 0x00, 0x04, 0x00, 0x08, 0x00, 0x0c, 0x00,
  0x10, 0x00, 0x14, 0x00, 0x0e, 0x00, 0x00, 0x00, 0x03, 0x00, 0x00, 0x00,
  0xcc, 0x46, 0x00, 0x00, 0x0c, 0x00, 0x00, 0x00, 0x10, 0x00, 0x00, 0x00,
  0x20, 0x00, 0x00, 0x00, 0x01, 0x00, 0x00, 0x00, 0x74, 0x00, 0x00, 0x00,
  0x0f, 0x00, 0x00, 0x00, 0x54, 0x4f, 0x43, 0x4f, 0x20, 0x43, 0x6f, 0x6e,
  0x76, 0x65, 0x72, 0x74, 0x65, 0x64, 0x2e, 0x00, 0x09, 0x00, 0x00, 0x00,
  0x54, 0x00, 0x00, 0x00, 0x48, 0x00, 0x00, 0x00, 0x3c, 0x00, 0x00, 0x00,
  0x34, 0x00, 0x00, 0x00, 0x2c, 0x00, 0x00, 0x00, 0x24, 0x00, 0x00, 0x00,
  0x18, 0x00, 0x00, 0x00, 0x10, 0x00, 0x00, 0x00, 0x04, 0x00, 0x00, 0x00,
  0x4e, 0xba, 0xff, 0xff, 0x10, 0x01, 0x00, 0x00, 0xfc, 0xb9, 0xff, 0xff,
  0x5a, 0xba, 0xff, 0xff, 0x88, 0x40, 0x00, 0x00, 0x08, 0xba, 0xff, 0xff,
  0x0c, 0xba, 0xff, 0xff, 0x10, 0xba, 0xff, 0xff, 0x6e, 0xba, 0xff, 0xff,
  0xa4, 0x44, 0x00, 0x00, 0x76, 0xba, 0xff, 0xff, 0x30, 0x45, 0x00, 0x00,
  0x24, 0xba, 0xff, 0xff, 0x00, 0xbc, 0xff, 0xff, 0x20, 0x00, 0x00, 0x00,
  0x14, 0x00, 0x00, 0x00, 0x08, 0x00, 0x00, 0x00, 0x2c, 0x45, 0x00, 0x00,
  0x01, 0x00, 0x00, 0x00, 0x05, 0x00, 0x00, 0x00, 0x01, 0x00, 0x00, 0x00,
  0x03, 0x00, 0x00, 0x00, 0x08, 0x00, 0x00, 0x00, 0x1c, 0x44, 0x00, 0x00,
  0x9c, 0x44, 0x00, 0x00, 0x34, 0x3f, 0x00, 0x00, 0xb4, 0x42, 0x00, 0x00,
  0x24, 0x43, 0x00, 0x00, 0x8c, 0x43, 0x00, 0x00, 0x94, 0x3f, 0x00, 0x00,
  0x04, 0x00, 0x00, 0x00, 0x8e, 0xbb, 0xff, 0xff, 0x00, 0x00, 0x00, 0x03,
  0x10, 0x00, 0x00, 0x00, 0x08, 0x00, 0x00, 0x00, 0x14, 0x00, 0x00, 0x00,
  0x48, 0x00, 0x00, 0x00, 0x02, 0x00, 0x00, 0x00, 0x04, 0x00, 0x00, 0x00,
  0xa0, 0x0f, 0x00, 0x00, 0x31, 0x00, 0x00, 0x00, 0x77, 0x65, 0x69, 0x67,
  0x68, 0x74, 0x73, 0x5f, 0x71, 0x75, 0x61, 0x6e, 0x74, 0x5f, 0x31, 0x2f,
  0x46, 0x61, 0x6b, 0x65, 0x51, 0x75, 0x61, 0x6e, 0x74, 0x57, 0x69, 0x74,
  0x68, 0x4d, 0x69, 0x6e, 0x4d, 0x61, 0x78, 0x56, 0x61, 0x72, 0x73, 0x2f,
  0x74, 0x72, 0x61, 0x6e, 0x73, 0x70, 0x6f, 0x73, 0x65, 0x00, 0x00, 0x00,
  0xa4, 0xbc, 0xff, 0xff, 0x30, 0x00, 0x00, 0x00, 0x24, 0x00, 0x00, 0x00,
  0x18, 0x00, 0x00, 0x00, 0x04, 0x00, 0x00, 0x00, 0x01, 0x00, 0x00, 0x00,
  0x7c, 0x00, 0x00, 0x00, 0x00, 0x00, 0x00, 0x00, 0x00, 0x00, 0x00, 0x00,
  0x01, 0x00, 0x00, 0x00, 0x3a, 0x4c, 0xc7, 0x39, 0x01, 0x00, 0x00, 0x00,
  0x86, 0x44, 0x4c, 0x3d, 0x01, 0x00, 0x00, 0x00, 0xbe, 0x36, 0x3f, 0xbd,
  0x80, 0x3e, 0x00, 0x00, 0x9d, 0x73, 0x89, 0x6f, 0x6d, 0x67, 0x98, 0x7e,
  0x93, 0x8c, 0x7d, 0x79, 0x8d, 0x83, 0x6f, 0x51, 0xce, 0x44, 0x71, 0xb7,
  0x3a, 0x4b, 0x79, 0x94, 0x6f, 0x7b, 0x63, 0x69, 0x56, 0x68, 0x69, 0x85,
  0x7b, 0x71, 0x5e, 0x7d, 0x78, 0x9b, 0x7b, 0x95, 0x67, 0x48, 0x59, 0xa3,
  0x2c, 0x89, 0x91, 0x78, 0x72, 0x7d, 0x82, 0x8f, 0x7b, 0x8d, 0x8a, 0x84,
  0x87, 0x4d, 0x61, 0x8c, 0x50, 0x87, 0x8f, 0x68, 0x7b, 0x5c, 0x7f, 0x67,
  0x70, 0x6e, 0x77, 0x47, 0xa0, 0x63, 0x7d, 0x7b, 0x4c, 0xa6, 0x7c, 0x78,
  0x98, 0x38, 0x7d, 0x6b, 0x72, 0x64, 0x67, 0x96, 0xbc, 0x74, 0x6b, 0x8f,
  0x77, 0x97, 0x97, 0x70, 0x9f, 0x62, 0x85, 0xad, 0x75, 0x7a, 0x94, 0x9c,
  0xa8, 0x2d, 0x6b, 0xa6, 0x6f, 0x6f, 0x5d, 0x7b, 0x78, 0x72, 0x7c, 0x9a,
  0x4b, 0x5c, 0xa7, 0x88, 0x8b, 0x53, 0x95, 0x6f, 0x71, 0x99, 0x79, 0x6e,
  0x99, 0x68, 0x6e, 0x69, 0x92, 0x7e, 0x6b, 0x58, 0xcb, 0x5e, 0x9f, 0xaf,
  0x7f, 0x6e, 0x9c, 0x50, 0xac, 0x36, 0x91, 0x94, 0x5e, 0x90, 0x85, 0x68,
  0xca, 0x27, 0x9a, 0xa1, 0x7d, 0x69, 0x6f, 0x4d, 0x5a, 0x6e, 0x88, 0x79,
  0x82, 0x5e, 0x76, 0x96, 0x8c, 0x93, 0x4a, 0xa2, 0x85, 0x81, 0x71, 0x8b,
  0x8c, 0x58, 0x8a, 0xaa, 0x69, 0x6d, 0x91, 0x5c, 0x72, 0x44, 0x61, 0x61,
  0x75, 0x99, 0x87, 0x6e, 0x62, 0x66, 0x69, 0x82, 0x43, 0x78, 0x52, 0x55,
  0x5f, 0x5a, 0xa0, 0x99, 0x6c, 0x8b, 0x9e, 0x83, 0x60, 0x91, 0x78, 0x79,
  0x98, 0x8b, 0xa3, 0x86, 0x74, 0x71, 0x70, 0x8f, 0x48, 0x8f, 0x6d, 0x8b,
  0x9d, 0x51, 0x6c, 0x98, 0x61, 0x6b, 0xa3, 0x9a, 0x7f, 0x5e, 0x88, 0x59,
  0x6c, 0x81, 0x58, 0x60, 0x79, 0x85, 0x6d, 0x8d, 0x74, 0x8d, 0x61, 0x7e,
  0x96, 0x79, 0x5c, 0x53, 0x89, 0x86, 0x6f, 0x90, 0x99, 0x57, 0x83, 0x74,
  0x6e, 0x77, 0x94, 0x82, 0x75, 0x4e, 0x94, 0x81, 0xa1, 0x64, 0x57, 0xa3,
  0x79, 0x42, 0xa5, 0x45, 0x5e, 0x6a, 0x98, 0x6d, 0x73, 0x53, 0x6d, 0x7c,
  0x74, 0x98, 0x6e, 0x8a, 0x9c, 0x4d, 0x9a, 0x62, 0xa1, 0x7f, 0x8a, 0xb0,
  0xa3, 0x6d, 0x86, 0xa1, 0x92, 0x79, 0xac, 0x9a, 0xa8, 0x99, 0x87, 0xa2,
  0x8a, 0x8f, 0x7e, 0xb5, 0xd2, 0x6f, 0x95, 0xb7, 0x7f, 0x9c, 0x77, 0x8e,
  0x54, 0x62, 0x88, 0x86, 0x8c, 0x81, 0x7a, 0x73, 0xae, 0x7b, 0x6f, 0x89,
  0x7a, 0x67, 0x51, 0x48, 0x79, 0xad, 0x79, 0xa2, 0x59, 0x89, 0x7d, 0x7f,
  0x4c, 0x8b, 0x79, 0x7a, 0x8c, 0x5b, 0x6b, 0x7b, 0x76, 0x87, 0x68, 0x82,
  0x7b, 0x77, 0x53, 0x5e, 0x71, 0xb1, 0x56, 0x7c, 0x4b, 0x6c, 0x7c, 0x71,
  0x59, 0xa3, 0x62, 0x8d, 0x78, 0x77, 0x70, 0x73, 0x74, 0x61, 0xaf, 0x53,
  0x91, 0x61, 0x59, 0x71, 0x86, 0xac, 0x87, 0x55, 0x7e, 0xa3, 0x77, 0x84,
  0x9e, 0xb2, 0x60, 0x6f, 0x79, 0x81, 0x6a, 0x63, 0x7f, 0xad, 0x76, 0x95,
  0x74, 0x90, 0x41, 0x89, 0x87, 0x8b, 0x7d, 0x58, 0x83, 0xbb, 0x9e, 0x92,
  0x7f, 0xa5, 0xac, 0x9f, 0x57, 0x7e, 0x5e, 0x5c, 0x82, 0x8f, 0x5c, 0x71,
  0x98, 0xb7, 0x81, 0x81, 0x8c, 0x7e, 0x6a, 0x62, 0x4d, 0x81, 0x96, 0x56,
  0x87, 0x93, 0x56, 0x57, 0x90, 0x71, 0xa7, 0x9d, 0x7e, 0x64, 0x92, 0x77,
  0x71, 0xa6, 0x8c, 0x4f, 0xa4, 0x92, 0x83, 0x7a, 0x89, 0xbb, 0x9f, 0x7b,
  0xae, 0xb6, 0x81, 0xb6, 0x67, 0x9e, 0x73, 0x64, 0xc6, 0x9a, 0x6f, 0xc0,
  0xaf, 0xa8, 0x82, 0x8b, 0x81, 0x62, 0x8c, 0xae, 0x83, 0x8f, 0x84, 0xa4,
  0x9a, 0x79, 0x6f, 0x98, 0x71, 0x87, 0x67, 0x8d, 0x61, 0xa1, 0x6d, 0x7f,
  0x8b, 0x3d, 0x62, 0x9f, 0x42, 0xa3, 0x6a, 0x42, 0x6c, 0x77, 0x46, 0x70,
  0x4c, 0x99, 0x5d, 0x60, 0x94, 0x5b, 0x80, 0x74, 0x59, 0x80, 0x81, 0x74,
  0x9f, 0x61, 0x76, 0x6e, 0x43, 0xa7, 0xaa, 0x5f, 0xae, 0x4f, 0x5e, 0x9a,
  0x64, 0x92, 0x80, 0x53, 0x93, 0x4f, 0x59, 0x7d, 0x6c, 0x92, 0x84, 0x59,
  0x6c, 0x69, 0x86, 0x93, 0x60, 0xa5, 0x7d, 0x50, 0x79, 0x96, 0x5e, 0x7b,
  0x89, 0x6f, 0x6b, 0x97, 0x80, 0x8c, 0x52, 0x86, 0x78, 0x92, 0x6b, 0x6a,
  0x8d, 0xab, 0x76, 0x83, 0x72, 0x8f, 0x7d, 0x6f, 0x71, 0x7f, 0x8c, 0x78,
  0x71, 0x98, 0x80, 0x4e, 0x57, 0x7c, 0x5c, 0xa2, 0x86, 0xaa, 0x92, 0x66,
  0x78, 0x6b, 0x7a, 0x5d, 0x69, 0x80, 0x90, 0x4d, 0x74, 0x9a, 0x93, 0x6a,
  0x88, 0x82, 0x84, 0x45, 0x72, 0x80, 0x5f, 0x4c, 0x81, 0x86, 0x87, 0x6c,
  0x96, 0x93, 0x82, 0x6b, 0xa2, 0x97, 0xab, 0x78, 0xa0, 0x88, 0x63, 0x82,
  0xbb, 0x93, 0x72, 0xa5, 0x9b, 0xa6, 0x9e, 0x84, 0x80, 0x9a, 0x7e, 0x5b,
  0x6e, 0x48, 0x85, 0xe6, 0x66, 0x8a, 0x96, 0x8f, 0x8b, 0x62, 0x43, 0xbc,
  0x59, 0x97, 0x78, 0x61, 0xac, 0x5c, 0x64, 0xa2, 0x2f, 0x80, 0x9c, 0x61,
  0x74, 0x55, 0x6c, 0x99, 0x62, 0x88, 0x79, 0x53, 0x8f, 0x53, 0x53, 0x7c,
  0x54, 0xa6, 0x92, 0x6c, 0x7f, 0x62, 0x54, 0x60, 0x46, 0x76, 0x86, 0x47,
  0x90, 0x52, 0x59, 0x6a, 0x56, 0x65, 0x76, 0x2e, 0x6a, 0x70, 0x79, 0x8f,
  0x4c, 0x9a, 0x7d, 0x52, 0x69, 0x5e, 0x7f, 0x86, 0x66, 0x80, 0x87, 0x5e,
  0x7c, 0x90, 0x78, 0x93, 0x8c, 0x83, 0x6c, 0x73, 0x5d, 0x7a, 0x75, 0x88,
  0x86, 0x9e, 0x7b, 0x77, 0x8d, 0x98, 0x9b, 0xa4, 0x7a, 0x7a, 0x6a, 0x76,
  0x6f, 0x99, 0x6f, 0x73, 0x5f, 0x9f, 0x7f, 0x5b, 0x58, 0x62, 0x9c, 0xa5,
  0x75, 0x9e, 0x92, 0x5b, 0x57, 0x7e, 0x95, 0xa2, 0x57, 0x7c, 0x72, 0x60,
  0x7f, 0xad, 0x9c, 0x70, 0x74, 0x88, 0x6e, 0x64, 0x51, 0x9c, 0x80, 0xa2,
  0x99, 0x76, 0x85, 0x36, 0x96, 0x86, 0xb0, 0x61, 0x92, 0x86, 0x86, 0x74,
  0x8d, 0xa6, 0x5f, 0xa0, 0xae, 0x7a, 0x84, 0xb5, 0xae, 0x9a, 0x5c, 0xb2,
  0x6c, 0x7d, 0xa8, 0x59, 0x53, 0x3c, 0x85, 0xba, 0x53, 0x7d, 0x60, 0x7d,
  0x6b, 0x69, 0x4a, 0xb5, 0x40, 0x8d, 0x54, 0x61, 0x5b, 0x4b, 0x66, 0x7a,
  0x4f, 0x86, 0x4d, 0x4e, 0xa0, 0x61, 0x21, 0x67, 0x46, 0x8a, 0x91, 0x6c,
  0x81, 0x44, 0x61, 0x9f, 0x49, 0x65, 0x89, 0x5d, 0x80, 0x58, 0x49, 0x86,
  0x46, 0x7f, 0x8e, 0x7b, 0x81, 0x47, 0x73, 0xa6, 0x47, 0x96, 0x70, 0x2a,
  0x84, 0x5f, 0x5d, 0xa8, 0x5f, 0x87, 0x77, 0x63, 0x68, 0x72, 0x8a, 0xbe,
  0x5b, 0x94, 0x7f, 0x79, 0xa7, 0x8a, 0x8c, 0x7c, 0x68, 0x8b, 0x7e, 0x6e,
  0x83, 0x7b, 0x60, 0x93, 0x9e, 0x99, 0x9b, 0x81, 0x83, 0x6f, 0x74, 0x8c,
  0x5f, 0x93, 0x61, 0x61, 0x8a, 0x7b, 0x73, 0x99, 0x73, 0xa2, 0x92, 0x8d,
  0x73, 0x80, 0x90, 0xa9, 0x5a, 0xa9, 0x6d, 0x5d, 0x87, 0xae, 0x72, 0x75,
  0x3b, 0xbb, 0x6b, 0x5f, 0x65, 0x8f, 0x66, 0xb4, 0x6e, 0xa1, 0x9a, 0x55,
  0x8c, 0xb7, 0x71, 0x6e, 0x8b, 0x7b, 0x51, 0x85, 0x75, 0xb8, 0x6a, 0x8a,
  0x7f, 0xd4, 0x79, 0x89, 0x71, 0x9d, 0x86, 0x91, 0xc1, 0xae, 0x64, 0xc0,
  0x76, 0xa1, 0x58, 0x9b, 0x72, 0x7b, 0x9c, 0x8d, 0x77, 0x59, 0x5f, 0xce,
  0x62, 0x95, 0x66, 0x77, 0x95, 0x4d, 0x3f, 0x9d, 0x41, 0x81, 0x8f, 0x73,
  0x8c, 0x48, 0x6b, 0x93, 0x3e, 0x8d, 0x84, 0x6e, 0x90, 0x4f, 0x40, 0x8f,
  0x2d, 0x67, 0x7f, 0x62, 0x8a, 0x43, 0x53, 0xb5, 0x65, 0x79, 0x82, 0x44,
  0x50, 0x6a, 0x5e, 0x96, 0x3a, 0xc0, 0x7d, 0x3d, 0xa5, 0x51, 0x79, 0x7c,
  0x55, 0x7b, 0x81, 0x46, 0x6e, 0x70, 0x78, 0x8c, 0x2f, 0xa0, 0x7c, 0x60,
  0x5c, 0x85, 0x5d, 0xa1, 0x44, 0x87, 0x66, 0x4b, 0x55, 0xa7, 0x3c, 0x9e,
  0x67, 0x85, 0x61, 0x6d, 0x86, 0x9c, 0x64, 0x86, 0x89, 0x91, 0x65, 0x66,
  0x89, 0x69, 0x88, 0x6d, 0x76, 0x9e, 0x8d, 0x60, 0x6c, 0x79, 0x67, 0x5d,
  0x95, 0x79, 0x6b, 0x72, 0x7a, 0x93, 0xaa, 0xc0, 0x64, 0x90, 0x78, 0x73,
  0x97, 0x66, 0x8d, 0xb7, 0x50, 0xb7, 0x5d, 0x63, 0x8e, 0x83, 0x7e, 0x75,
  0x6b, 0xa8, 0xa2, 0x32, 0x91, 0x89, 0x7c, 0x87, 0x86, 0xaf, 0x6a, 0x6b,
  0x8e, 0x82, 0x84, 0xaa, 0x95, 0xb7, 0x77, 0x76, 0x90, 0x9d, 0x53, 0x9b,
  0xb9, 0xc7, 0x6b, 0xba, 0x9c, 0x77, 0x98, 0x9f, 0x97, 0x7e, 0x9c, 0x4e,
  0x7f, 0x5d, 0x73, 0xc4, 0x78, 0x61, 0x61, 0x6e, 0x72, 0x3b, 0x49, 0x94,
  0x3b, 0x94, 0x80, 0x49, 0x8d, 0x30, 0x5f, 0x5e, 0x3b, 0x7f, 0x7c, 0x5d,
  0x81, 0x43, 0x57, 0xac, 0x3a, 0x7d, 0x99, 0x58, 0x82, 0x6a, 0x75, 0xb1,
  0x4f, 0xb9, 0x99, 0x5a, 0x8a, 0x2b, 0x52, 0x8b, 0x3e, 0xa6, 0x6e, 0x6a,
  0x6e, 0x4d, 0x52, 0x99, 0x3e, 0x69, 0x69, 0x5a, 0x61, 0x55, 0x3f, 0x9c,
  0x31, 0xb6, 0x7d, 0x4e, 0x78, 0x65, 0x6a, 0x91, 0x70, 0x7f, 0x64, 0x6e,
  0x84, 0x81, 0x88, 0x8a, 0x60, 0xb0, 0x5d, 0x77, 0x99, 0x88, 0x76, 0x73,
  0x5d, 0x7a, 0x60, 0x59, 0x99, 0x6a, 0x89, 0x84, 0x88, 0xb3, 0x9c, 0x7c,
  0x90, 0x94, 0x8a, 0x89, 0x78, 0x96, 0x78, 0x67, 0x5d, 0x81, 0xa4, 0x64,
  0x5c, 0xc0, 0x79, 0x7b, 0x82, 0x73, 0x9c, 0x83, 0x41, 0xac, 0x5d, 0x52,
  0x91, 0x7c, 0x67, 0x9b, 0x58, 0x89, 0x89, 0x3f, 0x95, 0xa2, 0x75, 0xa1,
  0x51, 0x97, 0x6d, 0x7d, 0x6b, 0x8a, 0x7d, 0x82, 0xa6, 0xd8, 0x68, 0x7f,
  0x8a, 0xd3, 0x8f, 0xa4, 0xbf, 0xbd, 0x79, 0xa3, 0xb6, 0x82, 0x77, 0x86,
  0x78, 0xae, 0x97, 0x63, 0x79, 0x7a, 0x77, 0xce, 0x89, 0x99, 0x69, 0x78,
  0x87, 0x52, 0x5a, 0x9f, 0x3a, 0x65, 0x76, 0x56, 0x65, 0x34, 0x63, 0xab,
  0x6e, 0xac, 0x96, 0x74, 0x6d, 0x44, 0x2b, 0x8d, 0x2a, 0x8d, 0x65, 0x66,
  0x7b, 0x26, 0x45, 0x98, 0x49, 0x61, 0x87, 0x4d, 0xad, 0x42, 0x66, 0x80,
  0x5c, 0xa0, 0x69, 0x4e, 0x5e, 0x7f, 0x7c, 0x95, 0x42, 0x8d, 0x70, 0x5d,
  0x93, 0x5b, 0x61, 0x5d, 0x75, 0x92, 0x86, 0x53, 0x7a, 0x75, 0x87, 0x90,
  0x61, 0xa6, 0x5e, 0x70, 0x78, 0x5b, 0x89, 0x87, 0x82, 0xa7, 0x71, 0x87,
  0x91, 0x92, 0x67, 0x73, 0x85, 0x94, 0x8f, 0x87, 0x87, 0x81, 0x61, 0x70,
  0xae, 0xab, 0x85, 0x90, 0x95, 0x95, 0x97, 0x68, 0x69, 0xab, 0x81, 0x7d,
  0x7a, 0x83, 0x92, 0x6a, 0x86, 0xbf, 0x8e, 0x44, 0x6d, 0x88, 0xa6, 0xb4,
  0x65, 0xb3, 0x6c, 0x55, 0x88, 0x96, 0x88, 0x6f, 0x59, 0x95, 0x71, 0x44,
  0x87, 0x7e, 0x68, 0xa4, 0x72, 0x7b, 0xa5, 0x75, 0x98, 0x89, 0x9e, 0x8d,
  0x8f, 0xd7, 0x8b, 0x7b, 0x80, 0x99, 0x6a, 0x91, 0xb8, 0xbc, 0x9c, 0xad,
  0xa4, 0x95, 0x73, 0xa2, 0x68, 0x70, 0x92, 0x72, 0x66, 0x5d, 0x80, 0xc8,
  0x6e, 0x6e, 0x4e, 0x56, 0x7a, 0x37, 0x7f, 0x95, 0x50, 0x77, 0x97, 0x32,
  0x8b, 0x1c, 0x3b, 0x83, 0x45, 0x9a, 0x92, 0x47, 0x8a, 0x6f, 0x41, 0xad,
  0x27, 0x95, 0x7d, 0x77, 0x75, 0x4e, 0x46, 0x83, 0x55, 0x92, 0xb2, 0x88,
  0x87, 0x51, 0x3f, 0x94, 0x4c, 0x91, 0x9b, 0x78, 0x87, 0x5c, 0x45, 0x8c,
  0x60, 0xbe, 0x80, 0x40, 0x7c, 0x52, 0x7c, 0x7b, 0x6e, 0xb8, 0x80, 0x5d,
  0x6d, 0x80, 0x6c, 0xa9, 0x63, 0x92, 0x84, 0x82, 0x7c, 0x83, 0x64, 0x68,
  0x7d, 0x92, 0xa6, 0x91, 0x79, 0x69, 0x72, 0x61, 0x66, 0x7c, 0x5d, 0x79,
  0xa6, 0x69, 0x6b, 0x70, 0x81, 0xa5, 0x8f, 0x83, 0x87, 0x78, 0xaa, 0x51,
  0xa6, 0xc3, 0x99, 0x69, 0x7b, 0x99, 0xa6, 0x8a, 0x79, 0x86, 0x6d, 0x66,
  0x95, 0xa2, 0x87, 0x8d, 0x56, 0x84, 0x7a, 0x41, 0x78, 0x99, 0x74, 0x81,
  0x4c, 0x7d, 0xa9, 0x42, 0x78, 0x6e, 0x69, 0x76, 0x3d, 0x9e, 0x60, 0x67,
  0x76, 0x60, 0x85, 0x9b, 0x95, 0xd0, 0x9b, 0x79, 0x87, 0xa5, 0x58, 0xad,
  0xae, 0xbf, 0x57, 0xa2, 0x81, 0x85, 0x71, 0x9f, 0x99, 0x5e, 0x90, 0x88,
  0x8a, 0x46, 0x54, 0xb1, 0x6b, 0x88, 0x5b, 0x6f, 0x6f, 0x51, 0x3e, 0x93,
  0x5b, 0x97, 0x7b, 0x38, 0x82, 0x4c, 0x35, 0x9f, 0x3d, 0x99, 0x99, 0x54,
  0x56, 0x4f, 0x3a, 0xbf, 0x47, 0x98, 0x44, 0x67, 0x7f, 0x5d, 0x72, 0x7a,
  0x45, 0xaa, 0x8e, 0x84, 0x85, 0x32, 0x5f, 0x9a, 0x31, 0x9c, 0x6f, 0x5d,
  0x73, 0x42, 0x59, 0x6f, 0x1a, 0xa2, 0x74, 0x59, 0x80, 0x45, 0x4a, 0x95,
  0x38, 0x85, 0x72, 0x55, 0x7a, 0x87, 0x8d, 0x89, 0x69, 0xa0, 0x6d, 0x62,
  0x8f, 0x61, 0x64, 0x78, 0x8d, 0xa6, 0x71, 0x79, 0x94, 0x7a, 0x7c, 0x4d,
  0x87, 0x98, 0x6b, 0x7a, 0x8b, 0x98, 0x53, 0x73, 0xa2, 0x77, 0x87, 0x61,
  0x86, 0x90, 0x8e, 0x57, 0x74, 0x99, 0xb3, 0x6d, 0x85, 0x7a, 0x79, 0x59,
  0x5e, 0x91, 0x83, 0x6a, 0x98, 0x6f, 0x66, 0x7b, 0x35, 0x9a, 0x87, 0x7d,
  0x9d, 0x66, 0x8f, 0x6c, 0x5c, 0x84, 0x8d, 0x55, 0x7e, 0x91, 0x7e, 0x8e,
  0x79, 0x9d, 0x72, 0x36, 0x76, 0x8a, 0x75, 0x84, 0x9b, 0xdf, 0x90, 0x61,
  0x77, 0x75, 0x6e, 0x98, 0xbc, 0xa7, 0x95, 0xb4, 0xa5, 0xa5, 0x7b, 0x8e,
  0x75, 0x80, 0x66, 0x89, 0x99, 0x6f, 0x53, 0xbc, 0x3e, 0x88, 0x81, 0x54,
  0x74, 0x3e, 0x58, 0x8b, 0x79, 0x91, 0x84, 0x37, 0x82, 0x37, 0x66, 0x9a,
  0x67, 0x90, 0x76, 0x60, 0xa8, 0x30, 0x53, 0xb3, 0x44, 0x7b, 0x84, 0x4b,
  0xa1, 0x39, 0x4c, 0x99, 0x56, 0x8a, 0xae, 0x52, 0x80, 0x32, 0x60, 0x85,
  0x3e, 0xb1, 0x75, 0x57, 0xa4, 0x5e, 0x86, 0x9c, 0x56, 0x7d, 0x98, 0x3f,
  0x8f, 0x38, 0x52, 0x88, 0x5b, 0x7f, 0x78, 0x5b, 0xb9, 0x69, 0x77, 0x83,
  0x4a, 0x6c, 0x5a, 0x6c, 0x91, 0x66, 0x5c, 0x6e, 0x52, 0x9a, 0x6a, 0x9b,
  0xad, 0x63, 0x7d, 0x6c, 0xb0, 0x90, 0x91, 0x5e, 0x94, 0x6e, 0x64, 0x58,
  0x8f, 0xa8, 0x66, 0x86, 0x78, 0x7a, 0xab, 0x7c, 0x78, 0x8e, 0x75, 0x78,
  0x9e, 0x73, 0x68, 0x69, 0x7c, 0xb7, 0x8b, 0x98, 0x98, 0x62, 0x76, 0x71,
  0x4d, 0xc7, 0x80, 0x62, 0x94, 0x6d, 0x6d, 0x8c, 0x69, 0xa7, 0x7e, 0x5d,
  0xa1, 0x72, 0x6e, 0x7d, 0x78, 0xac, 0x66, 0x5e, 0x7e, 0x63, 0x68, 0x7d,
  0x84, 0x9b, 0x8a, 0x67, 0x9a, 0x8c, 0x70, 0x93, 0xb3, 0xaa, 0x5c, 0xac,
  0x73, 0xa6, 0x74, 0x92, 0x95, 0x74, 0x6a, 0x79, 0x7b, 0x68, 0x64, 0xb5,
  0x6b, 0x57, 0x67, 0x50, 0x83, 0x63, 0x66, 0x96, 0x2f, 0x7d, 0x76, 0x3d,
  0x7c, 0x3a, 0x4a, 0xb4, 0x58, 0x5e, 0x8d, 0x6f, 0x9a, 0x30, 0x28, 0xad,
  0x47, 0x84, 0x69, 0x91, 0xa2, 0x3c, 0x51, 0xb2, 0x35, 0xb0, 0x52, 0x81,
  0x8f, 0x4f, 0x6e, 0x95, 0x65, 0x88, 0x65, 0x58, 0x73, 0x77, 0x6d, 0x7f,
  0x1a, 0xa4, 0x70, 0x55, 0xa0, 0x67, 0x6c, 0x96, 0x6b, 0x94, 0x91, 0x46,
  0x7d, 0x45, 0x5e, 0x80, 0x50, 0x6f, 0x91, 0x69, 0x86, 0x6f, 0x8f, 0x85,
  0x7a, 0x92, 0xa0, 0x83, 0x75, 0x5b, 0x7d, 0x80, 0x4f, 0x9f, 0x97, 0x68,
  0xb4, 0x70, 0x71, 0x7e, 0x7b, 0x9f, 0x81, 0x8c, 0x91, 0x9a, 0x99, 0x80,
  0x74, 0x9d, 0x95, 0x71, 0xb8, 0x64, 0xb3, 0x5d, 0x71, 0x89, 0x7f, 0x6d,
  0x72, 0x93, 0x76, 0x95, 0x4d, 0x8c, 0xa1, 0x7e, 0x7e, 0x77, 0x88, 0x64,
  0x66, 0x93, 0x63, 0x52, 0x78, 0x61, 0x64, 0x7a, 0x82, 0xa5, 0x99, 0x72,
  0x73, 0x60, 0x65, 0x7a, 0x88, 0xb7, 0x58, 0x77, 0x73, 0x6b, 0x68, 0x7b,
  0xb5, 0xa5, 0x8d, 0xad, 0x98, 0xa7, 0x86, 0x83, 0x6c, 0x8e, 0x93, 0x82,
  0xa9, 0x6d, 0x56, 0xa6, 0x57, 0x96, 0x55, 0x6b, 0x7f, 0x30, 0x75, 0x9b,
  0x61, 0x91, 0x7e, 0x58, 0x61, 0x25, 0x4e, 0x94, 0x36, 0x58, 0xa0, 0x46,
  0x78, 0x47, 0x26, 0xb8, 0x1d, 0xac, 0x48, 0x69, 0x68, 0x2f, 0x62, 0x89,
  0x51, 0x66, 0x9a, 0x79, 0x97, 0x31, 0x3d, 0xa7, 0x48, 0xb0, 0x62, 0x80,
  0x7b, 0x36, 0x48, 0x8c, 0x3c, 0x93, 0x99, 0x5c, 0xa4, 0x58, 0x48, 0x95,
  0x39, 0x7e, 0x89, 0x7d, 0xa6, 0x6f, 0x8d, 0x96, 0x61, 0xab, 0x8a, 0x81,
  0x83, 0x57, 0x9b, 0x7f, 0x94, 0x9d, 0x6d, 0x7c, 0xb2, 0x6d, 0x79, 0x64,
  0x71, 0xa3, 0x62, 0x78, 0xb9, 0x83, 0x90, 0x92, 0xb3, 0x89, 0x92, 0x6c,
  0x9d, 0x54, 0x7a, 0x70, 0x91, 0x99, 0x8f, 0x60, 0xb9, 0x63, 0xaa, 0x83,
  0x8e, 0xaf, 0xac, 0x77, 0x8f, 0x79, 0x82, 0x83, 0x57, 0xa6, 0x8c, 0x55,
  0x8f, 0x71, 0x85, 0x87, 0x6f, 0xc5, 0x86, 0x4b, 0xbb, 0x84, 0x90, 0x7c,
  0x86, 0x99, 0x8f, 0x5b, 0x97, 0x8a, 0x6e, 0x7c, 0x83, 0xba, 0x81, 0x5d,
  0xa0, 0x68, 0x89, 0x8f, 0xab, 0x9e, 0x79, 0xa6, 0x9c, 0x8e, 0x6c, 0x8a,
  0x5d, 0x93, 0x7e, 0x44, 0x95, 0x81, 0x5b, 0xaf, 0x69, 0x70, 0x5f, 0x7e,
  0x58, 0x2b, 0x6b, 0x9f, 0x3e, 0x8b, 0x5c, 0x29, 0x70, 0x3a, 0x4e, 0xa0,
  0x49, 0x64, 0x79, 0x2f, 0xa6, 0x35, 0x3a, 0xba, 0x53, 0x86, 0x66, 0x80,
  0x7b, 0x25, 0x4e, 0x96, 0x28, 0xa1, 0x7e, 0x30, 0x8d, 0x4a, 0x56, 0xa4,
  0x46, 0x92, 0x86, 0x87, 0x69, 0x77, 0x7d, 0x99, 0x36, 0x70, 0x81, 0x58,
  0x8e, 0x28, 0x7b, 0xa4, 0x2c, 0xa7, 0x7e, 0x38, 0x9b, 0x5b, 0x71, 0x92,
  0x3c, 0x6d, 0x86, 0x82, 0x84, 0x81, 0x85, 0x81, 0x95, 0x94, 0x8b, 0x8d,
  0x9d, 0x6e, 0x84, 0x6d, 0x6e, 0x9d, 0x8a, 0x55, 0x8a, 0x69, 0x85, 0x73,
  0x66, 0xa4, 0x74, 0x9c, 0x8e, 0x88, 0x8d, 0x54, 0xa1, 0xa3, 0xa4, 0x9b,
  0x68, 0x69, 0xa7, 0x70, 0x7a, 0xb4, 0x84, 0x6b, 0x8d, 0x72, 0x92, 0x85,
  0x54, 0x8c, 0x66, 0x52, 0x83, 0x71, 0x74, 0x70, 0x56, 0xc3, 0x97, 0x7f,
  0x77, 0x7a, 0x79, 0x8b, 0x5b, 0x8d, 0x8b, 0x65, 0x8c, 0x5b, 0x8c, 0x73,
  0x71, 0xc8, 0x65, 0x7a, 0x82, 0x57, 0x5e, 0x7a, 0xba, 0xa6, 0x86, 0xad,
  0x91, 0x8e, 0x67, 0x9e, 0x67, 0x5d, 0x6a, 0x89, 0x66, 0x48, 0x56, 0xa2,
  0x58, 0x7d, 0x6b, 0x42, 0x8e, 0x44, 0x89, 0x8f, 0x53, 0x70, 0x83, 0x66,
  0x75, 0x19, 0x49, 0xa9, 0x54, 0x79, 0x5a, 0x56, 0x7e, 0x4e, 0x3d, 0xd3,
  0x37, 0x9f, 0x6f, 0x6b, 0x7e, 0x45, 0x4a, 0xbf, 0x60, 0x7b, 0x7c, 0x4b,
  0x79, 0x27, 0x4c, 0xb5, 0x7c, 0xa1, 0x96, 0x58, 0x8d, 0x55, 0x3e, 0x84,
  0x40, 0x96, 0x4b, 0x83, 0x86, 0x4d, 0x7c, 0x9a, 0x2f, 0xaa, 0x8f, 0x56,
  0x7d, 0x65, 0x6b, 0x87, 0x6a, 0x8a, 0x73, 0x81, 0x89, 0x95, 0x7c, 0x85,
  0x75, 0x8a, 0x7b, 0x63, 0x76, 0x5f, 0x73, 0x62, 0x74, 0xa2, 0x6b, 0x54,
  0x94, 0x8e, 0x6a, 0x72, 0xa1, 0x92, 0x65, 0xa1, 0x93, 0x54, 0x96, 0x6a,
  0x86, 0xb6, 0x71, 0x77, 0x90, 0x7a, 0x8b, 0x8a, 0x50, 0xb3, 0x6a, 0x78,
  0x99, 0x92, 0x9f, 0x74, 0x4e, 0xb0, 0x7c, 0x45, 0x9b, 0x51, 0x8e, 0x7c,
  0x6b, 0xaa, 0x70, 0x50, 0xab, 0x78, 0xa9, 0x8a, 0x6d, 0x9b, 0x9d, 0x34,
  0x88, 0x60, 0x82, 0x62, 0x6a, 0xa2, 0x6a, 0x63, 0x8f, 0x75, 0x87, 0x78,
  0xaf, 0x9d, 0x62, 0x94, 0xa2, 0x84, 0x73, 0x90, 0x66, 0x68, 0x72, 0x88,
  0x69, 0x5d, 0x4e, 0xd4, 0x6d, 0x91, 0x3f, 0x68, 0x8b, 0x4e, 0x8f, 0x80,
  0x4b, 0x65, 0x7a, 0x36, 0x89, 0x25, 0x55, 0x92, 0x75, 0x95, 0x76, 0x5e,
  0x73, 0x25, 0x24, 0xdb, 0x65, 0x66, 0x6b, 0x9b, 0x91, 0x67, 0x2b, 0xba,
  0x46, 0x7b, 0x78, 0x64, 0x83, 0x49, 0x61, 0xa5, 0x73, 0x95, 0x5b, 0x53,
  0x7a, 0x65, 0x4c, 0xad, 0x3f, 0x8d, 0x6f, 0x39, 0x88, 0x52, 0x39, 0x8d,
  0x6f, 0x8e, 0x6b, 0x19, 0x7c, 0x38, 0x79, 0x91, 0x6d, 0x9c, 0x86, 0x8a,
  0x90, 0x60, 0x69, 0x8d, 0x7b, 0xae, 0x77, 0x86, 0xa0, 0x75, 0x68, 0x6f,
  0x72, 0xa0, 0x84, 0x61, 0x89, 0x85, 0xa3, 0x65, 0xb4, 0xc2, 0x88, 0x7a,
  0x59, 0x8a, 0x77, 0x67, 0x8e, 0xa0, 0x7e, 0x72, 0x8f, 0x85, 0x9e, 0x92,
  0x3f, 0x98, 0x6e, 0x8c, 0x85, 0x83, 0x82, 0x94, 0x6e, 0xa4, 0x94, 0x6c,
  0x91, 0x90, 0x6c, 0x75, 0x5b, 0xa0, 0x8b, 0x6c, 0xb3, 0x5e, 0x67, 0x7a,
  0x4f, 0x91, 0xa1, 0x6b, 0x9f, 0x78, 0x6d, 0x70, 0x61, 0xa6, 0x68, 0x7d,
  0x9d, 0x76, 0x7b, 0x79, 0xa1, 0x93, 0x61, 0x9e, 0xa2, 0x7c, 0x8b, 0x89,
  0x6d, 0x99, 0x88, 0x5f, 0x8f, 0x59, 0x43, 0xb7, 0x5a, 0x84, 0x46, 0x75,
  0x87, 0x2c, 0x6d, 0xbe, 0x50, 0xa1, 0x6c, 0x38, 0x50, 0x36, 0x25, 0x9d,
  0x4e, 0x9c, 0x7b, 0x29, 0x7b, 0x49, 0x40, 0xe3, 0x28, 0x78, 0x63, 0x6a,
  0x4e, 0x20, 0x3f, 0xb7, 0x47, 0x6a, 0x8c, 0x53, 0x7b, 0x4e, 0x4a, 0xa2,
  0x76, 0xa4, 0x53, 0x80, 0x7e, 0x52, 0x49, 0x9e, 0x62, 0x8b, 0x83, 0x65,
  0x85, 0x3d, 0x54, 0x7f, 0x28, 0x91, 0x65, 0x51, 0x74, 0x50, 0x75, 0x92,
  0x69, 0xac, 0x72, 0x63, 0xb6, 0x70, 0x7c, 0x84, 0x5d, 0xba, 0x68, 0x8c,
  0xa4, 0x7c, 0x62, 0x68, 0x68, 0x79, 0x7f, 0x47, 0x9c, 0x71, 0x6f, 0x8a,
  0xa7, 0x91, 0x6a, 0x6a, 0x88, 0x7b, 0x8c, 0x65, 0x94, 0x89, 0x88, 0x76,
  0xab, 0x49, 0x8b, 0x80, 0x56, 0x96, 0x9c, 0x6d, 0xac, 0x45, 0x71, 0x77,
  0x36, 0x92, 0x70, 0x42, 0x88, 0x8f, 0x7a, 0x7c, 0x78, 0x9b, 0x9b, 0x53,
  0xa8, 0x73, 0xa1, 0x85, 0x5b, 0x8a, 0x9f, 0x41, 0x70, 0x64, 0x7c, 0x86,
  0x63, 0xad, 0x69, 0x5c, 0xa8, 0x6f, 0x4c, 0x86, 0xa2, 0x8c, 0x81, 0x9e,
  0x83, 0x81, 0x66, 0x7e, 0x4f, 0x5a, 0x92, 0x84, 0x9d, 0x44, 0x1e, 0xc2,
  0x90, 0x87, 0x64, 0x64, 0x73, 0x6b, 0x5f, 0xaa, 0x4f, 0x8a, 0x70, 0x3e,
  0x69, 0x47, 0x44, 0x9b, 0x3b, 0x4d, 0x5e, 0x57, 0x72, 0x19, 0x36, 0xb7,
  0x38, 0x83, 0x73, 0x72, 0x83, 0x33, 0x50, 0xb7, 0x54, 0x8b, 0x4e, 0x79,
  0x86, 0x2f, 0x39, 0xc0, 0x5c, 0xa2, 0x49, 0x6d, 0x90, 0x70, 0x58, 0x9f,
  0x44, 0x9e, 0x90, 0x46, 0xa6, 0x43, 0x48, 0x8c, 0x41, 0xa4, 0x48, 0x37,
  0x94, 0x60, 0x42, 0xab, 0x7d, 0x8a, 0x8a, 0x72, 0x97, 0x4f, 0x6d, 0x74,
  0x6c, 0xb9, 0x99, 0x81, 0xa4, 0x66, 0x85, 0x67, 0x99, 0xae, 0x73, 0x64,
  0x7d, 0x9c, 0x9c, 0x74, 0xc1, 0x75, 0x64, 0x7f, 0x6f, 0x69, 0x96, 0x61,
  0x75, 0x8c, 0x84, 0x80, 0x80, 0x62, 0xb3, 0x8b, 0x80, 0x7a, 0xa1, 0x75,
  0x95, 0x7d, 0x9a, 0x9f, 0x2c, 0xab, 0x88, 0x8a, 0x8d, 0x54, 0x79, 0x74,
  0x3b, 0x90, 0x99, 0x77, 0xa1, 0x81, 0x85, 0x7f, 0x45, 0x80, 0x99, 0x70,
  0xa1, 0x5b, 0x6f, 0x7f, 0x46, 0xa2, 0x7f, 0x50, 0xaa, 0x61, 0x52, 0x88,
  0x98, 0xaa, 0x6d, 0x9d, 0x87, 0x64, 0x84, 0x7b, 0xa0, 0x9a, 0x67, 0x6c,
  0xaa, 0x5b, 0x4d, 0xbb, 0x77, 0x94, 0x5a, 0x6c, 0x6f, 0x67, 0x7d, 0x92,
  0x2e, 0x60, 0x77, 0x45, 0x42, 0x3b, 0x50, 0xc4, 0x3f, 0x6b, 0x95, 0x38,
  0x9b, 0x4a, 0x0d, 0xcf, 0x4a, 0xab, 0x6d, 0x84, 0x80, 0x2f, 0x1c, 0x9a,
  0x6e, 0x8b, 0x79, 0x6b, 0x9e, 0x4a, 0x4b, 0xc0, 0x7c, 0x77, 0x6c, 0x7e,
  0x6e, 0x63, 0x65, 0xab, 0x58, 0xad, 0x84, 0x76, 0xad, 0x41, 0x6c, 0x94,
  0x57, 0x88, 0x5c, 0x4d, 0x6f, 0x41, 0x5b, 0x8e, 0x7b, 0x79, 0x66, 0x48,
  0x98, 0x74, 0x57, 0x81, 0x97, 0x94, 0x99, 0x92, 0x81, 0x70, 0x84, 0x6c,
  0x6b, 0x6a, 0x72, 0x98, 0x8c, 0x66, 0x57, 0x69, 0x9c, 0x8b, 0x78, 0x6f,
  0xa4, 0x91, 0x8c, 0x64, 0xb6, 0xb0, 0x68, 0x7e, 0x7f, 0x8e, 0x7e, 0x79,
  0x62, 0xaa, 0xa8, 0x6c, 0x6a, 0x76, 0x87, 0x70, 0x3b, 0x87, 0x85, 0x51,
  0xad, 0x6b, 0x6e, 0x79, 0x54, 0x8a, 0x88, 0x69, 0x86, 0x76, 0x58, 0x83,
  0x62, 0x94, 0x79, 0x44, 0x71, 0x70, 0x91, 0x7d, 0x77, 0x87, 0x8b, 0x79,
  0x94, 0x58, 0x6b, 0x80, 0x98, 0xc4, 0x7a, 0x90, 0x7c, 0x6d, 0x63, 0x7c,
  0x84, 0x75, 0x87, 0x69, 0x81, 0x43, 0x61, 0xce, 0x72, 0x8e, 0x48, 0x6f,
  0x94, 0x44, 0x38, 0x8a, 0x43, 0x74, 0x61, 0x49, 0x5b, 0x43, 0x4c, 0x98,
  0x74, 0x77, 0x80, 0x27, 0x49, 0x38, 0x2e, 0xd5, 0x4c, 0x95, 0x5f, 0x7e,
  0x91, 0x52, 0x52, 0xd1, 0x4d, 0x6c, 0x97, 0x8a, 0x66, 0x2b, 0x57, 0xb2,
  0x5f, 0x98, 0x81, 0x62, 0x57, 0x59, 0x6e, 0x9e, 0x3a, 0x7d, 0x67, 0x6d,
  0x79, 0x77, 0x70, 0x9f, 0x1e, 0xa5, 0x90, 0x62, 0x7b, 0x70, 0x46, 0x91,
  0x4f, 0x81, 0x8b, 0x82, 0x5b, 0x61, 0x7c, 0x90, 0x82, 0x7f, 0x81, 0x94,
  0x83, 0x78, 0x5d, 0x63, 0x8c, 0x9c, 0x7b, 0x92, 0xad, 0x6d, 0x74, 0x79,
  0xa1, 0x8e, 0x68, 0xa2, 0xa1, 0x51, 0x6d, 0x64, 0xa7, 0x77, 0x8b, 0xaf,
  0xb2, 0x74, 0xc9, 0x85, 0x60, 0x8f, 0x84, 0x76, 0x8c, 0x6c, 0x85, 0x86,
  0x68, 0x67, 0x5f, 0x45, 0xae, 0x7c, 0x7f, 0x83, 0x71, 0xb0, 0x7f, 0x44,
  0x5e, 0x72, 0x8b, 0x78, 0x68, 0x6f, 0x72, 0x60, 0xa1, 0x74, 0x67, 0x75,
  0x47, 0x97, 0x7c, 0x78, 0x71, 0x5f, 0x73, 0x84, 0xa9, 0xac, 0x6f, 0x93,
  0x7a, 0x78, 0x81, 0x71, 0x79, 0x63, 0x78, 0x57, 0x7d, 0x36, 0x4a, 0xd2,
  0x6b, 0x4c, 0x7f, 0x72, 0x7e, 0x4b, 0x46, 0x93, 0x4f, 0x7a, 0x4e, 0x44,
  0x3d, 0x23, 0x54, 0xc6, 0x4d, 0x8d, 0x78, 0x42, 0x5b, 0x3d, 0x2b, 0xf4,
  0x69, 0x9c, 0x5b, 0x87, 0x5e, 0x54, 0x32, 0xe9, 0x5a, 0x93, 0x71, 0x55,
  0x44, 0x46, 0x34, 0xc8, 0x64, 0x8f, 0x7e, 0x75, 0x78, 0x4c, 0x40, 0x9b,
  0x27, 0x8f, 0x5e, 0x46, 0x63, 0x4a, 0x48, 0xa0, 0x4c, 0x8f, 0x79, 0x49,
  0x89, 0x4c, 0x42, 0xa9, 0x66, 0x97, 0x95, 0x5a, 0x60, 0x9b, 0x74, 0x91,
  0xac, 0x85, 0x43, 0x87, 0x75, 0x6b, 0x74, 0x86, 0x6a, 0x96, 0x88, 0x8a,
  0x8e, 0x79, 0x59, 0x81, 0x80, 0x77, 0x81, 0x86, 0x95, 0x8e, 0x7d, 0x82,
  0xad, 0x7c, 0xa3, 0x8c, 0x50, 0x70, 0xa1, 0x88, 0x7a, 0x89, 0x7c, 0x4b,
  0x92, 0x8b, 0xa0, 0xa0, 0x50, 0x65, 0xa1, 0x5d, 0x98, 0x94, 0x5b, 0x73,
  0x60, 0xa4, 0x88, 0x5e, 0x7c, 0x83, 0x83, 0x81, 0x7a, 0xae, 0x63, 0x52,
  0x6f, 0x53, 0x5d, 0x76, 0x3d, 0x8f, 0xa1, 0x5e, 0x79, 0x46, 0x71, 0x78,
  0x8c, 0x98, 0x76, 0x93, 0x9d, 0x7f, 0x7b, 0x90, 0x88, 0xaa, 0x9b, 0x9c,
  0xa4, 0x72, 0x6a, 0xc7, 0x80, 0x88, 0x7b, 0x65, 0x80, 0x56, 0x54, 0xb1,
  0x52, 0x8d, 0x53, 0x2c, 0x98, 0x1f, 0x47, 0xbc, 0x54, 0x8d, 0x8f, 0x62,
  0x7f, 0x36, 0x02, 0xf8, 0x35, 0x77, 0x74, 0x7f, 0x7c, 0x4d, 0x45, 0xe7,
  0x53, 0x57, 0x65, 0x8a, 0x70, 0x62, 0x39, 0xcb, 0x50, 0x94, 0x6e, 0x6c,
  0x4d, 0x4c, 0x6b, 0xa2, 0x22, 0xa4, 0x6e, 0x27, 0x7b, 0x72, 0x36, 0xa3,
  0x30, 0xa8, 0x59, 0x31, 0x50, 0x60, 0x63, 0xaa, 0x50, 0x7d, 0x73, 0x61,
  0x8f, 0x49, 0x76, 0x9c, 0x8a, 0x9d, 0x68, 0x80, 0x8c, 0x6e, 0x92, 0x7b,
  0x72, 0x8e, 0x60, 0xa2, 0x7e, 0x5c, 0x59, 0x75, 0x70, 0x60, 0x6c, 0x7a,
  0x8c, 0x7e, 0x94, 0x7c, 0x8e, 0x79, 0x71, 0x87, 0x96, 0x4d, 0xb9, 0x88,
  0x72, 0x7c, 0x98, 0x42, 0x6c, 0x39, 0x9f, 0x83, 0x32, 0x8e, 0x63, 0x54,
  0x85, 0x87, 0x89, 0x86, 0x46, 0x98, 0x5d, 0x62, 0x69, 0x52, 0x9a, 0x8e,
  0x58, 0x92, 0x74, 0x6b, 0x82, 0x68, 0x7c, 0x6f, 0x7a, 0xae, 0x9a, 0x55,
  0x85, 0x77, 0x88, 0x89, 0x93, 0x97, 0x6b, 0x9d, 0xa8, 0x76, 0x9f, 0x7a,
  0x7e, 0x5f, 0xd6, 0x7a, 0x73, 0x3f, 0x8c, 0xe0, 0x4f, 0x55, 0xc0, 0x8e,
  0x61, 0x25, 0xab, 0xb8, 0x58, 0x54, 0xd2, 0x74, 0x55, 0x1c, 0x97, 0x92,
  0x31, 0x7a, 0xd2, 0x6d, 0x77, 0x3c, 0x67, 0xcd, 0x37, 0x6b, 0xa3, 0x8f,
  0x5c, 0x4f, 0x61, 0xa6, 0x4c, 0x8c, 0x71, 0x81, 0x75, 0x4c, 0x5d, 0xc6,
  0x5c, 0x6a, 0x7b, 0x7d, 0x7f, 0x6a, 0x51, 0xaa, 0x2c, 0x69, 0x9a, 0x5f,
  0x70, 0x5e, 0x77, 0xa4, 0x2d, 0x94, 0x7d, 0x55, 0x7c, 0x4e, 0x6a, 0xaf,
  0x5d, 0xa3, 0x9c, 0x5c, 0x9b, 0x5b, 0x6f, 0x9d, 0x69, 0x61, 0x74, 0x8d,
  0x80, 0x80, 0x8e, 0x7e, 0x6e, 0x8a, 0xab, 0x95, 0x71, 0x71, 0x6b, 0x5a,
  0x58, 0x91, 0x8f, 0x80, 0x99, 0x67, 0x96, 0x85, 0x77, 0xa5, 0x82, 0xa1,
  0x95, 0x4b, 0x9d, 0x92, 0x40, 0x83, 0x8d, 0x7c, 0x93, 0x59, 0xaa, 0x81,
  0x5c, 0x59, 0x8f, 0x67, 0x7d, 0x73, 0x87, 0x88, 0x76, 0x81, 0x8b, 0x5e,
  0x61, 0x66, 0x74, 0x8a, 0x57, 0x84, 0x6b, 0x6e, 0x95, 0x5f, 0x63, 0x6f,
  0x64, 0xa1, 0x56, 0x91, 0x72, 0x54, 0x6f, 0x88, 0x81, 0x8c, 0x71, 0x8e,
  0x71, 0x7b, 0x73, 0x7e, 0x75, 0x78, 0xd6, 0x85, 0x97, 0x4c, 0x96, 0xaf,
  0x9f, 0x5f, 0x9f, 0x9f, 0x79, 0x57, 0x8b, 0x89, 0x41, 0x6c, 0x73, 0xa0,
  0x7d, 0x58, 0x99, 0x99, 0x3f, 0x49, 0xbe, 0x8b, 0x7b, 0x69, 0x72, 0x93,
  0x51, 0x57, 0x6a, 0x67, 0x92, 0x6e, 0x78, 0xa6, 0x44, 0x6d, 0x78, 0x76,
  0xa0, 0x7b, 0x7f, 0xc1, 0x40, 0x73, 0x8d, 0x65, 0x89, 0x75, 0x82, 0x9b,
  0x41, 0x7c, 0x95, 0x6e, 0x77, 0x43, 0x56, 0xac, 0x4d, 0x80, 0x8c, 0x61,
  0x5f, 0x55, 0x74, 0x6d, 0x3e, 0x6b, 0x98, 0x7d, 0x7e, 0x6a, 0x79, 0x7b,
  0x74, 0x78, 0x54, 0x67, 0x7e, 0x87, 0x8a, 0x92, 0x5d, 0x83, 0x84, 0x75,
  0xa8, 0x55, 0x4f, 0x79, 0x58, 0x6f, 0x88, 0x71, 0x7c, 0x42, 0x79, 0x63,
  0x6d, 0x6e, 0x8c, 0x86, 0xac, 0x40, 0x7c, 0x7d, 0x38, 0x82, 0x9c, 0x6b,
  0x8a, 0x63, 0xb0, 0x80, 0x4d, 0xa0, 0x77, 0x65, 0x73, 0x8f, 0x93, 0x59,
  0x39, 0x82, 0x84, 0x8b, 0x84, 0x6b, 0x61, 0x69, 0x6f, 0x6e, 0x75, 0x83,
  0x75, 0x6e, 0x8f, 0x6e, 0x58, 0x86, 0x83, 0x89, 0x64, 0x6c, 0x7f, 0x7e,
  0xa8, 0xa2, 0x91, 0x97, 0x79, 0x92, 0x79, 0x8a, 0x6a, 0x7b, 0x5d, 0x79,
  0x7b, 0x63, 0x5c, 0x6b, 0x76, 0x96, 0x77, 0x62, 0x71, 0x9f, 0x71, 0x86,
  0x7b, 0x73, 0x74, 0x47, 0x98, 0x8d, 0x72, 0x63, 0x7d, 0x8d, 0x8b, 0x85,
  0x97, 0x89, 0x6c, 0x65, 0x8d, 0x98, 0x5f, 0x63, 0x9d, 0x9f, 0x9f, 0x6a,
  0x7e, 0x89, 0x6c, 0x73, 0x8d, 0xa9, 0x63, 0x85, 0x6c, 0x8b, 0x91, 0x6a,
  0x77, 0x7a, 0x98, 0x9c, 0x64, 0x84, 0x75, 0x93, 0x7e, 0x91, 0x81, 0x77,
  0x47, 0x6c, 0x7e, 0x8c, 0x88, 0x5f, 0x7e, 0x83, 0x62, 0x88, 0x7a, 0x66,
  0x92, 0x80, 0x4a, 0xa0, 0x75, 0x74, 0x7e, 0x6f, 0x92, 0x52, 0x96, 0x5d,
  0x79, 0x89, 0x7e, 0x50, 0x90, 0x84, 0x6c, 0xa7, 0x76, 0x86, 0x5a, 0x53,
  0x8c, 0x9b, 0x6f, 0x84, 0x87, 0x8a, 0x7d, 0x69, 0x9c, 0x80, 0xad, 0xb3,
  0x79, 0x80, 0x75, 0x9c, 0x98, 0x74, 0x71, 0x6e, 0x6a, 0x8f, 0x5d, 0x87,
  0x85, 0x7a, 0x56, 0x52, 0x77, 0x7a, 0x87, 0x76, 0x78, 0x83, 0x9c, 0x8c,
  0x57, 0x79, 0x74, 0x5f, 0x97, 0x5f, 0x8b, 0xac, 0x97, 0x91, 0x6d, 0x6e,
  0x8e, 0x6c, 0x73, 0x8d, 0xc0, 0x90, 0x78, 0x92, 0x72, 0x7c, 0x57, 0x8b,
  0x76, 0x88, 0x58, 0xa3, 0x59, 0x6b, 0x7e, 0x85, 0x68, 0x65, 0x73, 0x78,
  0x76, 0x80, 0x7a, 0x8c, 0x71, 0x7a, 0x68, 0x5b, 0x87, 0x59, 0x88, 0x79,
  0x9a, 0x8b, 0x51, 0x31, 0x83, 0x76, 0x84, 0x85, 0x8b, 0x7a, 0x89, 0x6d,
  0x95, 0x97, 0x60, 0x6a, 0x8c, 0x8b, 0xa9, 0x5f, 0x63, 0x7d, 0x78, 0x9f,
  0x87, 0x80, 0x70, 0x6e, 0x6e, 0xa9, 0x70, 0x77, 0x81, 0x78, 0x73, 0x7d,
  0x7f, 0x9d, 0x94, 0x5f, 0x88, 0x78, 0x67, 0x77, 0x8c, 0x70, 0xac, 0x80,
  0x74, 0x68, 0xa2, 0x7d, 0x9c, 0x55, 0x74, 0x7a, 0x72, 0x8b, 0x76, 0x64,
  0x89, 0xae, 0x6a, 0x82, 0x81, 0x66, 0x90, 0x64, 0x69, 0x96, 0xa1, 0x77,
  0x87, 0x6f, 0x82, 0x75, 0x86, 0x5f, 0x9b, 0x8a, 0x7b, 0x92, 0x87, 0x8c,
  0x75, 0x6e, 0x86, 0x87, 0x7c, 0x64, 0x87, 0x58, 0x85, 0x77, 0x64, 0x89,
  0x86, 0x83, 0x65, 0x71, 0x8d, 0x7d, 0x74, 0x69, 0x80, 0x7e, 0x93, 0x8a,
  0x61, 0x77, 0x96, 0x81, 0x76, 0x87, 0x97, 0x93, 0x6e, 0x8d, 0x81, 0x8a,
  0x9d, 0x7d, 0x9f, 0x95, 0x6f, 0x7e, 0x6d, 0x7f, 0xd1, 0x74, 0x91, 0xa2,
  0x6a, 0x78, 0x70, 0x73, 0x88, 0x8f, 0x74, 0x67, 0x85, 0x83, 0x88, 0x9a,
  0x8d, 0x8b, 0x91, 0x5f, 0x9d, 0x8e, 0x89, 0x82, 0x83, 0x73, 0x64, 0x76,
  0x89, 0x82, 0xab, 0x6f, 0x8e, 0x74, 0x54, 0x7e, 0x89, 0x93, 0x9a, 0x77,
  0x95, 0x57, 0x5a, 0x6a, 0x76, 0x72, 0x66, 0x71, 0x83, 0x66, 0x9e, 0x66,
  0x85, 0x56, 0x7f, 0x5f, 0x73, 0x89, 0x67, 0x69, 0x85, 0x59, 0x7a, 0x64,
  0x8b, 0x69, 0x85, 0x85, 0x76, 0x6b, 0x80, 0x5d, 0x83, 0x7b, 0x73, 0x60,
  0x59, 0x74, 0xb1, 0x73, 0x9b, 0x7e, 0x6a, 0x8a, 0x90, 0x7f, 0x81, 0x85,
  0x7e, 0x77, 0x65, 0x7e, 0x97, 0x94, 0x7a, 0x72, 0x7f, 0x9b, 0x94, 0x79,
  0x96, 0x93, 0x73, 0x9d, 0x7e, 0x62, 0x7f, 0x64, 0x82, 0x7d, 0x60, 0x61,
  0x91, 0x64, 0x67, 0x60, 0x7a, 0x93, 0x75, 0x72, 0x91, 0x6e, 0x67, 0x75,
  0xaa, 0x62, 0x99, 0xa8, 0x87, 0x68, 0x80, 0x8a, 0x6b, 0x47, 0x9a, 0x7e,
  0x71, 0x44, 0x84, 0x77, 0x5c, 0x69, 0x88, 0x76, 0x7a, 0x60, 0x5a, 0x8d,
  0x89, 0x7a, 0x91, 0x6e, 0xaf, 0x6b, 0x7c, 0xa9, 0x8c, 0x86, 0x9f, 0x8c,
  0xc2, 0x79, 0x86, 0xb6, 0x9b, 0x93, 0x7b, 0x73, 0x7a, 0x9c, 0x82, 0x72,
  0x47, 0x9f, 0x91, 0x7a, 0x8e, 0x64, 0x79, 0x95, 0x9d, 0xb2, 0xa2, 0x77,
  0x9c, 0x64, 0x84, 0x79, 0x88, 0x95, 0x96, 0x8d, 0x9f, 0x81, 0x74, 0x74,
  0x69, 0x87, 0x88, 0x76, 0x91, 0x8f, 0x99, 0x85, 0xa7, 0x7b, 0x7d, 0x8c,
  0x8a, 0x76, 0x4d, 0x6f, 0xac, 0x62, 0x91, 0x7c, 0x78, 0x92, 0x87, 0x55,
  0x63, 0x60, 0x88, 0x73, 0x92, 0x5b, 0x6e, 0x81, 0x76, 0x82, 0xb5, 0x6a,
  0x91, 0x75, 0x7f, 0x76, 0x95, 0x79, 0xa0, 0x7d, 0x83, 0x78, 0xa1, 0x7c,
  0x80, 0x85, 0xa4, 0x66, 0x8c, 0x7a, 0x5d, 0x6a, 0xa3, 0x93, 0x75, 0xa5,
  0x79, 0x7e, 0x7e, 0x7c, 0x9a, 0x9e, 0x6a, 0x87, 0x7c, 0x69, 0x65, 0x67,
  0x77, 0x96, 0x91, 0x77, 0x79, 0x72, 0x85, 0x5f, 0x69, 0x72, 0x81, 0x5a,
  0x9b, 0x77, 0x7c, 0x93, 0x7a, 0x77, 0x6e, 0x83, 0x81, 0x62, 0x92, 0x8f,
  0x6b, 0x73, 0x78, 0x78, 0x76, 0x55, 0x8d, 0xab, 0x7c, 0x7e, 0x84, 0x84,
  0x68, 0x75, 0x83, 0x9f, 0x6a, 0x82, 0x8a, 0x7c, 0xa0, 0x68, 0x69, 0x87,
  0x7d, 0x85, 0x93, 0x81, 0xb7, 0x7b, 0x5e, 0x9d, 0x79, 0x9a, 0x9b, 0x6b,
  0x5a, 0x7f, 0x71, 0x79, 0x85, 0xab, 0x95, 0x48, 0x82, 0xb6, 0x4c, 0x84,
  0x68, 0xaa, 0x92, 0x6d, 0xb1, 0x76, 0x8b, 0x9f, 0x90, 0x8c, 0x86, 0x6b,
  0xb2, 0x68, 0x7b, 0x75, 0x50, 0x8c, 0x84, 0x64, 0xb2, 0x5b, 0x56, 0x58,
  0x6c, 0x93, 0x70, 0x60, 0x95, 0x74, 0x4e, 0x3d, 0x8e, 0x6b, 0x8b, 0x80,
  0x80, 0x68, 0x6b, 0x1c, 0x6b, 0x77, 0x95, 0x96, 0x88, 0x60, 0x80, 0x7c,
  0x7b, 0x6e, 0xab, 0x48, 0x8a, 0x79, 0x9c, 0x6b, 0x9f, 0x9b, 0xb0, 0x69,
  0x7b, 0x78, 0x63, 0x89, 0xa0, 0xa0, 0xae, 0x6a, 0x84, 0x50, 0x8c, 0xa1,
  0xa0, 0x86, 0x8e, 0x89, 0xa8, 0x69, 0xa8, 0x8d, 0xa5, 0x9a, 0x60, 0xab,
  0x76, 0x62, 0x81, 0x9e, 0x6a, 0x84, 0x9b, 0x8d, 0x80, 0x57, 0xa6, 0x68,
  0x9c, 0x80, 0x93, 0x87, 0xa5, 0x75, 0x9e, 0x88, 0x59, 0x80, 0x81, 0x74,
  0x6d, 0x62, 0x93, 0x9d, 0x82, 0x6e, 0x81, 0x6d, 0x7b, 0x56, 0x75, 0x74,
  0x86, 0x79, 0x5c, 0x86, 0x7c, 0x5d, 0x6f, 0x7c, 0x7e, 0x8f, 0x9b, 0x74,
  0x91, 0x67, 0x8b, 0x92, 0x73, 0x7b, 0x82, 0x69, 0xa9, 0x6c, 0x6d, 0xae,
  0x83, 0x8d, 0x87, 0x92, 0x83, 0x62, 0x7f, 0x6e, 0x7a, 0x62, 0x83, 0x3d,
  0x89, 0x75, 0x71, 0xa1, 0x6a, 0xa8, 0x7e, 0x5f, 0xb6, 0x7c, 0x89, 0x89,
  0x77, 0x83, 0xb6, 0x71, 0xbc, 0x79, 0x69, 0x8b, 0x65, 0x87, 0x86, 0x62,
  0xc2, 0x73, 0x72, 0x71, 0x73, 0x75, 0x76, 0x72, 0x99, 0x6b, 0x93, 0x47,
  0x9b, 0x7c, 0x7c, 0x86, 0xa9, 0x83, 0x5a, 0x46, 0x7b, 0x5d, 0x94, 0x58,
  0x85, 0x84, 0x88, 0x5e, 0xa1, 0x7d, 0xc6, 0x7a, 0x7f, 0x7f, 0x82, 0x72,
  0x65, 0x99, 0xe3, 0x76, 0x8b, 0x72, 0x96, 0x89, 0xa0, 0xb2, 0xa7, 0x60,
  0x7f, 0x5a, 0x8a, 0x93, 0x81, 0xa4, 0x86, 0x68, 0x95, 0x5a, 0x8c, 0x75,
  0x89, 0xa2, 0x88, 0x7c, 0x81, 0x3b, 0x9c, 0x74, 0xa0, 0x92, 0x5e, 0x8e,
  0x94, 0x4c, 0x6a, 0x54, 0x86, 0x80, 0x76, 0x86, 0x97, 0x59, 0x64, 0x90,
  0x88, 0x68, 0x81, 0x54, 0x7b, 0x5e, 0x60, 0x82, 0x83, 0x8f, 0x59, 0x89,
  0x8a, 0x58, 0x62, 0x9e, 0x98, 0x90, 0x72, 0x77, 0x80, 0x80, 0x54, 0x85,
  0x98, 0x7c, 0x78, 0x66, 0x81, 0x66, 0x7a, 0x7e, 0x8a, 0x5f, 0x91, 0x61,
  0xc0, 0x79, 0x84, 0xb8, 0x76, 0x8a, 0x7d, 0x7d, 0xa4, 0x99, 0x86, 0x71,
  0x7f, 0x96, 0x6a, 0x57, 0x83, 0x8d, 0x63, 0x57, 0x69, 0x7f, 0x72, 0x6e,
  0xc4, 0x7a, 0x85, 0xa5, 0xa6, 0x99, 0x9b, 0x75, 0xbc, 0x75, 0x64, 0x8e,
  0x67, 0x79, 0x89, 0x63, 0xa5, 0x62, 0x9c, 0x66, 0x6b, 0x85, 0x67, 0x85,
  0xac, 0x56, 0x7a, 0x4a, 0x8a, 0x65, 0x6c, 0x71, 0x97, 0x6f, 0x74, 0x39,
  0x6f, 0x6f, 0xc7, 0x83, 0x89, 0x88, 0x8b, 0x6e, 0x83, 0x73, 0xdb, 0xaf,
  0x9b, 0x7a, 0x72, 0x6b, 0x79, 0x95, 0xaf, 0x75, 0x90, 0x89, 0xa7, 0x93,
  0x85, 0x9d, 0x93, 0x7c, 0x9a, 0x3d, 0x6e, 0xa3, 0xa0, 0xb7, 0xaa, 0x6d,
  0xa2, 0x4c, 0x55, 0xa1, 0x76, 0xb6, 0x86, 0x85, 0x73, 0x6f, 0x66, 0x87,
  0x7f, 0x91, 0x6e, 0x75, 0x9b, 0x64, 0x94, 0x5c, 0x9c, 0x7d, 0x82, 0x87,
  0xa2, 0x42, 0x69, 0x80, 0x8f, 0x49, 0x65, 0x66, 0x9a, 0x5f, 0x60, 0x7e,
  0x55, 0x82, 0x6b, 0x56, 0x77, 0x5b, 0x5f, 0x9b, 0x5f, 0x87, 0x5d, 0x71,
  0x8b, 0x63, 0x68, 0x7d, 0x99, 0x7c, 0x53, 0x55, 0x8e, 0x3d, 0x79, 0x71,
  0x84, 0x6d, 0x67, 0x4b, 0xb5, 0x6f, 0x61, 0xab, 0x7b, 0x70, 0x7d, 0x8d,
  0x55, 0x8d, 0x8a, 0x6f, 0x56, 0x9b, 0x76, 0x62, 0x80, 0x7e, 0x55, 0x7d,
  0x94, 0x93, 0x85, 0x70, 0xc0, 0x79, 0x80, 0xbe, 0x66, 0xa1, 0xa6, 0x4d,
  0xca, 0x63, 0x63, 0x8d, 0x5d, 0x7f, 0x7a, 0x73, 0xc2, 0x78, 0x9e, 0x99,
  0x53, 0x7b, 0x77, 0x7d, 0xa9, 0x6e, 0x61, 0x61, 0x83, 0x72, 0x8a, 0x97,
  0x9d, 0x93, 0x58, 0x35, 0x73, 0x6d, 0xe2, 0xbb, 0x8c, 0x98, 0x75, 0x6d,
  0x8f, 0x88, 0xe5, 0xa4, 0x99, 0x85, 0x7e, 0x91, 0x8e, 0x92, 0xc8, 0x82,
  0x97, 0x73, 0x76, 0x89, 0x8b, 0x8c, 0xac, 0x7a, 0x8b, 0x5c, 0x6b, 0xb3,
  0x6b, 0xad, 0xa0, 0x64, 0x85, 0x69, 0x69, 0x97, 0x6a, 0x99, 0x85, 0x74,
  0x88, 0x51, 0x9b, 0x64, 0x88, 0x7e, 0x93, 0xac, 0xa8, 0x49, 0x63, 0x57,
  0x76, 0x80, 0x7e, 0x7f, 0x9f, 0x69, 0xa5, 0x91, 0x8c, 0x7a, 0x70, 0x75,
  0x9a, 0x5e, 0x5f, 0x87, 0x62, 0x98, 0x67, 0x71, 0x8f, 0x6d, 0x5d, 0x63,
  0x90, 0x7e, 0x55, 0x8d, 0x81, 0x6a, 0x62, 0x68, 0x91, 0x7f, 0x77, 0x3d,
  0x9f, 0x72, 0x7a, 0x6e, 0x8c, 0x6e, 0x8f, 0x6f, 0xbb, 0x6e, 0x75, 0x9b,
  0x83, 0x78, 0x56, 0x6f, 0x7e, 0x7e, 0x86, 0x94, 0x79, 0xb9, 0x83, 0x5f,
  0x7d, 0x86, 0x56, 0x86, 0x5d, 0x82, 0x9d, 0x79, 0xc5, 0x80, 0x9d, 0xa8,
  0x79, 0x7b, 0xa3, 0x6f, 0xf5, 0x77, 0x75, 0x7f, 0x73, 0x8b, 0x7e, 0x52,
  0xd1, 0x7a, 0x89, 0x98, 0x69, 0x74, 0x64, 0x7e, 0xcd, 0x5d, 0x6e, 0x4a,
  0x7d, 0x52, 0x8a, 0x98, 0xb1, 0x6f, 0x96, 0x65, 0x6f, 0x65, 0xcb, 0xb7,
  0x96, 0x6d, 0xa9, 0x81, 0x84, 0x86, 0xbd, 0x94, 0x9e, 0x6e, 0x77, 0x9d,
  0x7e, 0x84, 0xd6, 0x6b, 0x94, 0x72, 0x64, 0x93, 0x76, 0x95, 0xbb, 0x71,
  0x9f, 0x73, 0x8c, 0x8b, 0x6d, 0x90, 0x87, 0x6e, 0x86, 0x3d, 0xb1, 0x98,
  0x67, 0x8e, 0x76, 0x8d, 0x92, 0x47, 0x48, 0x8b, 0x6c, 0x8a, 0x72, 0x8f,
  0x87, 0x55, 0x94, 0x69, 0x86, 0x82, 0x68, 0x77, 0x9f, 0x62, 0x7d, 0x89,
  0x8e, 0x7d, 0x7a, 0x82, 0xab, 0x7a, 0x72, 0x7f, 0x6e, 0x81, 0x6d, 0x56,
  0x91, 0x73, 0x79, 0x75, 0x72, 0x93, 0x6e, 0x6f, 0x85, 0x69, 0x5e, 0x82,
  0x8a, 0x98, 0x73, 0x68, 0x84, 0x6d, 0x9d, 0x75, 0x61, 0x6c, 0x9c, 0x70,
  0xbb, 0x61, 0x91, 0xae, 0x85, 0x79, 0x9b, 0x94, 0x79, 0x94, 0x82, 0xa5,
  0x68, 0x8e, 0x85, 0x6c, 0x90, 0x79, 0x40, 0xc8, 0x6a, 0x6e, 0x80, 0x81,
  0xb5, 0x61, 0x92, 0xa2, 0x68, 0x83, 0xbb, 0x55, 0xeb, 0x94, 0x77, 0xa9,
  0x69, 0x93, 0x87, 0x5a, 0xcf, 0x64, 0x77, 0x98, 0x70, 0x69, 0x59, 0x50,
  0xc3, 0x8e, 0x78, 0x7a, 0x59, 0x71, 0x75, 0x8b, 0xa8, 0x98, 0x80, 0x8b,
  0x8a, 0x5b, 0xc5, 0xc0, 0x88, 0x78, 0x7d, 0x90, 0x7a, 0x63, 0xd8, 0xb4,
  0x8d, 0x89, 0x98, 0xa6, 0x4e, 0x7a, 0xd0, 0xa0, 0x91, 0x7b, 0x67, 0x8b,
  0x84, 0x81, 0xb9, 0x57, 0x9e, 0x60, 0x64, 0xa3, 0x58, 0x96, 0x8b, 0x77,
  0xa2, 0x59, 0x87, 0x8a, 0x81, 0x88, 0x7f, 0x8b, 0xa0, 0x6a, 0x72, 0x6c,
  0x4f, 0x91, 0x98, 0x82, 0x7c, 0x51, 0x89, 0x52, 0x62, 0x74, 0x85, 0xa4,
  0x81, 0x58, 0x52, 0x6d, 0x8c, 0x80, 0x9a, 0x75, 0x8c, 0x6b, 0x88, 0x8d,
  0x98, 0x84, 0xb0, 0x5f, 0x93, 0x58, 0x7d, 0x89, 0x7d, 0x94, 0x7a, 0x69,
  0x70, 0x7b, 0x40, 0x95, 0x6a, 0x74, 0x83, 0x54, 0x83, 0x42, 0x61, 0x66,
  0x7e, 0x7c, 0x7f, 0xa2, 0xb0, 0x75, 0x60, 0xa2, 0x87, 0x6b, 0x61, 0x90,
  0x72, 0x76, 0x8d, 0x78, 0x63, 0x84, 0x72, 0x55, 0x78, 0x78, 0x70, 0xae,
  0x93, 0x83, 0x6b, 0x8b, 0xcc, 0x85, 0x60, 0xa1, 0x6c, 0x6a, 0xaa, 0x4f,
  0xb8, 0x7c, 0x5b, 0xa8, 0x58, 0xa1, 0x73, 0x59, 0xd6, 0x76, 0xaf, 0x74,
  0x56, 0x8d, 0x82, 0x6c, 0xc6, 0x7a, 0x69, 0x71, 0x6a, 0x81, 0x8e, 0x8a,
  0xa7, 0x8a, 0x64, 0x82, 0x7a, 0x6c, 0xb6, 0xa1, 0x9c, 0x8f, 0x85, 0x93,
  0x67, 0x6d, 0xcc, 0xb2, 0x9d, 0x74, 0x5b, 0xb6, 0x4b, 0x82, 0xd6, 0x83,
  0xa3, 0xa2, 0x83, 0x91, 0x59, 0x83, 0xa6, 0x64, 0x9c, 0x75, 0x76, 0x94,
  0x67, 0xa0, 0x8d, 0x63, 0xc0, 0x5b, 0x5c, 0x85, 0x5d, 0x8c, 0x88, 0xa2,
  0x96, 0x6b, 0x8a, 0x81, 0x84, 0x96, 0x7f, 0x8d, 0x6f, 0x68, 0x81, 0x77,
  0x7c, 0x79, 0x87, 0x67, 0x79, 0x64, 0x70, 0x72, 0xa9, 0x7d, 0xa8, 0x7d,
  0x9c, 0x4e, 0x9d, 0x8e, 0x81, 0x8b, 0xa8, 0x59, 0x91, 0x71, 0x5e, 0x99,
  0x87, 0x92, 0x8c, 0x9e, 0x80, 0x6e, 0x66, 0x7f, 0x8b, 0x9b, 0x7e, 0x6f,
  0x8a, 0x69, 0x8d, 0x88, 0x7c, 0x7f, 0x85, 0x9c, 0xae, 0x64, 0x5a, 0xb2,
  0x78, 0x64, 0xae, 0x89, 0x6d, 0x7c, 0x5c, 0x70, 0x5b, 0x91, 0x87, 0x6b,
  0xa4, 0x70, 0x7e, 0xb0, 0x84, 0x7e, 0x8a, 0x76, 0xac, 0x72, 0x98, 0xb1,
  0x73, 0x86, 0xa0, 0x55, 0xe4, 0x61, 0x82, 0x9c, 0x68, 0x95, 0x92, 0x48,
  0xcf, 0x78, 0x8f, 0x96, 0x73, 0x9d, 0x64, 0x78, 0xbd, 0x9b, 0x6d, 0x7f,
  0x5e, 0x65, 0x73, 0x6f, 0x99, 0x83, 0x7c, 0x64, 0x74, 0x53, 0xbd, 0xb4,
  0xa7, 0x92, 0x6d, 0xaf, 0x89, 0x70, 0xd0, 0xab, 0x8f, 0x77, 0x82, 0xb7,
  0x7a, 0x84, 0xc6, 0x8e, 0x9b, 0x5a, 0x90, 0x9d, 0x64, 0x8e, 0xbe, 0x62,
  0xa6, 0x5f, 0xa2, 0x9e, 0x5a, 0x80, 0x96, 0x83, 0xb2, 0x6a, 0x8a, 0x74,
  0x68, 0xa8, 0x75, 0x6f, 0x73, 0x53, 0x76, 0x8f, 0x74, 0x86, 0x82, 0x90,
  0x72, 0x62, 0x8c, 0x5f, 0x77, 0x79, 0xa7, 0x7d, 0x92, 0x75, 0x73, 0x79,
  0x8c, 0x99, 0xa7, 0x79, 0x70, 0x70, 0x75, 0x93, 0x7d, 0x7d, 0xb3, 0x7f,
  0x95, 0x6c, 0x90, 0xa2, 0x89, 0x8a, 0x9b, 0x81, 0x85, 0x8a, 0x7c, 0x99,
  0x65, 0x8a, 0x85, 0x80, 0x85, 0x6e, 0x94, 0x85, 0x8d, 0x6c, 0xa4, 0x96,
  0xaf, 0x6b, 0x73, 0xa3, 0x77, 0x82, 0x7d, 0x90, 0xa0, 0x7c, 0x87, 0x5a,
  0x74, 0x70, 0x8e, 0x6e, 0xa4, 0x6b, 0x7f, 0xbb, 0x68, 0x6d, 0x7a, 0x80,
  0xc1, 0x5e, 0x89, 0xa4, 0x50, 0x6e, 0xb8, 0x73, 0xd5, 0x64, 0x8a, 0xb9,
  0x53, 0x77, 0x96, 0x5f, 0xdc, 0x84, 0x91, 0xa1, 0x6b, 0x7c, 0x61, 0x70,
  0xbf, 0x65, 0x58, 0x80, 0x5f, 0x78, 0x84, 0x72, 0xbb, 0x8f, 0x82, 0x75,
  0x7c, 0x76, 0xa9, 0x99, 0x9a, 0x9e, 0x7f, 0xa5, 0x8a, 0x60, 0xbe, 0xaa,
  0xae, 0x6e, 0x9f, 0xa7, 0x59, 0x85, 0xd3, 0x80, 0xa8, 0x83, 0x93, 0x8c,
  0x66, 0x70, 0xc2, 0x7c, 0x98, 0x78, 0x83, 0xab, 0x62, 0x86, 0x84, 0x94,
  0x8e, 0x6c, 0x9e, 0x69, 0x6a, 0x90, 0x8e, 0x8f, 0x7a, 0x72, 0x75, 0x91,
  0x77, 0x74, 0x87, 0x97, 0x8d, 0x5e, 0x8b, 0x4e, 0x92, 0x94, 0xb9, 0x6a,
  0x79, 0x58, 0x8a, 0x7b, 0x83, 0x92, 0xa4, 0x89, 0x78, 0x58, 0x70, 0x90,
  0x84, 0xa8, 0xb6, 0x6b, 0xa7, 0x6e, 0x84, 0xa8, 0x80, 0x8d, 0x92, 0x79,
  0x7c, 0x67, 0x69, 0x88, 0x68, 0x94, 0x90, 0x78, 0xad, 0x7a, 0x58, 0x64,
  0x9a, 0x8d, 0x83, 0x7c, 0xb8, 0x67, 0x72, 0x9e, 0x81, 0x70, 0x8a, 0x7f,
  0xa7, 0x59, 0x8d, 0x6a, 0x9d, 0x7f, 0x89, 0x57, 0xb8, 0x7d, 0x68, 0xc0,
  0x92, 0x90, 0x68, 0x7c, 0x97, 0x7c, 0x82, 0xb7, 0x78, 0x7e, 0xba, 0x66,
  0xb2, 0x76, 0xa7, 0xa6, 0x5d, 0x85, 0x99, 0x5b, 0xd1, 0x73, 0x82, 0xbd,
  0x78, 0x96, 0x71, 0x62, 0xb8, 0x8e, 0x63, 0x7c, 0x6c, 0x75, 0x79, 0x6c,
  0xa3, 0x8b, 0x70, 0x74, 0x46, 0x5e, 0xa5, 0xa7, 0xa3, 0xa7, 0x69, 0xaa,
  0x8a, 0x6d, 0xdd, 0xae, 0x9b, 0x8d, 0x90, 0xb9, 0x6a, 0x87, 0xc9, 0x9a,
  0x9e, 0x7d, 0x77, 0x81, 0x60, 0x75, 0xb4, 0x79, 0xaa, 0x77, 0x85, 0x8e,
  0x68, 0x86, 0x8f, 0x6f, 0x91, 0x59, 0x99, 0x4c, 0x4f, 0x87, 0x8f, 0x99,
  0x85, 0x66, 0x42, 0x7a, 0x72, 0x8b, 0x94, 0x87, 0x82, 0x5b, 0xa5, 0x64,
  0x96, 0x9e, 0xb3, 0x81, 0x70, 0x71, 0x9f, 0x9a, 0x88, 0x73, 0xcb, 0x75,
  0x90, 0x74, 0x9a, 0x75, 0x93, 0x81, 0xa5, 0x86, 0x93, 0x6f, 0x6c, 0x8b,
  0x74, 0x8d, 0x93, 0x8b, 0x87, 0x6d, 0x8a, 0xa2, 0x8e, 0x9c, 0x81, 0x83,
  0x95, 0x66, 0x81, 0x79, 0x74, 0x8b, 0x78, 0x95, 0x9b, 0x63, 0x69, 0xaa,
  0x7f, 0x88, 0x8c, 0x89, 0x69, 0x57, 0x88, 0x5c, 0x83, 0x88, 0x7d, 0x5d,
  0xa3, 0x79, 0x86, 0xb4, 0x67, 0x82, 0x8c, 0x80, 0x99, 0x59, 0xa3, 0x9a,
  0x43, 0x76, 0xb9, 0x5a, 0xb1, 0x6f, 0x78, 0xab, 0x68, 0x6c, 0x8e, 0x5d,
  0xde, 0x87, 0x7c, 0xbb, 0x64, 0xa2, 0x75, 0x57, 0xaa, 0x79, 0x8b, 0x69,
  0x74, 0x7e, 0x79, 0x6d, 0xac, 0x94, 0x8b, 0x66, 0x6a, 0x75, 0x9a, 0xa4,
  0xaa, 0xb7, 0x9d, 0xad, 0x72, 0x6c, 0xc8, 0xb5, 0x8a, 0x6d, 0x7f, 0x98,
  0x87, 0x7f, 0xc6, 0x8d, 0x96, 0x7c, 0x63, 0x99, 0x5d, 0x8a, 0xc6, 0x70,
  0xb5, 0x56, 0x9f, 0xa6, 0x48, 0x89, 0x9c, 0x74, 0xa2, 0x63, 0x9c, 0x6c,
  0x51, 0x92, 0x96, 0x8d, 0x86, 0x61, 0x63, 0x6b, 0x5a, 0x6b, 0x8a, 0x71,
  0x89, 0x73, 0x74, 0x73, 0x7a, 0x7e, 0xae, 0x74, 0x89, 0x68, 0x78, 0x67,
  0x6f, 0x87, 0x9e, 0x6b, 0x8d, 0x5f, 0x93, 0x91, 0x96, 0x94, 0xbe, 0x7d,
  0x7e, 0x6d, 0xa5, 0xa4, 0x5b, 0x94, 0xab, 0x9a, 0x7f, 0x81, 0x86, 0x79,
  0x87, 0x89, 0x90, 0x76, 0x95, 0x64, 0x8c, 0x8e, 0x84, 0x90, 0x73, 0x81,
  0xa4, 0x92, 0x8b, 0xa4, 0x84, 0x83, 0x76, 0x93, 0x85, 0x48, 0x74, 0x8c,
  0x7b, 0x6a, 0x96, 0x5f, 0x91, 0x87, 0x86, 0xad, 0x53, 0x89, 0x76, 0x6e,
  0xb3, 0x64, 0x81, 0xab, 0x57, 0x7d, 0xb5, 0x5b, 0xc2, 0x84, 0x9b, 0xb7,
  0x66, 0x81, 0x94, 0x60, 0xd2, 0x80, 0xa1, 0xc9, 0x56, 0x7f, 0x64, 0x5b,
  0xc8, 0x94, 0x86, 0x71, 0x6f, 0x78, 0x7f, 0x77, 0x9e, 0x8a, 0x92, 0x7b,
  0x56, 0x80, 0x9b, 0x99, 0xa3, 0xa1, 0x7b, 0x9d, 0x6a, 0x7b, 0xd7, 0xb4,
  0x97, 0x92, 0x65, 0xa0, 0x81, 0x75, 0xc2, 0x81, 0x88, 0x5c, 0x81, 0x91,
  0x68, 0x88, 0xa0, 0x7d, 0xae, 0x6f, 0x99, 0x7d, 0x6d, 0xa0, 0x8c, 0x5b,
  0xab, 0x73, 0xa9, 0x6c, 0x31, 0x8b, 0x90, 0x6c, 0x7b, 0x75, 0x47, 0x62,
  0x6e, 0x82, 0xa7, 0x8b, 0x78, 0x77, 0xa5, 0x66, 0x74, 0xa0, 0x9c, 0x8b,
  0x78, 0x57, 0x65, 0x7a, 0x9d, 0x7c, 0xc1, 0x67, 0xa5, 0x73, 0x89, 0x8f,
  0x85, 0x80, 0xbe, 0x79, 0x8d, 0x85, 0x8e, 0x8e, 0x79, 0xa0, 0xa5, 0x96,
  0x92, 0x79, 0x7f, 0x78, 0x4b, 0x75, 0x93, 0x6d, 0x96, 0x68, 0x70, 0x60,
  0x8c, 0x85, 0x80, 0x7e, 0xa6, 0x72, 0x76, 0x99, 0x77, 0x8a, 0x8b, 0x94,
  0x85, 0x5f, 0x6c, 0x70, 0x8f, 0x6f, 0x91, 0x75, 0xa4, 0x7c, 0x86, 0xa1,
  0x53, 0x93, 0x81, 0x63, 0x98, 0x77, 0x7b, 0xa3, 0x7b, 0x7b, 0xbe, 0x6a,
  0xb7, 0x83, 0xa9, 0xca, 0x8f, 0x94, 0x85, 0x6c, 0xde, 0x8e, 0xa0, 0xcb,
  0x5f, 0x9a, 0x80, 0x73, 0xaf, 0x8b, 0x7d, 0x76, 0x5f, 0x85, 0x82, 0x64,
  0x94, 0xa0, 0x7b, 0x88, 0x6c, 0x78, 0xc0, 0xc8, 0xb6, 0xa3, 0x81, 0x9d,
  0x70, 0x7c, 0xab, 0xa7, 0xa3, 0xa0, 0x76, 0x9c, 0x4f, 0x89, 0xc2, 0x7d,
  0xa4, 0x68, 0x66, 0x91, 0x54, 0x9a, 0xb6, 0x87, 0xb4, 0x57, 0xab, 0x88,
  0x45, 0x96, 0x9a, 0x7c, 0x90, 0x55, 0xa1, 0x63, 0x40, 0x7d, 0x8a, 0x7f,
  0x73, 0x5d, 0x65, 0x71, 0x6b, 0x86, 0x7c, 0x81, 0x58, 0x7e, 0xaa, 0x56,
  0x67, 0x98, 0xa4, 0x85, 0x79, 0x76, 0x77, 0x67, 0x76, 0x8b, 0xc0, 0x88,
  0x97, 0x6d, 0xa9, 0x96, 0x8e, 0x80, 0xaf, 0x8a, 0x8f, 0x67, 0x6d, 0xa6,
  0x80, 0x8a, 0x8d, 0x83, 0x9c, 0x76, 0x9f, 0x8c, 0x6e, 0x7b, 0x8e, 0x7f,
  0x7f, 0x44, 0x7a, 0x5f, 0x6a, 0x84, 0x89, 0x85, 0x91, 0x7f, 0x81, 0x95,
  0x88, 0x88, 0x70, 0x8a, 0x63, 0x7e, 0x7a, 0x9b, 0x7d, 0x70, 0x7a, 0x67,
  0xa2, 0x5c, 0x6e, 0x8f, 0x77, 0x8a, 0x86, 0x8c, 0xb3, 0x6a, 0x77, 0xa1,
  0x70, 0x78, 0xba, 0x6b, 0xc3, 0x78, 0xb5, 0xab, 0x58, 0x75, 0xa0, 0x7c,
  0xc0, 0x7e, 0x91, 0xb8, 0x4a, 0x78, 0x72, 0x58, 0x99, 0x88, 0x85, 0x62,
  0x4c, 0x88, 0x6b, 0x61, 0x99, 0x83, 0x5b, 0x84, 0x68, 0x7a, 0xa8, 0xcc,
  0x9d, 0xb4, 0x79, 0xa9, 0x65, 0x7d, 0xd9, 0xa8, 0x84, 0xa2, 0xa0, 0x9f,
  0x8e, 0x78, 0xcd, 0x8b, 0x82, 0x79, 0x91, 0x83, 0x48, 0x76, 0xc4, 0x81,
  0xbc, 0x5e, 0xa5, 0x70, 0x6b, 0x88, 0x90, 0x67, 0x93, 0x67, 0xa2, 0x77,
  0x56, 0x89, 0x7c, 0x87, 0x74, 0x60, 0x60, 0x81, 0x58, 0x87, 0xaa, 0x7f,
  0x75, 0x91, 0x97, 0x77, 0x71, 0x86, 0x84, 0x6d, 0x91, 0x76, 0x82, 0x7e,
  0x8f, 0x6f, 0xb0, 0x6f, 0x98, 0x83, 0x90, 0x73, 0x86, 0x89, 0xc4, 0x85,
  0x99, 0x57, 0x94, 0x94, 0x75, 0x8f, 0x8c, 0x8d, 0x94, 0x7e, 0x7c, 0x72,
  0x5f, 0x6d, 0x85, 0x91, 0x90, 0x6b, 0x48, 0x6f, 0x67, 0x95, 0x6f, 0x8b,
  0x96, 0x5c, 0x91, 0x96, 0x7d, 0x94, 0x7d, 0x86, 0x7b, 0x5d, 0x8d, 0x75,
  0x55, 0x77, 0x73, 0x57, 0x92, 0x6a, 0x8f, 0x7f, 0x57, 0x6f, 0x78, 0x7f,
  0xc0, 0x5b, 0x88, 0xae, 0x56, 0x77, 0xc6, 0x5a, 0xb4, 0x97, 0x92, 0xb4,
  0x77, 0x79, 0xa5, 0x4f, 0xb2, 0x7d, 0xa3, 0xc8, 0x68, 0x8a, 0x86, 0x63,
  0xa4, 0x87, 0x97, 0x86, 0x75, 0x77, 0x9a, 0x7d, 0x99, 0x8f, 0x76, 0x7a,
  0x63, 0x7c, 0xa5, 0xdd, 0xa1, 0xa2, 0x8e, 0xc0, 0x8a, 0x78, 0xd9, 0xbc,
  0x94, 0xa0, 0x74, 0x95, 0x4b, 0x7d, 0xbb, 0xa0, 0x82, 0x8a, 0x93, 0x93,
  0x49, 0x75, 0xad, 0x5b, 0xb2, 0x77, 0xaf, 0x8e, 0x62, 0x86, 0x9b, 0x5a,
  0x91, 0x4c, 0xa3, 0x67, 0x3f, 0x75, 0x8a, 0x83, 0x8d, 0x70, 0x43, 0x6b,
  0x43, 0x72, 0x95, 0x7f, 0x8f, 0x75, 0x96, 0x5b, 0x72, 0x95, 0x9a, 0x74,
  0x74, 0x7f, 0x5b, 0x61, 0x58, 0x6a, 0xa6, 0x91, 0x8b, 0x92, 0x81, 0x9d,
  0x7f, 0x67, 0x93, 0x82, 0x82, 0x7c, 0x76, 0x8b, 0x55, 0x83, 0xa1, 0x85,
  0x6a, 0x6b, 0x85, 0x71, 0x49, 0x8d, 0x82, 0x84, 0x90, 0x72, 0x5c, 0x67,
  0x9e, 0x8b, 0x81, 0x8b, 0x92, 0x5d, 0x9f, 0x9a, 0x71, 0x82, 0x80, 0x79,
  0x75, 0x6a, 0x89, 0x86, 0x79, 0x58, 0x83, 0x53, 0x8e, 0x73, 0x6d, 0x85,
  0x9b, 0x78, 0x73, 0x5e, 0xbc, 0x74, 0x9b, 0x92, 0x63, 0x85, 0xc5, 0x61,
  0xc1, 0x79, 0x73, 0xb5, 0x82, 0x96, 0xa5, 0x5b, 0xae, 0x7f, 0xa7, 0xdd,
  0x50, 0x7f, 0x7e, 0x40, 0xb6, 0x82, 0x87, 0x99, 0x5d, 0x9f, 0xa9, 0x6c,
  0x8f, 0x83, 0x59, 0x86, 0x78, 0x72, 0xab, 0xe4, 0x87, 0xad, 0x85, 0xb0,
  0x90, 0x5d, 0xe0, 0xab, 0x94, 0x76, 0x91, 0x98, 0x4b, 0x70, 0xcc, 0x9a,
  0x7f, 0x79, 0x57, 0x84, 0x35, 0x8f, 0xbf, 0x67, 0x98, 0x6f, 0x8f, 0x88,
  0x65, 0x8d, 0x8f, 0x6c, 0x97, 0x52, 0x9e, 0x6e, 0x6c, 0x82, 0x7f, 0x7a,
  0x8c, 0x72, 0x67, 0x8e, 0x69, 0x68, 0x90, 0x72, 0x8d, 0x68, 0x7f, 0x50,
  0x56, 0x6f, 0x81, 0x54, 0x7c, 0x6e, 0x8f, 0x68, 0x77, 0x85, 0xa2, 0x74,
  0x83, 0x7b, 0x89, 0x79, 0x78, 0x8b, 0x98, 0x7e, 0x75, 0x65, 0xa1, 0xb4,
  0x72, 0xac, 0x83, 0x8e, 0x79, 0x7c, 0x89, 0x80, 0x79, 0x82, 0x8b, 0x85,
  0xaa, 0x7c, 0x6b, 0x84, 0x74, 0x8c, 0x96, 0x7f, 0x9d, 0x59, 0x71, 0x8c,
  0x6b, 0x8e, 0x68, 0x8d, 0x9b, 0x76, 0x8e, 0x93, 0x83, 0x94, 0x8e, 0x71,
  0x6c, 0x52, 0x95, 0x9f, 0x91, 0x53, 0x6a, 0x4d, 0xb5, 0x67, 0x9d, 0x9a,
  0x72, 0x88, 0xc8, 0x44, 0xb5, 0x6a, 0x83, 0xbb, 0x73, 0x97, 0xb6, 0x50,
  0xb2, 0x8d, 0x90, 0xe3, 0x8e, 0x96, 0x94, 0x63, 0x8d, 0x74, 0x97, 0x87,
  0x76, 0x89, 0x84, 0x76, 0x7e, 0x96, 0xa1, 0x7a, 0x5c, 0x64, 0x99, 0xc1,
  0xaa, 0x9f, 0x7a, 0x95, 0x90, 0x77, 0xe2, 0xbf, 0x9c, 0x88, 0x86, 0x85,
  0x92, 0x76, 0xdb, 0xa2, 0x67, 0x6a, 0x86, 0xab, 0x6e, 0x83, 0xba, 0x75,
  0xa2, 0x49, 0xa9, 0x80, 0x5a, 0x8a, 0xb7, 0x6e, 0xab, 0x5d, 0x7d, 0x69,
  0x43, 0x82, 0x80, 0x8e, 0x87, 0x70, 0x6e, 0x85, 0x3c, 0x68, 0x9e, 0x66,
  0x9e, 0x6e, 0x9a, 0x51, 0x70, 0x8f, 0xb0, 0x72, 0x9f, 0x7b, 0x79, 0x80,
  0x8c, 0x69, 0xa7, 0x7e, 0x8b, 0x73, 0x85, 0xa1, 0x41, 0x83, 0xaa, 0x8b,
  0xab, 0x89, 0x8a, 0x74, 0x83, 0x8b, 0x86, 0x7f, 0x94, 0x56, 0x6d, 0x5c,
  0x54, 0x8d, 0x7a, 0x83, 0x84, 0x7c, 0x7c, 0x78, 0x60, 0x97, 0x8a, 0x91,
  0xa1, 0x79, 0x87, 0x95, 0x72, 0x9d, 0x67, 0x77, 0x72, 0x6c, 0x76, 0x5b,
  0x7f, 0x6c, 0x8c, 0x52, 0x5e, 0x6b, 0x7b, 0x8e, 0x6a, 0x7d, 0x7a, 0x3e,
  0xc8, 0x70, 0xb7, 0x97, 0x81, 0x74, 0xcc, 0x5d, 0xd2, 0x59, 0x94, 0xb0,
  0x8d, 0xa5, 0xa7, 0x73, 0xab, 0x6d, 0x7d, 0xbb, 0x65, 0x87, 0x95, 0x54,
  0x9c, 0x74, 0xad, 0xa2, 0x7f, 0x6f, 0x7d, 0x7b, 0x7c, 0xa1, 0x97, 0x65,
  0x72, 0x80, 0xa1, 0xad, 0x99, 0x79, 0xa4, 0x94, 0x84, 0x63, 0xbc, 0xb3,
  0x8a, 0x95, 0x6c, 0x88, 0x88, 0x6b, 0xb3, 0xa3, 0x8e, 0x77, 0x69, 0xbc,
  0x78, 0x7f, 0xa8, 0x7f, 0xa5, 0x60, 0x8e, 0x99, 0x8e, 0x70, 0x9e, 0x6a,
  0x91, 0x4f, 0xad, 0x77, 0x48, 0x7e, 0x91, 0x8b, 0x98, 0x6b, 0x79, 0x98,
  0x80, 0x7c, 0x86, 0x71, 0x72, 0x76, 0x9e, 0x6f, 0x4d, 0x8b, 0xac, 0x69,
  0x92, 0x80, 0x7f, 0x74, 0x88, 0x64, 0xa3, 0x74, 0x92, 0x7a, 0x8e, 0x7a,
  0x85, 0x8d, 0x8a, 0x7b, 0x93, 0x58, 0xad, 0xb2, 0x6e, 0x84, 0xac, 0x90,
  0x9e, 0x92, 0x92, 0x8d, 0x72, 0x7f, 0x8d, 0x8c, 0x74, 0x74, 0x6a, 0x78,
  0x71, 0x88, 0x62, 0x8a, 0x8c, 0x7e, 0x7a, 0x92, 0x6c, 0x90, 0x84, 0x97,
  0x97, 0x7a, 0x62, 0x78, 0x87, 0x7e, 0x7a, 0x3c, 0x5f, 0x58, 0x6b, 0x82,
  0x96, 0x8a, 0x70, 0x48, 0xa0, 0x77, 0x97, 0x79, 0x51, 0x97, 0xc0, 0x24,
  0xcb, 0x6e, 0x95, 0xb4, 0x76, 0xab, 0xc6, 0x51, 0xac, 0x5d, 0x8c, 0xcd,
  0x85, 0x9d, 0xad, 0x5a, 0xb7, 0x62, 0x5e, 0xaf, 0x70, 0x7c, 0xae, 0x6c,
  0x7a, 0x9e, 0x9c, 0x8d, 0x85, 0x77, 0xb6, 0xb3, 0x9c, 0x99, 0x83, 0x88,
  0x8a, 0x80, 0xc6, 0xbc, 0x80, 0x7d, 0x7a, 0x94, 0x77, 0x82, 0xc1, 0x7e,
  0x96, 0x74, 0x7e, 0xb2, 0x58, 0x99, 0xad, 0x56, 0x9b, 0x70, 0x8e, 0x8c,
  0x70, 0x90, 0x9d, 0x64, 0xa8, 0x5d, 0x89, 0x98, 0x75, 0x7c, 0x83, 0x81,
  0x83, 0x5b, 0x57, 0xa0, 0x53, 0x9b, 0xae, 0x68, 0x92, 0x70, 0x90, 0x6a,
  0x6e, 0x8a, 0xa3, 0x57, 0x9d, 0x6e, 0x86, 0x7b, 0x76, 0x91, 0xb5, 0x6a,
  0xc1, 0x74, 0x8a, 0x92, 0x6b, 0x7c, 0xa8, 0x7a, 0x87, 0x75, 0x8e, 0x96,
  0x85, 0x89, 0xcb, 0x7d, 0x7e, 0x7c, 0x8e, 0x91, 0x86, 0x91, 0x9f, 0x80,
  0x8a, 0x73, 0x6a, 0x52, 0x62, 0x6c, 0x73, 0x91, 0x8c, 0x5d, 0x6c, 0x90,
  0x4f, 0x93, 0x80, 0x7b, 0x80, 0x70, 0x63, 0x7a, 0xa4, 0xa6, 0x6b, 0x6b,
  0x80, 0x83, 0x80, 0x6d, 0x83, 0x99, 0x70, 0x24, 0x7d, 0x69, 0x6e, 0x67,
  0x78, 0x8d, 0xab, 0x3b, 0xb2, 0x72, 0x7f, 0xda, 0xab, 0x96, 0xac, 0x63,
  0x9b, 0x63, 0x87, 0xb1, 0x73, 0xa0, 0x8c, 0x6f, 0x8e, 0x6f, 0x89, 0x87,
  0xa5, 0x75, 0xa4, 0x61, 0x78, 0x8e, 0x69, 0x88, 0x7c, 0x7f, 0xb4, 0xb1,
  0x8d, 0x76, 0x6d, 0xb1, 0x86, 0x76, 0xb4, 0xa8, 0x93, 0x7b, 0x6c, 0xbc,
  0x80, 0x9a, 0x95, 0xbb, 0x92, 0x6c, 0x8a, 0xa1, 0x8d, 0x80, 0x88, 0x43,
  0x9e, 0x60, 0x5c, 0x92, 0x84, 0xa2, 0x98, 0x59, 0xb4, 0x80, 0x8d, 0x7c,
  0x9d, 0xb0, 0x99, 0x74, 0x9b, 0x5d, 0x71, 0x7b, 0x7d, 0x99, 0x9a, 0x79,
  0x88, 0x7c, 0x88, 0x72, 0xa4, 0x92, 0x83, 0x53, 0x7e, 0x5f, 0x8c, 0x6d,
  0x86, 0xaa, 0x9f, 0x67, 0x80, 0x8c, 0xa5, 0xa3, 0x81, 0x87, 0x95, 0x84,
  0x8f, 0x62, 0x94, 0x95, 0x89, 0x7d, 0xa9, 0x96, 0x7c, 0x96, 0x96, 0x89,
  0x50, 0xa9, 0x76, 0x6f, 0x83, 0x5c, 0x84, 0x6a, 0x75, 0x7c, 0x8a, 0x76,
  0x8e, 0x6c, 0x69, 0x84, 0x65, 0x9e, 0x74, 0x84, 0x80, 0x8a, 0x66, 0x81,
  0x6d, 0x77, 0x79, 0x79, 0x68, 0x75, 0x57, 0x96, 0xa2, 0x8b, 0x87, 0x44,
  0x81, 0x8f, 0x86, 0x9a, 0x86, 0x76, 0xa0, 0x3e, 0x96, 0x62, 0xa4, 0x99,
  0x97, 0x93, 0x91, 0x8b, 0x93, 0x7a, 0x73, 0x9e, 0x8d, 0x90, 0x97, 0x80,
  0x95, 0x77, 0x75, 0x97, 0x93, 0x97, 0xa1, 0x87, 0x60, 0x83, 0x8c, 0x92,
  0x77, 0x8e, 0xa0, 0x88, 0x8a, 0x80, 0x88, 0xa1, 0x66, 0x86, 0x90, 0xca,
  0xa2, 0x89, 0x86, 0x70, 0xb0, 0x8d, 0x89, 0x98, 0x98, 0x5f, 0x7b, 0xb4,
  0x85, 0x87, 0xb2, 0x81, 0x9c, 0x66, 0x86, 0x6a, 0x74, 0x8a, 0x92, 0x81,
  0x6b, 0x77, 0x69, 0x75, 0x94, 0x7b, 0x74, 0x88, 0x96, 0x8f, 0x6a, 0x75,
  0xac, 0x80, 0x8d, 0x6a, 0x63, 0x93, 0x97, 0x6d, 0xa5, 0x8c, 0x88, 0x7c,
  0x7e, 0x8e, 0x6b, 0x7e, 0x4b, 0x92, 0x9f, 0x5a, 0x96, 0x89, 0x8f, 0x9a,
  0x54, 0x86, 0xa2, 0x9e, 0x80, 0x73, 0x7e, 0x78, 0xac, 0x8f, 0x8e, 0x91,
  0x9a, 0x6e, 0x7e, 0x84, 0x5e, 0x7c, 0x96, 0x86, 0x6e, 0x6a, 0x7a, 0x89,
  0x6e, 0x78, 0x7e, 0x85, 0xa1, 0x91, 0x7c, 0x91, 0x97, 0xac, 0x95, 0xa0,
  0x56, 0x75, 0x94, 0x87, 0x9b, 0x99, 0x7d, 0x60, 0x98, 0x6d, 0x85, 0x93,
  0x67, 0x9c, 0x91, 0x78, 0x63, 0x8f, 0x7c, 0x57, 0x8d, 0x6b, 0x84, 0x74,
  0x72, 0x97, 0x95, 0x70, 0x96, 0x9e, 0x86, 0x79, 0x81, 0x9f, 0x5f, 0x8b,
  0x9f, 0xa1, 0x58, 0x8f, 0x74, 0x9d, 0x6f, 0x9f, 0x85, 0x76, 0x7b, 0x6d,
  0x86, 0xa1, 0x8a, 0x61, 0x7c, 0x95, 0x61, 0x77, 0x70, 0x88, 0x7e, 0x63,
  0x6c, 0x6c, 0x57, 0x7a, 0x44, 0x80, 0x86, 0x69, 0x7b, 0x64, 0x90, 0x6a,
  0x69, 0x88, 0xab, 0x66, 0x91, 0x6b, 0x8f, 0x7b, 0x6e, 0x86, 0x6d, 0x64,
  0x98, 0x73, 0x9a, 0x7c, 0x76, 0x99, 0xa9, 0x5e, 0x8b, 0x6d, 0x7b, 0x9a,
  0x79, 0xa2, 0x87, 0x94, 0x85, 0x96, 0x74, 0x8f, 0x75, 0x93, 0x50, 0x80,
  0x8d, 0x9d, 0x8f, 0x66, 0x7f, 0x71, 0x5d, 0x85, 0x94, 0x95, 0x58, 0x92,
  0x76, 0x7d, 0x98, 0x74, 0x72, 0x50, 0x9e, 0x74, 0x8b, 0xa1, 0x57, 0x7f,
  0x6d, 0x5e, 0x6a, 0x75, 0x6f, 0x87, 0x6e, 0x70, 0x9b, 0x51, 0x66, 0x7e,
  0x9d, 0xa0, 0x65, 0x53, 0x97, 0x5a, 0x7e, 0x6b, 0xc2, 0x98, 0x65, 0x96,
  0x6b, 0x9b, 0x86, 0x57, 0x72, 0x8b, 0x5c, 0x55, 0x82, 0x60, 0x96, 0x7d,
  0x74, 0x7c, 0xa3, 0x66, 0x80, 0x82, 0x63, 0x8a, 0x6f, 0x80, 0x8d, 0x58,
  0x73, 0x51, 0x88, 0x84, 0x9c, 0xa5, 0x65, 0x55, 0x6f, 0xa4, 0x58, 0x8a,
  0x7d, 0x7e, 0x87, 0xaa, 0x96, 0x7a, 0x62, 0x84, 0x7a, 0x72, 0x77, 0x53,
  0x6a, 0x93, 0x86, 0xad, 0x99, 0x99, 0x93, 0x82, 0x6f, 0x95, 0x8d, 0x99,
  0x8a, 0x7e, 0xa8, 0x69, 0x85, 0x81, 0x7c, 0x82, 0x88, 0x75, 0x85, 0x90,
  0x98, 0xac, 0x7b, 0x9b, 0x7d, 0x6d, 0x6a, 0x89, 0x88, 0x9d, 0x79, 0x7f,
  0x74, 0xa0, 0x75, 0x7a, 0x75, 0x91, 0x82, 0x8e, 0x8f, 0x81, 0x62, 0x88,
  0x76, 0x82, 0x7d, 0x96, 0x8b, 0x66, 0x4e, 0x50, 0x66, 0xa6, 0x91, 0x83,
  0x7b, 0x84, 0x64, 0x95, 0x65, 0x7b, 0x6d, 0x94, 0x8c, 0x86, 0x76, 0x8e,
  0x7a, 0x89, 0x72, 0x7b, 0x8f, 0x98, 0x5f, 0x7e, 0x82, 0x91, 0x7e, 0x82,
  0x8c, 0x85, 0x6c, 0x6f, 0x6d, 0x88, 0xa4, 0x91, 0x8a, 0x9d, 0x8d, 0x81,
  0x8a, 0x7c, 0x9d, 0x8e, 0x9b, 0xa4, 0x9b, 0x7b, 0x91, 0xab, 0x74, 0x91,
  0xd4, 0x97, 0x98, 0xa8, 0x76, 0x81, 0x8d, 0x75, 0x8d, 0x80, 0x88, 0xa7,
  0x64, 0x6a, 0x98, 0x76, 0x94, 0x7d, 0xa1, 0x66, 0x80, 0x62, 0x70, 0x5b,
  0x7c, 0x4c, 0x6d, 0x57, 0x6e, 0x7b, 0x7f, 0xa1, 0x96, 0x77, 0x72, 0x78,
  0x58, 0x89, 0x70, 0x7a, 0x87, 0x7c, 0x4e, 0x88, 0x65, 0x84, 0x80, 0x8c,
  0x79, 0x73, 0x9c, 0xa5, 0x97, 0x8f, 0x70, 0x81, 0x7e, 0x95, 0x83, 0x81,
  0x7e, 0x85, 0x94, 0x59, 0x93, 0x84, 0x8e, 0x5e, 0x5e, 0x7f, 0x8f, 0x88,
  0x9c, 0x8b, 0x8d, 0x5e, 0x6f, 0x88, 0x77, 0x7f, 0xb3, 0x9b, 0x8d, 0x8b,
  0x80, 0x64, 0x98, 0x82, 0x80, 0x73, 0xa2, 0x6d, 0x7a, 0x77, 0x63, 0x76,
  0x84, 0x92, 0x9a, 0x73, 0x7d, 0x83, 0x75, 0x85, 0x91, 0x85, 0x77, 0x91,
  0x63, 0x5e, 0x88, 0xa0, 0x95, 0x82, 0x8d, 0x8e, 0x82, 0x7c, 0x80, 0x69,
  0x9d, 0xa8, 0x94, 0xc3, 0x45, 0x65, 0x5d, 0x76, 0xa3, 0xac, 0x56, 0xa7,
  0x92, 0x66, 0x84, 0x83, 0x8c, 0x9a, 0x7e, 0x7c, 0x7a, 0x84, 0x7c, 0x6f,
  0x9c, 0x8e, 0x72, 0x8f, 0x9c, 0x7b, 0x72, 0x4e, 0xb0, 0x5e, 0x8a, 0xa3,
  0x96, 0x86, 0x57, 0x8d, 0xc2, 0x5f, 0x5a, 0xb8, 0x8a, 0x99, 0x4d, 0x79,
  0x4c, 0x9c, 0x8c, 0x80, 0x56, 0x52, 0x90, 0x7d, 0x78, 0x7a, 0xb1, 0x7f,
  0x8d, 0x89, 0x7e, 0x5a, 0x7b, 0x79, 0x7a, 0x5d, 0x5d, 0x67, 0x86, 0x7a,
  0x8f, 0x70, 0x72, 0x95, 0x68, 0x7d, 0x80, 0x6f, 0x6e, 0x7f, 0x80, 0xaa,
  0x87, 0x8a, 0x89, 0x65, 0x68, 0x7a, 0x56, 0x85, 0x8e, 0x94, 0xb6, 0x6f,
  0x86, 0xa7, 0x87, 0x76, 0x66, 0x96, 0x9e, 0x90, 0x91, 0x94, 0x8a, 0x53,
  0x80, 0x9b, 0x6f, 0x98, 0x9b, 0x9e, 0x5c, 0x77, 0x62, 0x8f, 0x75, 0x91,
  0x8e, 0x8c, 0x51, 0x86, 0x76, 0x77, 0x91, 0x71, 0x97, 0x98, 0x8b, 0x75,
  0x73, 0x80, 0x5c, 0x79, 0x87, 0x90, 0x65, 0x72, 0x46, 0x94, 0x77, 0x85,
  0x89, 0x82, 0x91, 0x7f, 0x89, 0x7f, 0x63, 0x51, 0x8a, 0xa4, 0x89, 0x9d,
  0x6a, 0x56, 0x43, 0x67, 0xab, 0xc7, 0x6e, 0xa0, 0x81, 0x6a, 0x61, 0x83,
  0xa6, 0x9a, 0x85, 0xa0, 0x66, 0x7e, 0x5c, 0x8e, 0x8e, 0x8d, 0x72, 0x87,
  0x61, 0x82, 0x86, 0x7c, 0x8e, 0x95, 0x83, 0x80, 0x50, 0x87, 0x79, 0x83,
  0x9d, 0x74, 0x6d, 0x80, 0x89, 0x89, 0x72, 0x7e, 0xb9, 0x76, 0xa7, 0xa1,
  0x8d, 0x9e, 0x7c, 0x67, 0x66, 0x67, 0x7a, 0x9d, 0x78, 0x9e, 0x97, 0x4f,
  0x76, 0x64, 0x95, 0x84, 0x6a, 0x87, 0x73, 0x4c, 0x61, 0x72, 0x66, 0x8a,
  0x6c, 0x60, 0x71, 0x5f, 0x72, 0x87, 0x93, 0x8c, 0x77, 0x85, 0x93, 0x8b,
  0x76, 0x77, 0x7b, 0xae, 0x5e, 0x88, 0xa8, 0x7d, 0x6e, 0x96, 0xa7, 0x9b,
  0x86, 0x9a, 0xc5, 0x7f, 0x75, 0x78, 0x95, 0x70, 0x70, 0xa4, 0x8d, 0x89,
  0x86, 0x62, 0x6e, 0x75, 0x42, 0x88, 0x99, 0x7f, 0x9f, 0xac, 0x7b, 0x74,
  0x6a, 0x84, 0x7d, 0x8e, 0x78, 0x8f, 0x88, 0x63, 0x87, 0x6e, 0x81, 0x9d,
  0x6f, 0x74, 0x84, 0x5e, 0x93, 0x7b, 0x67, 0x9c, 0x91, 0x7f, 0x52, 0x76,
  0x8a, 0x6a, 0x5b, 0x8d, 0x86, 0x80, 0x92, 0x95, 0x50, 0x82, 0x72, 0x79,
  0x81, 0xb1, 0x6e, 0xb1, 0x64, 0x87, 0x58, 0x8a, 0xa7, 0xb2, 0x6e, 0xa0,
  0x81, 0x76, 0x68, 0xbf, 0x91, 0xa1, 0x99, 0xb4, 0x81, 0x6c, 0x50, 0x9d,
  0x8c, 0x94, 0x63, 0x6c, 0x5e, 0x78, 0x73, 0x80, 0x9f, 0x87, 0x9d, 0x90,
  0x92, 0x94, 0x86, 0x96, 0x8f, 0x88, 0x86, 0x83, 0x83, 0x85, 0x87, 0x9a,
  0xae, 0x5f, 0x89, 0xb1, 0x83, 0x95, 0x76, 0x97, 0x54, 0x58, 0x74, 0x83,
  0x73, 0x91, 0x89, 0x2a, 0x92, 0x8b, 0x84, 0x49, 0x4f, 0xa1, 0x74, 0x63,
  0x68, 0x6a, 0x79, 0x70, 0x52, 0x5a, 0x84, 0x96, 0x71, 0x85, 0x70, 0x89,
  0x97, 0x73, 0x97, 0x7c, 0x6d, 0x94, 0xa2, 0xbd, 0x52, 0x6e, 0xc8, 0x9f,
  0x69, 0x98, 0x94, 0x8a, 0x54, 0xa7, 0xc4, 0x67, 0x94, 0x8f, 0x5a, 0x91,
  0x77, 0x91, 0xa3, 0x61, 0x97, 0x8f, 0x7b, 0x6b, 0x7f, 0x97, 0x90, 0x74,
  0x8b, 0x95, 0x50, 0x67, 0x68, 0x8a, 0x9f, 0x77, 0x82, 0x95, 0x6e, 0x8a,
  0x65, 0x70, 0x77, 0x6b, 0x76, 0x73, 0x84, 0x4e, 0x64, 0x87, 0x53, 0x70,
  0x75, 0x81, 0x7c, 0x92, 0x78, 0x77, 0x64, 0x40, 0x8b, 0x84, 0x65, 0x79,
  0x65, 0x7b, 0x4e, 0x6c, 0x8e, 0xa0, 0x85, 0xb5, 0x4d, 0x75, 0x47, 0x9e,
  0x9b, 0xb0, 0x56, 0xa7, 0x6b, 0x6d, 0x60, 0x86, 0x94, 0xb9, 0x6e, 0x99,
  0x4b, 0x79, 0x40, 0x80, 0x8c, 0xa6, 0x93, 0x94, 0x5e, 0x82, 0x5d, 0x8e,
  0xa6, 0xa3, 0x81, 0x8d, 0xa1, 0x7d, 0x69, 0x98, 0x7b, 0x96, 0x8d, 0x8f,
  0x8c, 0x75, 0x59, 0x7c, 0xc1, 0x8b, 0x8b, 0xb7, 0x78, 0x95, 0x90, 0x88,
  0x71, 0x9f, 0x7d, 0x81, 0x6a, 0x79, 0x7d, 0x45, 0x54, 0xb3, 0x68, 0x68,
  0x93, 0x83, 0x97, 0x7f, 0x5b, 0x87, 0x70, 0x94, 0x5f, 0x7f, 0x8e, 0x6c,
  0x64, 0x83, 0x6e, 0xb7, 0x3f, 0x80, 0xaf, 0x91, 0x48, 0x86, 0x98, 0xa9,
  0x7a, 0x8e, 0xc9, 0xa1, 0x62, 0x8d, 0x6c, 0x8d, 0x81, 0x9b, 0xc8, 0x7e,
  0x91, 0xaa, 0xac, 0x8a, 0x78, 0x95, 0xbc, 0x8d, 0xa8, 0x9e, 0x72, 0x77,
  0x92, 0x91, 0x8d, 0x70, 0xa3, 0x8c, 0x75, 0x59, 0x76, 0x78, 0x79, 0x6b,
  0x8c, 0x9f, 0x96, 0x5c, 0x4e, 0x75, 0x4d, 0x74, 0x7d, 0x69, 0x80, 0x5b,
  0x91, 0x80, 0x60, 0x7c, 0x73, 0x70, 0x6c, 0xa5, 0x57, 0x81, 0x62, 0x59,
  0x7f, 0x9e, 0x5f, 0x95, 0x75, 0x7a, 0x6b, 0x30, 0xa0, 0xa2, 0x7c, 0xc6,
  0x63, 0x66, 0x4c, 0x7e, 0xa9, 0x9e, 0x5b, 0xab, 0x8e, 0x47, 0x40, 0x7d,
  0xa5, 0xad, 0x8e, 0x95, 0x54, 0x67, 0x35, 0x83, 0x7b, 0x9b, 0x77, 0x94,
  0x7e, 0x6f, 0x57, 0x7e, 0xad, 0xa4, 0x88, 0x89, 0x91, 0x7f, 0x54, 0x7e,
  0x8c, 0x68, 0x64, 0x7b, 0x73, 0x76, 0x67, 0x79, 0xb9, 0x8a, 0x74, 0xae,
  0x63, 0x6c, 0x83, 0x98, 0x81, 0x86, 0x7e, 0x4e, 0x5a, 0x99, 0x7d, 0x5f,
  0x80, 0xa3, 0x56, 0x85, 0x71, 0xa4, 0x8c, 0x80, 0x68, 0x97, 0x8b, 0x9a,
  0x57, 0xac, 0x93, 0x62, 0x4e, 0x83, 0x71, 0x9d, 0x6d, 0x85, 0xb8, 0x8f,
  0x55, 0xaa, 0x98, 0xc8, 0x62, 0x9e, 0xc0, 0x93, 0x5a, 0x9e, 0x76, 0x8a,
  0x8b, 0xb4, 0xc8, 0x78, 0x99, 0xb2, 0x71, 0x71, 0x7a, 0xb0, 0xc2, 0x83,
  0xad, 0xa1, 0x60, 0x7b, 0x71, 0xaf, 0x6d, 0x55, 0x9e, 0x84, 0x92, 0x64,
  0x71, 0x83, 0x5d, 0x57, 0x87, 0xa1, 0x99, 0x73, 0x77, 0x67, 0x67, 0x5e,
  0x6d, 0x7b, 0x61, 0x6e, 0x71, 0x7c, 0x59, 0x68, 0x55, 0x80, 0x98, 0x9a,
  0x5d, 0x74, 0x4f, 0x4d, 0x79, 0x89, 0x86, 0x95, 0x43, 0x6d, 0x63, 0x64,
  0xa6, 0xa1, 0x55, 0xb2, 0x74, 0x60, 0x67, 0x77, 0x99, 0xb9, 0x9c, 0xb5,
  0x5a, 0x66, 0x4e, 0x8a, 0xbb, 0xb9, 0x60, 0x9e, 0x44, 0x89, 0x43, 0x95,
  0x90, 0xaf, 0x88, 0x73, 0x62, 0x64, 0x4c, 0x97, 0xaa, 0x8d, 0x87, 0x7c,
  0x83, 0x76, 0x62, 0x7f, 0xa7, 0x99, 0x80, 0x87, 0x66, 0x87, 0x6f, 0x83,
  0xba, 0x8c, 0x63, 0x97, 0x82, 0x7d, 0x6b, 0x7c, 0x9e, 0x99, 0x73, 0x6a,
  0x61, 0xa8, 0x96, 0x5c, 0x7d, 0x9d, 0x66, 0x35, 0x88, 0xac, 0xa5, 0x84,
  0x66, 0x9b, 0x60, 0xa5, 0x62, 0x92, 0x74, 0x9b, 0x60, 0xa3, 0x88, 0x81,
  0x5b, 0xae, 0x9d, 0x86, 0x42, 0xa1, 0x98, 0xc0, 0x9c, 0x97, 0xa6, 0x98,
  0x64, 0x8c, 0x70, 0x6f, 0x80, 0x97, 0xbd, 0x8a, 0xa3, 0x8f, 0x50, 0x7c,
  0x74, 0xa7, 0x97, 0x80, 0xac, 0x77, 0x7a, 0x77, 0x61, 0xa8, 0x4f, 0x4c,
  0x97, 0x7d, 0x62, 0x62, 0x55, 0x80, 0x62, 0x50, 0x9e, 0xa7, 0x80, 0x64,
  0x54, 0x7f, 0x68, 0x69, 0x87, 0xa2, 0x7c, 0x74, 0x7b, 0x67, 0x55, 0x6e,
  0x5c, 0x6e, 0x7b, 0x99, 0x67, 0x71, 0x49, 0x65, 0x8b, 0x81, 0x60, 0xa4,
  0x6d, 0x7f, 0x5a, 0x69, 0x93, 0xae, 0x6e, 0xc2, 0x5c, 0x66, 0x40, 0x6f,
  0x9d, 0xb7, 0x67, 0xc4, 0x6e, 0x79, 0x2a, 0x9b, 0xc5, 0xb7, 0x61, 0x94,
  0x71, 0x6c, 0x24, 0x79, 0xaa, 0xa5, 0x6f, 0x74, 0x5b, 0x93, 0x42, 0x86,
  0xa1, 0x93, 0x7e, 0x88, 0x5c, 0x9f, 0x41, 0xbd, 0x8f, 0x9b, 0x66, 0x8d,
  0x5b, 0x75, 0x53, 0x90, 0xb5, 0x7b, 0x66, 0xae, 0x87, 0x7b, 0x8e, 0x98,
  0x5c, 0x97, 0x73, 0x9f, 0x68, 0x91, 0x93, 0x74, 0x68, 0x9d, 0x7c, 0x51,
  0x71, 0xa3, 0xa3, 0x88, 0x5e, 0x6d, 0x72, 0x84, 0x6c, 0x9e, 0x8b, 0x9a,
  0x71, 0xab, 0x58, 0xb2, 0x6b, 0xae, 0xa3, 0xa7, 0x45, 0x9a, 0x78, 0xc1,
  0x6d, 0x86, 0xa7, 0x7c, 0x66, 0xac, 0x6c, 0x65, 0x66, 0xa9, 0xac, 0x84,
  0x9e, 0x9d, 0x98, 0x8c, 0x83, 0x9d, 0x86, 0x72, 0x9c, 0x98, 0x5f, 0x7a,
  0x5b, 0x8c, 0x62, 0x55, 0x88, 0x98, 0x78, 0x64, 0x71, 0x84, 0x49, 0x6d,
  0x82, 0xa8, 0x84, 0x62, 0x6a, 0x70, 0x55, 0x64, 0x6d, 0x80, 0x5c, 0x76,
  0x47, 0x64, 0x63, 0x91, 0x74, 0x7e, 0x54, 0xb2, 0x50, 0x54, 0x48, 0x5a,
  0x91, 0x97, 0x94, 0xa1, 0x2b, 0x72, 0x88, 0x68, 0x99, 0xa3, 0x4a, 0xb7,
  0x43, 0x55, 0x67, 0xa0, 0x8c, 0x9e, 0x8c, 0xaa, 0x54, 0x77, 0x49, 0x90,
  0x9c, 0xac, 0x6e, 0xa1, 0x5a, 0x78, 0x2e, 0x85, 0xa0, 0x98, 0x6f, 0x83,
  0x64, 0x77, 0x56, 0x71, 0x8e, 0xb4, 0x7f, 0x94, 0x4e, 0x68, 0x3e, 0x97,
  0x97, 0x79, 0x73, 0x8c, 0x4e, 0x90, 0x66, 0xae, 0xab, 0x8f, 0x73, 0x9b,
  0x70, 0x5c, 0x88, 0x94, 0x66, 0x71, 0x78, 0x8c, 0x5b, 0xa5, 0x8e, 0x5f,
  0x4c, 0xbc, 0x83, 0x63, 0x6a, 0xb7, 0x91, 0x97, 0x80, 0x9b, 0x73, 0x70,
  0x89, 0x8e, 0x89, 0xa9, 0x4b, 0x9c, 0x54, 0x9d, 0x6c, 0xb2, 0x95, 0x96,
  0x39, 0x95, 0x90, 0xb5, 0x5e, 0xbd, 0xc4, 0x83, 0x63, 0x99, 0x5a, 0x56,
  0x77, 0xb3, 0xd0, 0x83, 0x93, 0x99, 0x87, 0x6e, 0x7a, 0xbe, 0x7c, 0x4f,
  0xb1, 0x94, 0x83, 0x6b, 0x65, 0x93, 0x54, 0x5e, 0xb1, 0x78, 0x7e, 0x77,
  0x7d, 0x8b, 0x45, 0x50, 0x97, 0xa8, 0x98, 0x6f, 0x7b, 0x6e, 0x48, 0x7d,
  0x6c, 0x9c, 0x5d, 0x4c, 0x61, 0x72, 0x62, 0x80, 0x85, 0x7b, 0x4b, 0xaa,
  0x64, 0x66, 0x63, 0x77, 0x8a, 0xa0, 0x5a, 0xa7, 0x53, 0x71, 0x66, 0x76,
  0x7f, 0xb3, 0x51, 0xca, 0x4d, 0x6a, 0x56, 0x5b, 0x92, 0xa7, 0x5e, 0x9e,
  0x69, 0x63, 0x47, 0x87, 0xa5, 0x9f, 0x64, 0xa0, 0x5f, 0x69, 0x27, 0x90,
  0x97, 0xba, 0x3f, 0x98, 0x75, 0x78, 0x41, 0x9f, 0xa9, 0x9a, 0x70, 0x87,
  0x80, 0x8d, 0x44, 0x97, 0xaf, 0x94, 0x82, 0xa8, 0x77, 0x7f, 0x69, 0xa3,
  0xa8, 0x7d, 0x8f, 0xae, 0x77, 0x66, 0x6b, 0x8e, 0x53, 0x86, 0x52, 0x99,
  0x43, 0xa6, 0xa6, 0x7c, 0x5e, 0x9a, 0x8e, 0x43, 0x6c, 0xbc, 0xb9, 0x80,
  0x5a, 0xa0, 0x3d, 0x71, 0x81, 0xab, 0x78, 0xc0, 0x61, 0x89, 0x73, 0x89,
  0x63, 0xa7, 0xab, 0xa0, 0x3f, 0xa2, 0x4e, 0xa2, 0x74, 0xb3, 0xaf, 0x86,
  0x6a, 0xb7, 0x69, 0x6c, 0x8b, 0xad, 0xa6, 0x71, 0x8c, 0x97, 0x64, 0x5c,
  0x7d, 0x9f, 0x84, 0x60, 0xaa, 0x8f, 0x68, 0x7e, 0x6e, 0x98, 0x50, 0x50,
  0xa4, 0x76, 0x66, 0x79, 0x7f, 0x8e, 0x37, 0x48, 0xa0, 0x7f, 0x6d, 0x80,
  0x79, 0x6d, 0x5a, 0x7e, 0x62, 0x8e, 0x7b, 0x62, 0x6e, 0x68, 0x6d, 0x94,
  0x83, 0x89, 0x6e, 0xa2, 0x55, 0x7e, 0x4c, 0x60, 0x69, 0x88, 0x76, 0xb2,
  0x44, 0x80, 0x4e, 0x92, 0x80, 0xa2, 0x62, 0xb4, 0x41, 0x5e, 0x68, 0x82,
  0xa4, 0xb5, 0x56, 0x91, 0x3b, 0x79, 0x34, 0x84, 0x85, 0xbf, 0x75, 0xa3,
  0x3f, 0x65, 0x1e, 0xa7, 0x97, 0xa9, 0x68, 0xb0, 0x77, 0x75, 0x56, 0x86,
  0xab, 0xbb, 0x51, 0xaa, 0x45, 0x8a, 0x6b, 0x9d, 0xa0, 0x85, 0x68, 0x9e,
  0x70, 0x84, 0x8c, 0x99, 0xa1, 0x80, 0xb6, 0xa2, 0x64, 0x7c, 0x8a, 0x87,
  0x4f, 0x8d, 0x71, 0x57, 0x6f, 0x9d, 0xa5, 0x83, 0x60, 0x81, 0x95, 0x52,
  0x5d, 0xb1, 0x9f, 0x8f, 0x79, 0x87, 0x90, 0x6b, 0x5b, 0x97, 0x92, 0xc9,
  0x5a, 0x7d, 0x66, 0x8a, 0x56, 0x9c, 0xa0, 0x96, 0x3a, 0xa9, 0x7d, 0x80,
  0x8b, 0xa6, 0xa3, 0x8a, 0x52, 0x90, 0x81, 0x6d, 0x91, 0xb6, 0xb1, 0x8f,
  0xa0, 0xa4, 0x72, 0x63, 0x99, 0xc5, 0x7e, 0x4c, 0x9f, 0x94, 0x4e, 0x87,
  0x83, 0x9b, 0x47, 0x4d, 0xc7, 0x76, 0x85, 0x7e, 0x86, 0x86, 0x4b, 0x47,
  0x9d, 0x9a, 0x6d, 0x79, 0x70, 0x5f, 0x3c, 0x96, 0x56, 0x9c, 0x66, 0x73,
  0x6a, 0x6a, 0x61, 0xa3, 0x58, 0x9f, 0x92, 0xb3, 0x30, 0x6b, 0x45, 0x8a,
  0x6c, 0x97, 0x62, 0xbb, 0x5e, 0x75, 0x40, 0xa2, 0xa9, 0x93, 0x64, 0x91,
  0x5d, 0x6c, 0x6c, 0x6a, 0x92, 0x8f, 0x7c, 0xa5, 0x33, 0x77, 0x26, 0x99,
  0x86, 0xa9, 0x62, 0xa5, 0x40, 0x77, 0x0e, 0x8b, 0xa5, 0xb2, 0x4e, 0x9d,
  0x6f, 0x6e, 0x34, 0x79, 0x81, 0xaa, 0x6a, 0xa1, 0x31, 0x89, 0x64, 0x90,
  0xc0, 0xaa, 0x8e, 0x7d, 0x8c, 0xaa, 0x58, 0x90, 0xb0, 0x75, 0x85, 0xa3,
  0x85, 0x77, 0xa9, 0x7b, 0x67, 0x8c, 0x7b, 0x5b, 0x79, 0xca, 0xa9, 0x7e,
  0x53, 0xa5, 0x84, 0x5a, 0x7e, 0xcb, 0xa1, 0x8e, 0x4a, 0xa0, 0xa3, 0x70,
  0x72, 0xa1, 0x8d, 0xba, 0x2f, 0xa6, 0x66, 0x70, 0x80, 0x97, 0xa1, 0x9a,
  0x2b, 0xa0, 0x8f, 0x83, 0x82, 0xb2, 0xc0, 0x7c, 0x54, 0xa5, 0x6b, 0x4c,
  0x8b, 0xb2, 0xb3, 0x82, 0x8d, 0xa4, 0x5f, 0x6d, 0x69, 0xa5, 0x76, 0x45,
  0xb2, 0x81, 0x77, 0x79, 0x71, 0xa9, 0x63, 0x41, 0xb4, 0x85, 0x83, 0x90,
  0x87, 0x8e, 0x45, 0x5c, 0x8c, 0x8a, 0x5d, 0x61, 0x6c, 0x65, 0x38, 0x98,
  0x53, 0xab, 0x5d, 0x67, 0x8d, 0x67, 0x55, 0x8a, 0x5e, 0x88, 0x5c, 0x89,
  0x68, 0x7b, 0x49, 0x9b, 0x8e, 0x88, 0x69, 0xab, 0x2d, 0x87, 0x43, 0x81,
  0x98, 0x8a, 0x5d, 0xb5, 0x51, 0x76, 0x56, 0x7d, 0x92, 0xa9, 0x45, 0xb6,
  0x46, 0x55, 0x5a, 0x8e, 0x85, 0xb9, 0x82, 0x80, 0x59, 0x63, 0x08, 0xa9,
  0x93, 0xbf, 0x39, 0x81, 0x36, 0x76, 0x3f, 0x8f, 0xad, 0xa7, 0x4d, 0x9f,
  0x6a, 0x89, 0x66, 0x93, 0xad, 0x82, 0x90, 0x8c, 0x62, 0xa0, 0x72, 0x97,
  0x97, 0x83, 0xc7, 0x9a, 0x8d, 0x89, 0x85, 0x87, 0x58, 0x81, 0x71, 0x48,
  0x7e, 0xd4, 0x96, 0x8c, 0x68, 0xbc, 0x8a, 0x47, 0x60, 0xd4, 0xbf, 0xa0,
  0x5f, 0x97, 0x93, 0x5f, 0x84, 0xa2, 0x8b, 0xc4, 0x2a, 0xa2, 0x89, 0x68,
  0x87, 0x86, 0xa6, 0x92, 0x35, 0xa7, 0x6d, 0x70, 0x9e, 0xbf, 0xb0, 0x7b,
  0x4c, 0x8c, 0x90, 0x52, 0x94, 0xa3, 0xa7, 0x87, 0xa3, 0x97, 0x85, 0x5d,
  0x73, 0xbf, 0x6e, 0x50, 0xc1, 0x8b, 0x7c, 0x82, 0x8c, 0xa1, 0x59, 0x50,
  0xa3, 0x6c, 0x7a, 0x7c, 0x86, 0x8f, 0x52, 0x59, 0x93, 0x87, 0x45, 0x7a,
  0x6b, 0x76, 0x51, 0x91, 0x68, 0x93, 0x5e, 0x70, 0x71, 0x75, 0x71, 0x99,
  0x75, 0x86, 0x5e, 0x91, 0x55, 0x89, 0x46, 0x8e, 0x79, 0x92, 0x78, 0x8d,
  0x55, 0x6a, 0x3a, 0x70, 0x94, 0x8c, 0x89, 0xb5, 0x2f, 0x49, 0x54, 0x80,
  0xa0, 0xa0, 0x3c, 0x9d, 0x33, 0x73, 0x37, 0x97, 0x84, 0x9c, 0x77, 0xaa,
  0x51, 0x78, 0x0f, 0x94, 0x86, 0xb1, 0x90, 0xb2, 0x2b, 0x78, 0x41, 0x9d,
  0x94, 0xc8, 0x4a, 0x94, 0x69, 0x93, 0x71, 0x82, 0xa8, 0x8e, 0x86, 0x9e,
  0x68, 0x9a, 0x71, 0x81, 0x9a, 0x9d, 0xa6, 0xa0, 0x75, 0x7d, 0x84, 0x98,
  0x65, 0xa1, 0x60, 0x65, 0x8d, 0xb2, 0xb0, 0x79, 0x83, 0xa2, 0xa2, 0x64,
  0x7b, 0xc2, 0x9d, 0x83, 0x72, 0x9f, 0x74, 0x7f, 0x62, 0xb0, 0x84, 0xbd,
  0x2d, 0xa3, 0x73, 0x61, 0x7e, 0x98, 0xa3, 0xa2, 0x2b, 0x95, 0x99, 0x82,
  0x90, 0x9a, 0xa3, 0x78, 0x6f, 0xab, 0x54, 0x6b, 0x88, 0xa6, 0xb3, 0x81,
  0x90, 0x9c, 0x6b, 0x6a, 0xa7, 0xbe, 0x67, 0x3c, 0xc0, 0x81, 0x63, 0x7f,
  0x89, 0xa9, 0x70, 0x44, 0xa8, 0x8a, 0x64, 0x7d, 0x75, 0x98, 0x58, 0x49,
  0x7e, 0x76, 0x78, 0x77, 0x66, 0x76, 0x47, 0x9c, 0x67, 0xa7, 0x5a, 0x62,
  0x7f, 0x84, 0x5e, 0x8a, 0x5c, 0x92, 0x62, 0x9b, 0x51, 0x83, 0x4f, 0x82,
  0x7f, 0x95, 0x84, 0x9b, 0x5e, 0x7d, 0x4e, 0x8f, 0x71, 0x91, 0x65, 0x90,
  0x6b, 0x69, 0x4a, 0x8f, 0x93, 0x8a, 0x5d, 0xa0, 0x2d, 0x5c, 0x52, 0x83,
  0x97, 0xb3, 0x7b, 0xa9, 0x51, 0x6b, 0x1e, 0x7b, 0x7f, 0xcd, 0x7b, 0x9e,
  0x6e, 0x82, 0x42, 0xa0, 0x93, 0xaa, 0x5d, 0x8a, 0x5f, 0x7f, 0x6e, 0x74,
  0xa6, 0x90, 0x95, 0x87, 0x39, 0x96, 0x7f, 0x81, 0x91, 0x83, 0x96, 0x92,
  0x5d, 0x8a, 0x90, 0x91, 0x6b, 0x91, 0x5f, 0x55, 0x9d, 0xaf, 0xab, 0x9b,
  0x84, 0x9f, 0x9d, 0x7c, 0x70, 0xd3, 0xab, 0x85, 0x3b, 0xa9, 0x90, 0x71,
  0x87, 0xa4, 0x8d, 0xb0, 0x2c, 0x9b, 0x74, 0x6e, 0x8f, 0xa7, 0x8f, 0xa8,
  0x41, 0xb3, 0x9a, 0x65, 0x9c, 0xb6, 0xb3, 0x7e, 0x52, 0xa0, 0x8d, 0x76,
  0x74, 0xa5, 0xbe, 0x71, 0x99, 0xa9, 0x8b, 0x77, 0x65, 0xba, 0x9b, 0x53,
  0xc7, 0x6e, 0x47, 0x70, 0x8b, 0x9f, 0x43, 0x2e, 0xba, 0x7e, 0x5d, 0x7e,
  0x88, 0x96, 0x69, 0x49, 0xa0, 0x87, 0x46, 0x78, 0x83, 0x80, 0x64, 0x9a,
  0x5f, 0x91, 0x61, 0x73, 0x71, 0x79, 0x61, 0x89, 0x68, 0x8f, 0x6b, 0x93,
  0x4f, 0x6f, 0x54, 0x84, 0x70, 0x7e, 0x54, 0x9d, 0x5d, 0x7d, 0x22, 0x7e,
  0x5f, 0x9d, 0x4b, 0x85, 0x3e, 0x70, 0x51, 0x9a, 0x8c, 0x9e, 0x41, 0x9b,
  0x5e, 0x7c, 0x58, 0x9c, 0x8b, 0x9c, 0x94, 0xb7, 0x58, 0x75, 0x0e, 0x97,
  0x92, 0x9c, 0x6f, 0xab, 0x56, 0x6c, 0x36, 0x8a, 0x9b, 0xb1, 0x69, 0x9b,
  0x3d, 0x8a, 0x77, 0x87, 0x88, 0x80, 0x7e, 0x8e, 0x59, 0x9e, 0x68, 0x80,
  0x7f, 0x8a, 0xaf, 0x97, 0x72, 0x85, 0x51, 0x83, 0x61, 0x73, 0x78, 0x70,
  0x86, 0xab, 0x98, 0x98, 0x72, 0x97, 0xa1, 0x75, 0x94, 0xcd, 0xb4, 0xb1,
  0x6b, 0x9f, 0x71, 0x76, 0xb6, 0x9a, 0x89, 0xb8, 0x2d, 0xa3, 0x7b, 0x47,
  0x8d, 0x9c, 0xb5, 0xbb, 0x40, 0x95, 0x73, 0x6e, 0x90, 0x99, 0xa6, 0x68,
  0x4b, 0x88, 0x6d, 0x55, 0x79, 0xa2, 0x97, 0x5b, 0x91, 0x8f, 0xb5, 0x6d,
  0xa0, 0xb1, 0x82, 0x43, 0xb0, 0x69, 0x93, 0x7f, 0x7d, 0xab, 0x74, 0x2a,
  0x97, 0x7a, 0x61, 0x95, 0xa7, 0x86, 0x6a, 0x60, 0x76, 0x89, 0x5d, 0x69,
  0x71, 0x72, 0x6c, 0x9e, 0x64, 0x9a, 0x88, 0x59, 0x70, 0x71, 0x59, 0x8c,
  0x5f, 0x7f, 0x4e, 0x87, 0x64, 0x7b, 0x4b, 0x8d, 0x83, 0x7d, 0x5b, 0xac,
  0x6b, 0x7a, 0x5b, 0x7b, 0x7b, 0xa9, 0x67, 0x8f, 0x4d, 0x57, 0x3f, 0x97,
  0xa3, 0xa7, 0x8d, 0xba, 0x61, 0x6e, 0x46, 0x80, 0x91, 0xa6, 0x4d, 0x9c,
  0x82, 0x7a, 0x30, 0x97, 0x8f, 0x8f, 0x60, 0xa8, 0x5b, 0x89, 0x34, 0x92,
  0x9b, 0x9f, 0x7d, 0x96, 0x4d, 0x92, 0x76, 0xa7, 0x93, 0xad, 0x87, 0xa0,
  0x6a, 0xbb, 0x73, 0x81, 0x88, 0x61, 0x92, 0x86, 0x5b, 0x85, 0x89, 0x80,
  0x72, 0x65, 0x8f, 0x75, 0x90, 0xb7, 0x94, 0x89, 0x75, 0xa5, 0x9a, 0x83,
  0xbb, 0xb8, 0x9a, 0x9e, 0x70, 0x7d, 0x85, 0x9a, 0xb6, 0xa9, 0x7f, 0xb3,
  0x3c, 0xb4, 0xa2, 0x66, 0x90, 0x99, 0xb5, 0x7d, 0x3c, 0x97, 0x6b, 0x4f,
  0xa1, 0xa0, 0xc0, 0x7a, 0x4f, 0x81, 0x8f, 0x54, 0x99, 0xae, 0xc3, 0x49,
  0x8e, 0x88, 0x6e, 0x58, 0x9a, 0xa9, 0x80, 0x27, 0xb6, 0x7c, 0x73, 0x99,
  0x7e, 0xa1, 0x6d, 0x1c, 0xb5, 0x8a, 0x69, 0x8d, 0x6f, 0x7c, 0x42, 0x6a,
  0x79, 0x96, 0x9b, 0x74, 0x63, 0x67, 0x67, 0x84, 0x62, 0xa1, 0x7f, 0x68,
  0x87, 0x72, 0x5d, 0x9c, 0x64, 0x92, 0x64, 0x95, 0x6e, 0x86, 0x69, 0x8c,
  0x9b, 0x8d, 0x6d, 0xa0, 0x57, 0x68, 0x58, 0x84, 0x9c, 0x94, 0x4b, 0x81,
  0x47, 0x5d, 0x4e, 0xa0, 0x8b, 0x96, 0x6b, 0xa8, 0x50, 0x66, 0x4f, 0xa9,
  0x8c, 0xba, 0x76, 0xbd, 0x7a, 0x5b, 0x10, 0x89, 0x78, 0x89, 0x7c, 0xa4,
  0x78, 0x6a, 0x53, 0x86, 0x79, 0xb0, 0x69, 0x83, 0x5a, 0xab, 0x7c, 0x8c,
  0x9b, 0x94, 0x6f, 0x8c, 0x9a, 0x98, 0x55, 0x8c, 0x6d, 0x57, 0x83, 0x8a,
  0x85, 0x88, 0x81, 0x6e, 0x80, 0x7b, 0x6d, 0x6c, 0x75, 0xae, 0xa3, 0x84,
  0xa1, 0x94, 0x8a, 0x67, 0xc7, 0xbd, 0x99, 0x82, 0x6c, 0x92, 0x65, 0x86,
  0x9a, 0xaf, 0x81, 0xcc, 0x33, 0xa3, 0x56, 0x5d, 0x83, 0xb9, 0xbc, 0xa0,
  0x4e, 0x9f, 0x93, 0x7f, 0x97, 0x94, 0xb2, 0x3d, 0x5a, 0x87, 0x74, 0x6d,
  0x7d, 0xca, 0xc3, 0x56, 0x8d, 0x81, 0x92, 0x5c, 0x8e, 0x9f, 0x88, 0x27,
  0xa6, 0x79, 0x5f, 0x93, 0x7a, 0x90, 0x69, 0x27, 0xb4, 0x65, 0x79, 0x8a,
  0x83, 0x87, 0x4e, 0x4b, 0x71, 0x7a, 0x65, 0x66, 0x8a, 0x78, 0x78, 0x86,
  0x44, 0xa2, 0x7b, 0x6e, 0x8e, 0x74, 0x53, 0x90, 0x6f, 0x7d, 0x59, 0x81,
  0x76, 0x80, 0x50, 0x84, 0x8f, 0x9f, 0x69, 0xae, 0x87, 0x6c, 0x58, 0x85,
  0x87, 0x98, 0x5d, 0x8e, 0x55, 0x4e, 0x25, 0x8b, 0x87, 0x9a, 0x49, 0xb9,
  0x4d, 0x76, 0x37, 0x7b, 0x94, 0x8b, 0x76, 0xaa, 0x79, 0x73, 0x24, 0x91,
  0x70, 0x8a, 0x7b, 0x9d, 0x5b, 0x9f, 0x4a, 0x86, 0x8f, 0xa0, 0x5d, 0x8a,
  0x4c, 0x88, 0x76, 0x88, 0xc0, 0xa6, 0x91, 0x92, 0x74, 0x98, 0x7b, 0x7a,
  0x79, 0x7c, 0xb4, 0x7a, 0x61, 0x70, 0x5f, 0x73, 0x7f, 0x61, 0x76, 0x8f,
  0x83, 0xc7, 0xa3, 0xa6, 0x5b, 0xa3, 0x96, 0x9e, 0x75, 0xb7, 0xa1, 0x8e,
  0x67, 0x8e, 0x72, 0x7e, 0x88, 0xb1, 0x8b, 0xb4, 0x34, 0xa5, 0x77, 0x5c,
  0xba, 0xa5, 0xc5, 0x82, 0x49, 0x92, 0x87, 0x75, 0xb9, 0x9a, 0xc9, 0x7d,
  0x41, 0x75, 0x97, 0x51, 0xa5, 0xa5, 0x9f, 0x4d, 0x86, 0x71, 0x97, 0x4f,
  0x8d, 0x8f, 0x77, 0x01, 0xad, 0x6d, 0x72, 0x76, 0x86, 0xa6, 0x7f, 0x36,
  0xb9, 0x70, 0x86, 0x8c, 0x6b, 0x90, 0x78, 0x4c, 0x67, 0x8f, 0x46, 0x77,
  0x83, 0x84, 0x68, 0x96, 0x5d, 0x73, 0x68, 0x3e, 0x79, 0x87, 0x6a, 0x95,
  0x86, 0x99, 0x8b, 0x79, 0x7d, 0x83, 0x44, 0x8c, 0x90, 0x9a, 0x56, 0x9e,
  0x88, 0x69, 0x71, 0x8e, 0x98, 0xa1, 0x4f, 0xa2, 0x66, 0x7d, 0x5a, 0xa0,
  0xa2, 0x97, 0x37, 0xc2, 0x71, 0x7b, 0x44, 0x91, 0x9c, 0x81, 0x88, 0xc8,
  0x56, 0x74, 0x3c, 0x90, 0x9b, 0x94, 0x43, 0x83, 0x5b, 0x7f, 0x41, 0x77,
  0x90, 0x7d, 0x47, 0x8b, 0x65, 0x95, 0x69, 0x7e, 0x8d, 0xae, 0x70, 0xa6,
  0x8f, 0x91, 0x6c, 0x92, 0x83, 0x7a, 0x94, 0x7d, 0x7a, 0x89, 0x90, 0x6a,
  0x4e, 0x88, 0x59, 0x86, 0x7a, 0xc4, 0x9d, 0xa0, 0x81, 0x9b, 0x9c, 0x6c,
  0xa8, 0xa9, 0xb7, 0x95, 0x8b, 0xa2, 0x7c, 0x88, 0x9a, 0x98, 0x99, 0xca,
  0x5a, 0x92, 0x77, 0x70, 0x9e, 0xb2, 0xcc, 0x9f, 0x69, 0x77, 0x77, 0x73,
  0x98, 0x86, 0xc6, 0x84, 0x2f, 0x86, 0x92, 0x6d, 0xa0, 0x91, 0x8a, 0x35,
  0x86, 0x94, 0x9d, 0x44, 0x96, 0x99, 0x7d, 0x05, 0xae, 0x86, 0x62, 0x6e,
  0x8f, 0x9d, 0x69, 0x1c, 0x9c, 0x5a, 0x74, 0x96, 0x8e, 0x7f, 0x43, 0x4b,
  0x92, 0x89, 0x86, 0x55, 0x85, 0x75, 0x52, 0x92, 0x63, 0x93, 0x6b, 0x83,
  0xaa, 0x7b, 0x4b, 0x95, 0x6e, 0x98, 0x5d, 0xa7, 0x6f, 0x80, 0x62, 0x92,
  0x8f, 0x89, 0x79, 0x9c, 0x67, 0x72, 0x4f, 0xa7, 0x92, 0xa4, 0x81, 0x98,
  0x60, 0x5f, 0x50, 0x91, 0x8a, 0x8c, 0x4f, 0xb1, 0x5f, 0x72, 0x39, 0x9a,
  0x90, 0xa6, 0x89, 0xbc, 0x47, 0x99, 0x1d, 0x7c, 0x80, 0x84, 0x82, 0xb2,
  0x5a, 0x94, 0x51, 0x89, 0xaa, 0xae, 0x4f, 0x9b, 0x7d, 0x75, 0x82, 0x74,
  0x8c, 0x63, 0x99, 0xa7, 0x44, 0xa6, 0x93, 0x74, 0x79, 0x72, 0xa9, 0x75,
  0x5b, 0x8e, 0x7c, 0x83, 0x84, 0x92, 0x5b, 0x8b, 0x98, 0xb7, 0x91, 0x9f,
  0x99, 0x9e, 0x8c, 0x66, 0x92, 0x9c, 0xa1, 0x9d, 0x9a, 0xbb, 0x8a, 0x84,
  0x8c, 0xaa, 0x83, 0xb7, 0x72, 0xce, 0x70, 0x50, 0x77, 0x74, 0xdd, 0x99,
  0x61, 0x9b, 0x51, 0x86, 0x64, 0x90, 0xd9, 0x69, 0x74, 0x80, 0x8d, 0x68,
  0x53, 0x93, 0xab, 0x44, 0x97, 0x95, 0x78, 0x46, 0x72, 0x91, 0x8a, 0x10,
  0xc8, 0x83, 0x44, 0x64, 0x58, 0xb8, 0x8b, 0x0c, 0xa5, 0x90, 0x84, 0x92,
  0x68, 0x8a, 0x70, 0x4d, 0x91, 0x91, 0x6f, 0x76, 0x82, 0x76, 0x76, 0x90,
  0x79, 0x94, 0x78, 0x62, 0x66, 0x6f, 0x5c, 0x96, 0x7f, 0xac, 0x50, 0x95,
  0x9a, 0x6f, 0x49, 0x84, 0x8d, 0x97, 0x83, 0x9c, 0x85, 0x82, 0x6d, 0x90,
  0x89, 0x7d, 0x6a, 0x99, 0x54, 0x7e, 0x73, 0x76, 0xaa, 0x8b, 0x72, 0x8f,
  0x7a, 0x9f, 0x59, 0x7d, 0xb3, 0x8c, 0x74, 0xc9, 0x48, 0x78, 0x5c, 0x6c,
  0x6c, 0x77, 0x7e, 0xa1, 0x49, 0x76, 0x66, 0x76, 0x6b, 0x90, 0x63, 0x87,
  0x48, 0x9c, 0x7f, 0x72, 0x8f, 0x86, 0x65, 0x8d, 0x61, 0x7e, 0x9c, 0x80,
  0x72, 0x54, 0x86, 0x6d, 0x98, 0x82, 0x94, 0x69, 0x8f, 0x92, 0x57, 0x87,
  0x73, 0xb4, 0x78, 0x90, 0x7b, 0xbe, 0x67, 0x86, 0x8d, 0x9b, 0x84, 0x87,
  0x9b, 0x9e, 0x68, 0x8b, 0xa6, 0x9a, 0x70, 0xd3, 0x74, 0xaa, 0x73, 0x7f,
  0x8e, 0x80, 0xa3, 0x8e, 0x5f, 0x9e, 0x65, 0x72, 0x7a, 0xa0, 0x8f, 0x61,
  0x50, 0x8c, 0x66, 0x72, 0x8d, 0x92, 0x7f, 0x4d, 0x95, 0x9a, 0x72, 0x62,
  0x7e, 0x94, 0x82, 0x0d, 0xae, 0x91, 0x59, 0x7a, 0x8f, 0x9c, 0x7b, 0x24,
  0xbc, 0x7d, 0x9d, 0x85, 0x6c, 0xa0, 0x81, 0x5c, 0x88, 0x74, 0x8d, 0x5a,
  0x85, 0x8e, 0x70, 0x92, 0x6e, 0x8e, 0x77, 0x6e, 0x8c, 0x8c, 0x5b, 0x9d,
  0x84, 0x86, 0xa0, 0x82, 0x72, 0x8c, 0x5d, 0x8b, 0x8a, 0x6c, 0x64, 0x9b,
  0x5a, 0x6e, 0x72, 0x9b, 0x8d, 0x77, 0x65, 0x93, 0x9c, 0x66, 0x66, 0x91,
  0x8d, 0x7e, 0x72, 0xa4, 0x94, 0x95, 0x75, 0x85, 0x83, 0x99, 0x83, 0xa3,
  0x8c, 0x8d, 0x76, 0x7e, 0x90, 0x92, 0xa4, 0x92, 0x72, 0x72, 0x6b, 0x79,
  0x73, 0xa8, 0x53, 0x88, 0x91, 0x6e, 0x80, 0x51, 0x86, 0x9b, 0x83, 0x84,
  0x68, 0x76, 0x71, 0x77, 0x63, 0x67, 0x67, 0x64, 0x78, 0x55, 0x85, 0x6f,
  0x99, 0xb9, 0x83, 0x5e, 0xa6, 0x88, 0x8b, 0x79, 0x9b, 0xb3, 0x71, 0x71,
  0x7e, 0x8a, 0x91, 0x70, 0x89, 0xb4, 0x66, 0x8e, 0x74, 0x97, 0x6b, 0xca,
  0x68, 0x94, 0x7a, 0x9a, 0x52, 0x8c, 0x8f, 0xa8, 0xaa, 0x93, 0x40, 0x6e,
  0x4f, 0xa5, 0x9e, 0x6d, 0x97, 0x8d, 0x65, 0x61, 0x65, 0xb5, 0x89, 0x5b,
  0x84, 0x8d, 0x51, 0x66, 0x7b, 0x9c, 0x84, 0x54, 0xb5, 0x70, 0x82, 0x84,
  0x4c, 0xaf, 0x7e, 0x55, 0xa2, 0x8c, 0xa3, 0x98, 0x7a, 0xa4, 0x94, 0x4f,
  0xaa, 0x70, 0x9d, 0x8a, 0x8c, 0x96, 0x8c, 0x8d, 0xa6, 0x8f, 0x6a, 0x82,
  0x80, 0x83, 0x6e, 0x96, 0x88, 0x9d, 0x70, 0x61, 0xaa, 0x74, 0x54, 0x9b,
  0x9a, 0x7d, 0x7f, 0x7c, 0x76, 0x7e, 0x6a, 0x92, 0x93, 0x7e, 0x75, 0xb7,
  0x70, 0x63, 0x66, 0xaa, 0x9b, 0x67, 0x87, 0xb1, 0x8a, 0x7c, 0x70, 0x77,
  0x90, 0xa5, 0x62, 0xbf, 0x92, 0x6e, 0x79, 0x91, 0x7b, 0x76, 0x8e, 0xa6,
  0xa8, 0x49, 0x68, 0x87, 0x96, 0xa0, 0x63, 0x67, 0x82, 0x5f, 0x71, 0x79,
  0x68, 0x8c, 0xab, 0x52, 0x87, 0x3c, 0x6f, 0x84, 0x57, 0x79, 0x74, 0x4e,
  0x9a, 0x25, 0x8c, 0x57, 0x74, 0x64, 0x82, 0x68, 0x74, 0x98, 0x6c, 0x7a,
  0x89, 0x98, 0x7f, 0x6d, 0x80, 0x84, 0xa3, 0x9b, 0x8c, 0x72, 0x79, 0xa1,
  0x9f, 0x82, 0x60, 0x56, 0x99, 0x7f, 0x9f, 0x85, 0xa3, 0x80, 0x69, 0x6a,
  0x95, 0x89, 0x77, 0x71, 0xa4, 0x71, 0x81, 0x73, 0x83, 0x8f, 0x65, 0x82,
  0x9b, 0x7d, 0x8e, 0x8a, 0x83, 0x84, 0x77, 0x61, 0x8a, 0x88, 0x91, 0x90,
  0x82, 0x88, 0x76, 0x65, 0x79, 0x66, 0xae, 0x89, 0x78, 0x71, 0x74, 0x54,
  0x85, 0x99, 0x86, 0x8c, 0x8f, 0x8d, 0x88, 0x96, 0x90, 0x6c, 0xab, 0x79,
  0x97, 0x8b, 0x84, 0x90, 0x9c, 0x94, 0x6a, 0x6f, 0x9e, 0xa8, 0x64, 0x89,
  0x97, 0x7b, 0xa1, 0x6d, 0x91, 0x9a, 0x5c, 0x9a, 0x99, 0x73, 0x83, 0x61,
  0x89, 0x8b, 0x9c, 0xa5, 0xa0, 0x6e, 0x62, 0x9a, 0x76, 0x80, 0x6c, 0x9e,
  0x90, 0xae, 0x5e, 0x8f, 0x80, 0x88, 0x8d, 0x8c, 0x7c, 0x72, 0x85, 0x8f,
  0x89, 0x87, 0xa0, 0x93, 0x74, 0x92, 0x84, 0x86, 0x6c, 0x76, 0x7e, 0x87,
  0x9c, 0x74, 0x8e, 0x5a, 0x9d, 0x8a, 0xa3, 0x6b, 0x89, 0xa9, 0x67, 0x82,
  0xc0, 0x8a, 0x71, 0x8f, 0x77, 0x55, 0x73, 0x73, 0x97, 0x79, 0xa2, 0x8d,
  0x7d, 0x82, 0x70, 0x8b, 0x97, 0x79, 0x8a, 0x7c, 0x93, 0x6c, 0x8a, 0x91,
  0x79, 0xa3, 0x78, 0x7d, 0x92, 0x65, 0x7d, 0x83, 0xa6, 0x84, 0x87, 0x79,
  0x87, 0x63, 0x5c, 0x99, 0x86, 0x7d, 0x48, 0xa5, 0x9d, 0x82, 0x6a, 0x79,
  0x91, 0x63, 0x84, 0x83, 0x72, 0x65, 0x75, 0xa9, 0x8b, 0x90, 0x70, 0x76,
  0x7b, 0x6d, 0x95, 0x98, 0x89, 0x75, 0x80, 0x99, 0x81, 0x6e, 0x65, 0x87,
  0x96, 0x7a, 0x8e, 0x8c, 0x94, 0x50, 0x82, 0xa7, 0x84, 0x7f, 0x89, 0xae,
  0x93, 0x95, 0x62, 0x90, 0x74, 0x86, 0x94, 0x98, 0x92, 0x88, 0x8e, 0x9c,
  0x94, 0x74, 0x88, 0x91, 0x7c, 0x8c, 0x7e, 0x8a, 0x93, 0x77, 0x6d, 0x8f,
  0x76, 0x52, 0x65, 0x83, 0x72, 0x7d, 0x95, 0x89, 0x79, 0x9c, 0x90, 0x7a,
  0x72, 0x85, 0x86, 0x66, 0x84, 0x82, 0x7e, 0x67, 0x8a, 0x9a, 0x71, 0xa8,
  0x92, 0x97, 0x9a, 0x6f, 0x90, 0x6f, 0x81, 0x88, 0x6a, 0x8e, 0x65, 0x83,
  0x75, 0x76, 0x94, 0x9b, 0x75, 0x8b, 0x5b, 0x75, 0x9f, 0x7c, 0x85, 0x87,
  0x6f, 0x83, 0x93, 0x87, 0xd3, 0x67, 0x6e, 0xa5, 0x6c, 0x78, 0x79, 0x77,
  0x5f, 0xa0, 0x79, 0x98, 0xa5, 0xb2, 0xb0, 0x92, 0x88, 0x9d, 0x7a, 0x64,
  0x7d, 0x8d, 0x8e, 0x97, 0x87, 0x8d, 0x71, 0x82, 0x77, 0x6d, 0x94, 0x7a,
  0xac, 0x86, 0x91, 0x99, 0xa2, 0x97, 0x73, 0x7a, 0x9b, 0x76, 0xa7, 0x71,
  0x96, 0x72, 0x53, 0x73, 0x96, 0x6d, 0x7b, 0xb8, 0x85, 0x89, 0x65, 0x7b,
  0x76, 0x8e, 0x76, 0xcc, 0x63, 0x69, 0x72, 0x73, 0x81, 0x61, 0x9c, 0xb8,
  0x9f, 0x69, 0x58, 0x62, 0x97, 0x51, 0x6c, 0xc1, 0x90, 0x7f, 0x82, 0x76,
  0xad, 0x72, 0x84, 0xb7, 0x68, 0x6a, 0x57, 0x85, 0x7b, 0x7c, 0x77, 0xa8,
  0x7c, 0x66, 0x7f, 0x78, 0x77, 0x97, 0x7b, 0x83, 0xa8, 0x7d, 0x5f, 0x9e,
  0x86, 0x7a, 0x60, 0x6d, 0x65, 0x62, 0x82, 0x5d, 0x8b, 0x4c, 0x7b, 0x88,
  0x8f, 0x86, 0x92, 0x7a, 0x84, 0x6c, 0x7d, 0x88, 0x7a, 0x67, 0x88, 0x81,
  0x8d, 0x79, 0x79, 0x84, 0x88, 0x45, 0x6d, 0x72, 0x71, 0x4e, 0x75, 0x74,
  0x73, 0x56, 0x79, 0x79, 0x7a, 0x73, 0x7b, 0x82, 0x75, 0x4c, 0x7b, 0x88,
  0xaf, 0x80, 0x6c, 0x99, 0x85, 0x80, 0x89, 0x91, 0xc3, 0x7c, 0x7b, 0xb5,
  0x79, 0x96, 0x99, 0x7e, 0x5e, 0x95, 0x84, 0x7c, 0x7b, 0x78, 0x9b, 0x84,
  0xaf, 0x5b, 0x9a, 0x78, 0x8b, 0x9a, 0x8c, 0x94, 0xac, 0x96, 0xa8, 0x7d,
  0x7a, 0x8c, 0xaf, 0x8e, 0xbd, 0x94, 0x76, 0x78, 0x8d, 0x9d, 0x86, 0x85,
  0x91, 0x77, 0x72, 0x82, 0x94, 0x8e, 0x90, 0x6d, 0xa5, 0x7e, 0x6a, 0xb0,
  0xa5, 0x9f, 0x6c, 0x8e, 0x91, 0x77, 0x82, 0xda, 0x68, 0x89, 0x4e, 0x71,
  0xa0, 0x5f, 0x6f, 0xaa, 0x9f, 0x80, 0x5b, 0x75, 0xa3, 0x78, 0x78, 0xc0,
  0x9c, 0x76, 0x7f, 0xa4, 0x90, 0x70, 0x9d, 0xa4, 0x9a, 0x4f, 0x8b, 0x79,
  0x91, 0x7d, 0x8f, 0x92, 0x91, 0x6b, 0x86, 0x66, 0x71, 0x7e, 0x78, 0x88,
  0x7d, 0x76, 0x8f, 0x61, 0x7a, 0x7c, 0x81, 0x65, 0x7a, 0x83, 0x9a, 0x7a,
  0x6b, 0x6a, 0x9a, 0x7b, 0x6b, 0x6b, 0x56, 0x86, 0x80, 0x76, 0x71, 0x6c,
  0x80, 0x7e, 0x91, 0x75, 0x84, 0x64, 0x8b, 0x80, 0x66, 0x7b, 0xa0, 0x84,
  0x76, 0x59, 0x84, 0xa4, 0x9b, 0x60, 0xa2, 0x91, 0x5c, 0x6a, 0x7f, 0x7f,
  0x51, 0x54, 0x5d, 0x76, 0x9d, 0x76, 0x56, 0x7c, 0x84, 0x88, 0x7d, 0x94,
  0xb7, 0x95, 0x8c, 0x9c, 0x8b, 0x97, 0x61, 0x6c, 0x94, 0xa3, 0x7b, 0x59,
  0x9a, 0x81, 0x98, 0x6d, 0x75, 0x8d, 0x8c, 0x90, 0x7b, 0x7d, 0x80, 0x8b,
  0xac, 0x8a, 0x70, 0x94, 0x65, 0x8b, 0x6b, 0x56, 0xbf, 0x8a, 0x81, 0x6c,
  0x72, 0x98, 0x91, 0xa0, 0xb9, 0x6e, 0x99, 0x69, 0x84, 0x96, 0x83, 0x7d,
  0xbe, 0x73, 0x92, 0xb7, 0x92, 0xb1, 0x6d, 0x60, 0x96, 0x4e, 0x88, 0xd2,
  0x9f, 0x94, 0x42, 0x8d, 0xa2, 0x41, 0x92, 0xc9, 0x76, 0x74, 0x5d, 0x6b,
  0xaa, 0x70, 0x64, 0xc1, 0x6f, 0x83, 0x4d, 0x76, 0x84, 0x66, 0x76, 0x9f,
  0xb3, 0x69, 0x6e, 0x77, 0x6f, 0x5e, 0x96, 0x85, 0x64, 0x51, 0xa8, 0x97,
  0x7f, 0x7d, 0x91, 0x84, 0xae, 0x45, 0x97, 0x79, 0x80, 0x6e, 0x6f, 0x84,
  0x9f, 0x74, 0x96, 0x95, 0x57, 0x57, 0x73, 0x6b, 0xb7, 0x91, 0x98, 0x6c,
  0x88, 0x65, 0x61, 0x63, 0x5c, 0x8d, 0xb6, 0x70, 0x69, 0x55, 0x84, 0x7e,
  0x94, 0x69, 0xc7, 0x6b, 0x75, 0x58, 0x6a, 0x70, 0x87, 0x62, 0x88, 0x87,
  0x56, 0x65, 0x71, 0x7c, 0x96, 0x5f, 0xa0, 0x76, 0x8d, 0x68, 0x96, 0x91,
  0x6e, 0x75, 0xac, 0x81, 0xb1, 0x73, 0x93, 0xb7, 0x77, 0x8e, 0x51, 0x98,
  0x79, 0x9e, 0x7f, 0x7e, 0x97, 0x4a, 0x95, 0x4d, 0x95, 0x72, 0x8f, 0x70,
  0xa9, 0x7f, 0x82, 0x74, 0xbb, 0x81, 0x61, 0x86, 0x92, 0x8f, 0x79, 0x6c,
  0xc9, 0x85, 0x77, 0x91, 0x6d, 0x90, 0x81, 0x9d, 0xca, 0x84, 0x63, 0x49,
  0x78, 0x82, 0x83, 0x98, 0xcb, 0x62, 0x71, 0xc3, 0x8c, 0xb5, 0x3f, 0x55,
  0xaf, 0x4e, 0x90, 0xf9, 0x93, 0x8d, 0x36, 0x6f, 0xac, 0x58, 0x7c, 0xc3,
  0x95, 0x89, 0x3e, 0x64, 0x97, 0x61, 0x82, 0xd5, 0x99, 0x8e, 0x60, 0x90,
  0x80, 0x62, 0x92, 0x9c, 0x99, 0x77, 0x65, 0x9f, 0x76, 0x60, 0x7e, 0x90,
  0x95, 0x5e, 0x87, 0x72, 0x7c, 0x6d, 0x8b, 0x67, 0x94, 0x54, 0x98, 0x73,
  0x75, 0x5b, 0x8c, 0x71, 0xb8, 0x88, 0x7d, 0x94, 0x66, 0x56, 0xa5, 0x65,
  0x7d, 0x7b, 0x78, 0x7a, 0x84, 0x3d, 0x59, 0x4e, 0x94, 0x82, 0xb8, 0x50,
  0x69, 0x4f, 0x6c, 0x62, 0x89, 0x7e, 0xac, 0x85, 0x70, 0x5e, 0x87, 0x82,
  0x74, 0x59, 0x93, 0x9b, 0x64, 0x6c, 0x89, 0x7f, 0x8d, 0x60, 0x89, 0x6b,
  0x7f, 0x67, 0x4e, 0x99, 0x75, 0x57, 0x5d, 0x73, 0xc2, 0x74, 0x7a, 0xb4,
  0x8e, 0x8e, 0x9d, 0x88, 0x8b, 0x81, 0x94, 0x64, 0xab, 0x6e, 0x7f, 0x55,
  0x72, 0x68, 0x71, 0x9f, 0x88, 0x54, 0x88, 0x83, 0xad, 0x83, 0x98, 0x92,
  0x97, 0xb5, 0x73, 0x79, 0xd7, 0x76, 0xb0, 0x8f, 0xb4, 0x83, 0x9d, 0x63,
  0xa7, 0x54, 0x8a, 0x4b, 0x85, 0x84, 0x88, 0x77, 0xcb, 0x57, 0x80, 0xe9,
  0x7e, 0xa2, 0x38, 0x80, 0xb3, 0x39, 0x8a, 0xfb, 0x64, 0x8d, 0x38, 0x71,
  0xb2, 0x49, 0x7d, 0xc8, 0x8d, 0x84, 0x41, 0x86, 0xbf, 0x58, 0x92, 0xbd,
  0xad, 0x87, 0x60, 0x7a, 0x8b, 0x66, 0x7b, 0x6c, 0x7a, 0x76, 0x5d, 0xa0,
  0x86, 0x49, 0x6d, 0x8a, 0x73, 0x5e, 0xa0, 0x7e, 0x70, 0x74, 0x84, 0x7e,
  0x8d, 0x63, 0x99, 0x93, 0x63, 0x7b, 0x66, 0x5d, 0xaa, 0x8a, 0x97, 0x7a,
  0x6d, 0x61, 0x6b, 0x67, 0x86, 0x90, 0x70, 0x76, 0x88, 0x39, 0x77, 0x52,
  0x86, 0x70, 0x8d, 0x5d, 0x8e, 0x48, 0x8e, 0x55, 0x86, 0x6f, 0xa8, 0x6a,
  0x68, 0x56, 0xb8, 0x8a, 0xa0, 0x3e, 0x9e, 0x84, 0x76, 0x59, 0x61, 0x79,
  0x91, 0x70, 0x83, 0x65, 0x88, 0x38, 0x6e, 0x92, 0x84, 0x64, 0x8a, 0x61,
  0xb6, 0x64, 0x97, 0xac, 0x76, 0x6f, 0x5b, 0x93, 0x76, 0x7b, 0x8e, 0x84,
  0x9a, 0x67, 0x85, 0x67, 0x9a, 0x6e, 0x9e, 0x60, 0x76, 0x78, 0x8c, 0x67,
  0xab, 0x6c, 0x8e, 0xa5, 0x8b, 0xbc, 0x6f, 0x4c, 0xc5, 0x5e, 0x6a, 0x91,
  0x6b, 0x7f, 0x94, 0x70, 0xc3, 0x65, 0x72, 0x5f, 0x71, 0x94, 0x8a, 0x66,
  0xca, 0x47, 0x89, 0xff, 0x9b, 0xba, 0x41, 0x8a, 0xaf, 0x69, 0xb4, 0xd5,
  0x85, 0x96, 0x54, 0x71, 0xad, 0x4b, 0x90, 0xc6, 0x83, 0xac, 0x50, 0x7d,
  0xb1, 0x5b, 0x88, 0xbe, 0x8d, 0x8b, 0x62, 0x8c, 0x6d, 0x64, 0x6e, 0x75,
  0x8f, 0x77, 0x65, 0x88, 0x77, 0x7d, 0x7e, 0x98, 0x9e, 0x65, 0x8c, 0x95,
  0x46, 0x77, 0x8d, 0x5a, 0x9a, 0x64, 0x95, 0x93, 0x62, 0x62, 0x72, 0x6f,
  0xa7, 0x87, 0xac, 0xab, 0x76, 0x3b, 0x74, 0x65, 0x6b, 0x8c, 0x8e, 0x64,
  0x82, 0x4c, 0xae, 0x56, 0x8c, 0x8e, 0x9d, 0x66, 0x90, 0x47, 0x97, 0x6d,
  0x85, 0x85, 0xa7, 0x7e, 0x7c, 0x5e, 0x78, 0x6a, 0x96, 0x44, 0xa3, 0x96,
  0x70, 0x4c, 0xb1, 0x7b, 0x96, 0x63, 0xb5, 0x4f, 0x9b, 0x55, 0x5f, 0x8f,
  0x7a, 0x68, 0x80, 0x73, 0xbb, 0x5a, 0x7f, 0x99, 0x70, 0x79, 0xa2, 0x78,
  0x89, 0x8f, 0x83, 0x88, 0x63, 0x6b, 0x8b, 0x5c, 0x76, 0x6c, 0x88, 0x5d,
  0x96, 0x6e, 0x95, 0x75, 0xb0, 0x73, 0xb3, 0x9b, 0x8a, 0x99, 0x60, 0x7c,
  0xe5, 0x79, 0x93, 0x7a, 0x7f, 0x8b, 0x87, 0x56, 0xc5, 0x67, 0xa3, 0x51,
  0x85, 0x81, 0x74, 0x58, 0xe3, 0x22, 0x71, 0xd7, 0x9d, 0x97, 0x45, 0x7d,
  0xcc, 0x3b, 0xa9, 0xef, 0x89, 0x8d, 0x46, 0x7c, 0xb4, 0x27, 0x63, 0xc1,
  0x7f, 0xa7, 0x43, 0x66, 0xac, 0x4a, 0x8e, 0xba, 0x7b, 0x8b, 0x73, 0x85,
  0x89, 0x69, 0x6f, 0x6c, 0x7e, 0x7f, 0x7a, 0x8b, 0x9f, 0x6b, 0x63, 0x80,
  0x89, 0x64, 0x88, 0x93, 0x56, 0x4c, 0x7f, 0x72, 0x7b, 0x64, 0x94, 0x94,
  0x6f, 0x54, 0x8b, 0x7d, 0xa8, 0x95, 0x9b, 0xa8, 0x6a, 0x4c, 0x87, 0x54,
  0x9d, 0x94, 0x7e, 0x74, 0x7f, 0x43, 0x7c, 0x60, 0x8d, 0x97, 0x80, 0x7c,
  0x99, 0x44, 0x63, 0x5d, 0x9e, 0x74, 0xa8, 0x6f, 0x91, 0x4d, 0xa2, 0x64,
  0x7f, 0x64, 0xab, 0x71, 0x71, 0x4e, 0x73, 0x77, 0x9c, 0x87, 0x95, 0x87,
  0x83, 0x4d, 0x9a, 0x89, 0x5a, 0x60, 0x9c, 0x7a, 0xbd, 0x4b, 0x61, 0xb0,
  0x8d, 0x80, 0x64, 0x98, 0x9b, 0x5f, 0x89, 0x79, 0x6c, 0x54, 0x8e, 0x7a,
  0x88, 0x62, 0x7a, 0x66, 0x8d, 0x68, 0x90, 0x6b, 0xa7, 0x48, 0x7d, 0xa1,
  0x73, 0xb0, 0x68, 0x61, 0xe6, 0x78, 0x52, 0x8e, 0x97, 0x91, 0x7c, 0x69,
  0xca, 0x4e, 0x60, 0x75, 0x94, 0x79, 0x6e, 0x3a, 0xda, 0x52, 0xa0, 0xf1,
  0x79, 0xa4, 0x44, 0x76, 0xb7, 0x35, 0x81, 0xfc, 0x93, 0x87, 0x51, 0x7d,
  0xa1, 0x51, 0x77, 0xb4, 0x92, 0x7d, 0x5f, 0x89, 0x9e, 0x53, 0x9a, 0xc9,
  0x8a, 0x8b, 0x72, 0x9d, 0x77, 0x59, 0x67, 0x6d, 0x95, 0x87, 0x70, 0x79,
  0x83, 0x6c, 0x6d, 0x78, 0x86, 0x6f, 0x8d, 0x91, 0x66, 0x63, 0x6d, 0x7c,
  0xaa, 0x4b, 0x94, 0x98, 0x73, 0x61, 0xbe, 0x6f, 0x77, 0xa5, 0xbc, 0xa4,
  0x5e, 0x45, 0x6c, 0x53, 0x6f, 0x8f, 0xa9, 0x8d, 0x6a, 0x3a, 0x8c, 0x4f,
  0x90, 0x9c, 0x97, 0x85, 0x7b, 0x47, 0x89, 0x6f, 0x8b, 0x7e, 0xb9, 0x7b,
  0x89, 0x3e, 0x8c, 0x6c, 0x75, 0x53, 0xb7, 0x7c, 0x56, 0x51, 0xb6, 0x83,
  0x94, 0x4f, 0xb0, 0x72, 0x77, 0x32, 0x6e, 0x75, 0x82, 0x74, 0x89, 0xa3,
  0xaf, 0x4d, 0x49, 0x9f, 0x72, 0x6d, 0xa8, 0x95, 0x76, 0x74, 0x99, 0xb5,
  0x69, 0x44, 0x80, 0x57, 0x82, 0x61, 0x8b, 0x75, 0x7d, 0x7c, 0x7e, 0x70,
  0xbd, 0x67, 0x73, 0x8f, 0xb3, 0x9c, 0x62, 0x63, 0xba, 0x65, 0x7e, 0x8a,
  0x88, 0xae, 0x79, 0x56, 0xcf, 0x54, 0x7c, 0x5a, 0x83, 0x9f, 0x86, 0x67,
  0xd5, 0x4e, 0x8a, 0xe3, 0x7f, 0xac, 0x6c, 0x78, 0xad, 0x2c, 0x91, 0xe1,
  0x64, 0x9a, 0x54, 0x5b, 0xae, 0x3f, 0x83, 0xbd, 0x6d, 0x86, 0x71, 0x8a,
  0xb8, 0x4a, 0x6d, 0xc3, 0x76, 0x93, 0x72, 0x86, 0x95, 0x6d, 0x97, 0x75,
  0x6b, 0x8c, 0x63, 0x8c, 0x76, 0x77, 0x9a, 0x68, 0x97, 0x85, 0x8c, 0x7e,
  0x77, 0x6b, 0x86, 0x76, 0xab, 0x71, 0xb5, 0x95, 0x5c, 0x6d, 0x91, 0x4e,
  0x98, 0xab, 0xa2, 0x95, 0x4c, 0x4f, 0x59, 0x73, 0x98, 0x9e, 0x98, 0x64,
  0x6f, 0x3f, 0x70, 0x5c, 0xb7, 0x9d, 0x96, 0x7b, 0x8f, 0x3d, 0x8b, 0x6f,
  0xb4, 0x8c, 0xb6, 0x6a, 0x8d, 0x47, 0x81, 0x61, 0xbd, 0x69, 0xa1, 0x84,
  0x7d, 0x4b, 0xa0, 0x7f, 0x75, 0x78, 0x9f, 0x75, 0x90, 0x46, 0x83, 0x96,
  0x7a, 0x61, 0x87, 0x9b, 0xb1, 0x4e, 0x45, 0xac, 0x82, 0x73, 0x70, 0x89,
  0x8c, 0x5e, 0x68, 0x6d, 0x77, 0x79, 0x8f, 0x6f, 0x74, 0x56, 0x8d, 0x97,
  0x8f, 0x83, 0x95, 0x5c, 0xa0, 0x6d, 0x75, 0xab, 0xaf, 0xb4, 0x52, 0x56,
  0xdb, 0x4f, 0x6c, 0x88, 0x8c, 0xa7, 0x87, 0x4d, 0xcc, 0x61, 0x6f, 0x58,
  0x88, 0x99, 0x70, 0x65, 0xda, 0x63, 0xa0, 0xdd, 0x7b, 0x9b, 0x53, 0x69,
  0xa3, 0x2a, 0x83, 0xc5, 0x8e, 0x7b, 0x62, 0x75, 0xae, 0x30, 0x85, 0xe0,
  0x79, 0x90, 0x75, 0x81, 0xa1, 0x47, 0x73, 0xc5, 0x9d, 0xaa, 0x61, 0x81,
  0x91, 0x38, 0x72, 0x8e, 0x75, 0xa4, 0x73, 0x75, 0x79, 0x69, 0x7d, 0x80,
  0x8f, 0x77, 0x9a, 0x88, 0x74, 0x74, 0x88, 0x59, 0x90, 0x7d, 0x98, 0x70,
  0x47, 0x62, 0x8d, 0x5f, 0x9c, 0xa7, 0x9c, 0xad, 0x64, 0x40, 0x96, 0x63,
  0xa3, 0x88, 0x9e, 0x84, 0x82, 0x4b, 0x81, 0x42, 0x98, 0xb2, 0x97, 0x82,
  0x6b, 0x4d, 0x60, 0x69, 0x7e, 0x81, 0xc2, 0x87, 0x94, 0x54, 0xb9, 0x7c,
  0xa6, 0x73, 0xb3, 0x7e, 0x81, 0x56, 0xc0, 0x91, 0x85, 0x6d, 0xa5, 0x84,
  0x84, 0x49, 0x65, 0x95, 0x8a, 0x5f, 0xae, 0xa1, 0xaa, 0x50, 0x66, 0xa3,
  0x5f, 0x6f, 0x9c, 0x8e, 0x86, 0x75, 0x7d, 0x94, 0x9e, 0x59, 0x98, 0x6b,
  0x99, 0x54, 0x9c, 0x6c, 0x7d, 0x7a, 0x8c, 0x69, 0xbe, 0x5b, 0xaa, 0x9f,
  0x8f, 0x97, 0x69, 0x59, 0xdb, 0x51, 0x7d, 0x9a, 0x79, 0x8b, 0x89, 0x3d,
  0xc9, 0x51, 0x8e, 0x4f, 0x99, 0x84, 0x5c, 0x7e, 0xc1, 0x38, 0x95, 0xd8,
  0x8e, 0xa4, 0x61, 0x73, 0xbf, 0x49, 0x6f, 0xd5, 0x8c, 0x9e, 0x5b, 0x76,
  0x9f, 0x3f, 0x86, 0xd5, 0x88, 0x87, 0x68, 0x75, 0xc1, 0x34, 0x7d, 0xce,
  0x79, 0xa9, 0x66, 0x77, 0x95, 0x5f, 0x9c, 0x9b, 0x8d, 0x99, 0x7d, 0x96,
  0x65, 0x74, 0x86, 0x86, 0x97, 0x75, 0x96, 0xa1, 0x60, 0x72, 0xa0, 0x83,
  0x87, 0x72, 0xa9, 0x92, 0x46, 0x6f, 0x84, 0x67, 0x9c, 0x9e, 0x95, 0x9f,
  0x81, 0x53, 0x73, 0x47, 0xa3, 0xa7, 0xa0, 0x7a, 0x6f, 0x2f, 0x8e, 0x6c,
  0xa5, 0xb2, 0x8b, 0x90, 0x6b, 0x3c, 0x77, 0x68, 0xa4, 0xaf, 0xbd, 0x6e,
  0x96, 0x43, 0x78, 0x69, 0xb2, 0x72, 0x99, 0x74, 0x7c, 0x32, 0xcf, 0x6e,
  0x7c, 0x72, 0xa7, 0x83, 0xaa, 0x51, 0x77, 0x77, 0xa6, 0x78, 0x7b, 0x89,
  0xb9, 0x4f, 0x5e, 0xa7, 0x6f, 0x6b, 0xa0, 0x7f, 0x87, 0x87, 0x8c, 0x78,
  0x96, 0x72, 0x9a, 0x61, 0x8c, 0x6b, 0x7b, 0x6b, 0x7f, 0x9e, 0x7c, 0x56,
  0x99, 0x76, 0x95, 0xa7, 0x94, 0xb7, 0x6c, 0x35, 0xb6, 0x68, 0x87, 0x91,
  0xa8, 0x9c, 0x7c, 0x28, 0xc1, 0x51, 0x99, 0x66, 0x9f, 0xa6, 0x7a, 0x66,
  0xc1, 0x56, 0x98, 0xe3, 0x86, 0x91, 0x6e, 0x82, 0xb4, 0x45, 0x8a, 0xd5,
  0x61, 0x87, 0x5a, 0x6d, 0xae, 0x39, 0x72, 0xdc, 0x7a, 0xa4, 0x80, 0x74,
  0xac, 0x4f, 0x85, 0xdd, 0x97, 0xae, 0x5e, 0x8e, 0x91, 0x49, 0x69, 0x8c,
  0x6f, 0x9f, 0x62, 0x92, 0x79, 0x85, 0x54, 0x72, 0x95, 0x78, 0xa1, 0x81,
  0x68, 0x71, 0x7c, 0x92, 0x98, 0x78, 0xb0, 0xa1, 0x6b, 0x83, 0x8c, 0x4a,
  0xa1, 0xa8, 0xb8, 0x92, 0x7d, 0x38, 0xab, 0x87, 0x98, 0xaa, 0x7d, 0x91,
  0x67, 0x48, 0x62, 0x6c, 0x9a, 0x9f, 0xb2, 0x85, 0x6e, 0x46, 0x71, 0x42,
  0xa9, 0x98, 0xac, 0x83, 0x82, 0x49, 0x71, 0x50, 0x7f, 0x8b, 0x8a, 0x8b,
  0x9a, 0x5b, 0x7c, 0x7f, 0x84, 0x7f, 0xa3, 0x97, 0x94, 0x2d, 0xa4, 0x85,
  0x7c, 0x7b, 0x95, 0x95, 0x9b, 0x4b, 0x41, 0xad, 0x81, 0x7f, 0x50, 0x88,
  0x63, 0x67, 0x93, 0x81, 0x9e, 0x67, 0x8a, 0x6f, 0x80, 0x73, 0x9d, 0x7e,
  0x82, 0x94, 0x8f, 0x69, 0x8b, 0x6b, 0x92, 0x8b, 0x8a, 0xab, 0x61, 0x29,
  0xbd, 0x54, 0x7c, 0x97, 0x93, 0x83, 0x69, 0x20, 0xda, 0x64, 0x52, 0x57,
  0xb1, 0xa4, 0x76, 0x85, 0xbb, 0x43, 0xad, 0xcb, 0x9c, 0x9d, 0x62, 0x7a,
  0xc0, 0x48, 0xb8, 0xc7, 0x60, 0x9f, 0x4c, 0x7b, 0xb9, 0x4c, 0xaa, 0xd8,
  0x82, 0x8b, 0x63, 0x7c, 0xa7, 0x1e, 0x68, 0xbb, 0x9b, 0xa9, 0x78, 0x7f,
  0x7b, 0x4f, 0x77, 0xa1, 0x74, 0xa7, 0x80, 0x86, 0x87, 0x6e, 0x79, 0xa5,
  0xb1, 0x78, 0xae, 0x8a, 0x6e, 0x76, 0x92, 0x86, 0xa5, 0x6f, 0xb9, 0x92,
  0x61, 0x6c, 0xad, 0x45, 0xb1, 0x85, 0xa1, 0x76, 0x7b, 0x55, 0x69, 0x86,
  0x93, 0x83, 0x73, 0x8b, 0x7f, 0x40, 0x61, 0x5b, 0x8c, 0xb6, 0x86, 0x7f,
  0x67, 0x38, 0x82, 0x65, 0x97, 0xb4, 0xb9, 0x73, 0x67, 0x31, 0x9d, 0x69,
  0x97, 0x92, 0x9a, 0x90, 0x89, 0x52, 0xc7, 0x6d, 0x9b, 0x72, 0xa7, 0x7e,
  0x98, 0x3c, 0x90, 0x9a, 0x7a, 0x6b, 0x71, 0x7f, 0xa2, 0x70, 0x74, 0xad,
  0x79, 0x72, 0x7b, 0x9b, 0x6f, 0x74, 0x6b, 0x83, 0x7a, 0x66, 0xa1, 0x5d,
  0x5a, 0x71, 0xa3, 0x71, 0x85, 0x8e, 0x82, 0x4a, 0xac, 0x60, 0x91, 0xa1,
  0x7c, 0xaa, 0x59, 0x1d, 0xc6, 0x6c, 0x80, 0xb5, 0x8f, 0x97, 0x77, 0x20,
  0xbc, 0x4e, 0x9a, 0x4e, 0xab, 0x86, 0x69, 0x7c, 0xd8, 0x71, 0x93, 0xd3,
  0x9f, 0x94, 0x70, 0x90, 0xa9, 0x53, 0x91, 0xd7, 0x79, 0xac, 0x4e, 0x73,
  0xb3, 0x24, 0x74, 0xd8, 0x85, 0xa7, 0x7a, 0x85, 0xab, 0x47, 0x74, 0xba,
  0x7f, 0xa9, 0x74, 0x6e, 0x77, 0x4d, 0x8f, 0x97, 0x84, 0xa6, 0x5d, 0x86,
  0x7e, 0x74, 0x68, 0x83, 0x8d, 0x88, 0x94, 0x86, 0x73, 0x6c, 0x85, 0x9e,
  0xae, 0x7e, 0xc0, 0x8a, 0x58, 0x6f, 0x96, 0x55, 0x9f, 0x9a, 0xb5, 0x97,
  0x68, 0x50, 0x5a, 0x7a, 0x94, 0x99, 0x85, 0xa0, 0x6a, 0x32, 0x6b, 0x5c,
  0x8c, 0x9a, 0xa9, 0x79, 0x78, 0x37, 0x80, 0x69, 0x91, 0x9f, 0xb0, 0x67,
  0x6e, 0x50, 0x96, 0x69, 0xb2, 0x94, 0x87, 0x93, 0x8f, 0x43, 0xba, 0x6d,
  0x9e, 0x75, 0xa7, 0x73, 0x91, 0x43, 0x94, 0x72, 0x76, 0x72, 0x7f, 0x87,
  0x9e, 0x61, 0x63, 0x95, 0x6b, 0x83, 0x73, 0x8f, 0xa8, 0x7c, 0x75, 0x68,
  0x69, 0x61, 0x98, 0x87, 0x8a, 0x71, 0x68, 0x77, 0x6e, 0x8b, 0x9c, 0x4a,
  0x8c, 0x6f, 0x8c, 0x8f, 0x75, 0xa9, 0x71, 0x2b, 0xc3, 0x5b, 0x4c, 0xc9,
  0x92, 0xaa, 0x6d, 0x2c, 0xcd, 0x63, 0x79, 0x4f, 0x88, 0xa5, 0x70, 0x90,
  0xbc, 0x5b, 0xb1, 0xcb, 0x9d, 0x96, 0x90, 0x92, 0xaa, 0x5b, 0x9c, 0xe7,
  0x8b, 0x92, 0x64, 0x93, 0xc4, 0x3b, 0x94, 0xd2, 0x77, 0x99, 0x53, 0x6c,
  0xc9, 0x49, 0x80, 0xc7, 0x75, 0x9d, 0x86, 0x78, 0x9d, 0x39, 0x5e, 0x8d,
  0x9f, 0xb6, 0x69, 0x90, 0x7c, 0x77, 0xa7, 0xa5, 0xac, 0x90, 0xa0, 0x8c,
  0x62, 0x5a, 0x9d, 0x9b, 0x95, 0x6a, 0xaf, 0x7f, 0x4d, 0x4c, 0xb4, 0x63,
  0x92, 0x93, 0x7f, 0x81, 0x49, 0x61, 0x70, 0x84, 0x85, 0xa0, 0x77, 0xa5,
  0x6b, 0x4b, 0x88, 0x7d, 0xad, 0xa3, 0x9a, 0x92, 0x71, 0x40, 0x97, 0x76,
  0x8c, 0x99, 0x96, 0x80, 0x74, 0x33, 0x95, 0x73, 0xb8, 0x83, 0x80, 0x78,
  0xa6, 0x56, 0x98, 0x9a, 0x9e, 0x78, 0x94, 0x89, 0x73, 0x39, 0xa0, 0x87,
  0x61, 0x7b, 0x8b, 0x89, 0x89, 0x5e, 0x51, 0x93, 0x84, 0x87, 0x99, 0x87,
  0x74, 0x83, 0x7f, 0xab, 0x4d, 0x5e, 0x82, 0x5b, 0x5f, 0x59, 0x85, 0x78,
  0x8c, 0x89, 0x9f, 0x7d, 0xa6, 0x68, 0x85, 0x9d, 0x7e, 0x9c, 0x76, 0x32,
  0xc3, 0x68, 0x74, 0xa6, 0x8e, 0x93, 0x92, 0x35, 0xba, 0x5f, 0x8a, 0x4f,
  0x8d, 0x8b, 0x65, 0x6e, 0xc2, 0x52, 0x9e, 0xca, 0x90, 0xa1, 0x65, 0x7f,
  0xa8, 0x47, 0x70, 0xe8, 0x8b, 0xa1, 0x70, 0x7b, 0xa1, 0x61, 0x95, 0xce,
  0x68, 0xa6, 0x78, 0x74, 0x9a, 0x56, 0x71, 0xd7, 0x8c, 0xa7, 0x81, 0x77,
  0x74, 0x61, 0x99, 0x90, 0x98, 0x97, 0x7b, 0x85, 0x82, 0x6d, 0x5e, 0x87,
  0x84, 0x78, 0x98, 0x89, 0x5c, 0x66, 0x96, 0x93, 0x91, 0x7a, 0xab, 0x92,
  0x44, 0x58, 0xa5, 0x5c, 0xa7, 0x8f, 0xb3, 0x91, 0x70, 0x62, 0x80, 0x76,
  0x92, 0x8b, 0x85, 0x8e, 0x80, 0x50, 0x5e, 0x81, 0x93, 0x87, 0x8c, 0x71,
  0x7c, 0x48, 0x8b, 0x68, 0xab, 0xa6, 0xc0, 0x72, 0x7f, 0x26, 0x90, 0x77,
  0xa3, 0x97, 0x84, 0x7f, 0x99, 0x52, 0xb7, 0x7f, 0x95, 0x80, 0xa2, 0x9a,
  0x7e, 0x5e, 0xaa, 0x90, 0x8d, 0x8d, 0x6a, 0x95, 0x90, 0x3c, 0x5e, 0x93,
  0x54, 0x8d, 0xa3, 0x84, 0xa6, 0x83, 0x9f, 0x5e, 0x72, 0x64, 0x7e, 0x49,
  0x5f, 0x84, 0x84, 0x91, 0x97, 0x77, 0x97, 0x7b, 0xb0, 0x49, 0x9b, 0x98,
  0x84, 0xb2, 0x69, 0x21, 0xbe, 0x7c, 0x6a, 0xab, 0x6b, 0x96, 0x89, 0x1c,
  0xab, 0x4b, 0x57, 0x32, 0x84, 0x80, 0x75, 0x74, 0xb6, 0x54, 0xa4, 0xe9,
  0x97, 0x8b, 0x9a, 0x9a, 0xa9, 0x5b, 0xa4, 0xe1, 0x6c, 0x91, 0x66, 0x7e,
  0xaa, 0x6e, 0x78, 0xeb, 0x77, 0x9f, 0x6b, 0x74, 0xab, 0x4f, 0x84, 0xc0,
  0x52, 0x9b, 0x6a, 0x81, 0x73, 0x6d, 0x7d, 0x94, 0x62, 0x8f, 0x65, 0x77,
  0x76, 0x77, 0xab, 0xa9, 0x95, 0x7f, 0xa2, 0x82, 0x63, 0x5d, 0x84, 0x8e,
  0xb4, 0x84, 0xc3, 0x8c, 0x73, 0x6f, 0xa5, 0x3d, 0xc2, 0x85, 0xa7, 0x84,
  0x69, 0x62, 0x84, 0x7b, 0xa2, 0x89, 0x7a, 0x9a, 0x67, 0x57, 0x6e, 0x7a,
  0x79, 0x97, 0x93, 0x98, 0x84, 0x58, 0x82, 0x82, 0xb2, 0x81, 0x85, 0x70,
  0x7b, 0x41, 0x7f, 0x6a, 0x98, 0x81, 0x98, 0x85, 0x75, 0x63, 0x87, 0x90,
  0x92, 0x8c, 0x8b, 0x8b, 0x71, 0x45, 0xa7, 0x90, 0x77, 0x7b, 0x95, 0x87,
  0x88, 0x54, 0x72, 0x93, 0x79, 0x87, 0x78, 0x72, 0x8c, 0x70, 0x80, 0x84,
  0x93, 0x6c, 0x8d, 0x45, 0x47, 0x7e, 0x65, 0x8a, 0x91, 0x82, 0x8e, 0x59,
  0x99, 0x58, 0x5a, 0x8f, 0x6b, 0xbc, 0x6b, 0x36, 0xbd, 0x66, 0x58, 0x96,
  0x74, 0xb9, 0x87, 0x2b, 0xb0, 0x65, 0x97, 0x63, 0x8c, 0x83, 0x6e, 0x71,
  0xc6, 0x69, 0x75, 0xe2, 0x73, 0xac, 0x9a, 0x9e, 0xa4, 0x47, 0x8f, 0xeb,
  0x86, 0x8b, 0x78, 0x9d, 0xa6, 0x55, 0x7c, 0xed, 0x91, 0x94, 0x7a, 0x72,
  0xb1, 0x63, 0x7f, 0xc0, 0x86, 0xa3, 0x7c, 0x62, 0x81, 0x75, 0x8a, 0x78,
  0x8c, 0x94, 0x61, 0x82, 0x70, 0x6e, 0x87, 0x8a, 0x87, 0x90, 0xa0, 0x8c,
  0x55, 0x66, 0x5e, 0x86, 0x9b, 0x83, 0x9f, 0x79, 0x7e, 0x87, 0xad, 0x4e,
  0xb8, 0x71, 0x97, 0x8f, 0x5c, 0x59, 0x72, 0x6d, 0xaa, 0x6d, 0x5b, 0x85,
  0x5d, 0x55, 0x86, 0x71, 0x91, 0xa8, 0x80, 0x7d, 0x7f, 0x4b, 0x81, 0x63,
  0x7b, 0x9a, 0x8f, 0x81, 0x70, 0x4a, 0x78, 0x7d, 0x9b, 0xae, 0x93, 0x71,
  0x99, 0x64, 0x7f, 0x88, 0xae, 0x7c, 0x9d, 0x82, 0x88, 0x69, 0x90, 0x9b,
  0x94, 0x79, 0xad, 0x91, 0x87, 0x64, 0x62, 0x8d, 0x62, 0x80, 0x6c, 0x81,
  0x78, 0x69, 0x87, 0x7d, 0x89, 0x92, 0x8c, 0x46, 0x75, 0x8e, 0xa5, 0x80,
  0x81, 0x61, 0x98, 0x6d, 0x97, 0x59, 0xa5, 0x95, 0x70, 0xb8, 0x77, 0x25,
  0xa2, 0x69, 0x87, 0x8e, 0x94, 0x98, 0x82, 0x15, 0xaf, 0x63, 0x6e, 0x64,
  0x7e, 0x87, 0x7d, 0x8e, 0xaf, 0x4a, 0x70, 0xc8, 0x75, 0x90, 0x7c, 0xa2,
  0x97, 0x4b, 0x91, 0xf0, 0x8c, 0x83, 0x61, 0x8f, 0xc2, 0x61, 0xa1, 0xd2,
  0x88, 0x9a, 0x6a, 0x84, 0xbd, 0x5d, 0x67, 0xbf, 0x7f, 0x9b, 0x80, 0x63,
  0x6b, 0x65, 0x70, 0x91, 0x91, 0x93, 0x5b, 0x91, 0x7b, 0x5e, 0x94, 0x7b,
  0x6a, 0x87, 0xbc, 0x8a, 0x78, 0x5f, 0x7e, 0x6d, 0x7e, 0x82, 0x9d, 0x92,
  0x89, 0x8c, 0xa7, 0x43, 0xad, 0x85, 0xab, 0x7e, 0x6b, 0x63, 0x6a, 0x79,
  0x8a, 0xa1, 0x7d, 0x90, 0x70, 0x59, 0x93, 0x8d, 0x96, 0xa1, 0x8b, 0x88,
  0x92, 0x5c, 0x7c, 0x8b, 0x64, 0x94, 0x9b, 0x76, 0x93, 0x5a, 0x7a, 0x5d,
  0x91, 0x87, 0x93, 0x6f, 0xa1, 0x51, 0x79, 0x93, 0x87, 0x8a, 0x74, 0x80,
  0x82, 0x62, 0x88, 0x97, 0x8b, 0x78, 0xa1, 0x97, 0x92, 0x6e, 0x60, 0x90,
  0x71, 0x9b, 0x9d, 0x6f, 0x5c, 0x8a, 0x6a, 0x98, 0x80, 0x6a, 0x9b, 0x41,
  0x81, 0x83, 0x85, 0x9d, 0x71, 0x6d, 0x8f, 0x63, 0xaf, 0x7e, 0xa8, 0x8e,
  0x84, 0xa5, 0x74, 0x32, 0xb4, 0x45, 0x51, 0x92, 0x77, 0xb5, 0x6f, 0x19,
  0xa5, 0x61, 0x93, 0x4f, 0x95, 0x77, 0x7d, 0x79, 0xcb, 0x5e, 0xa7, 0xc5,
  0x83, 0x82, 0x67, 0x97, 0x97, 0x82, 0x92, 0xd6, 0x87, 0x99, 0x78, 0x82,
  0xa8, 0x4f, 0x74, 0xcd, 0x92, 0x8b, 0x66, 0x7d, 0x98, 0x73, 0x76, 0xc2,
  0x7a, 0x99, 0x5a, 0x68, 0x8a, 0x70, 0x72, 0x82, 0x86, 0x96, 0x62, 0x96,
  0x87, 0x7d, 0x9b, 0x8e, 0x88, 0x78, 0xa3, 0x8e, 0x5f, 0x6e, 0xab, 0x78,
  0x82, 0x9d, 0xa7, 0x83, 0x7d, 0x6d, 0xc2, 0x55, 0x9a, 0x8f, 0x8c, 0x91,
  0x71, 0x5e, 0x7b, 0x74, 0x89, 0x9a, 0x6c, 0x77, 0x5a, 0x6b, 0x73, 0x6a,
  0x7c, 0x94, 0x89, 0x90, 0x87, 0x6b, 0x9a, 0x70, 0x8a, 0x95, 0x8d, 0x64,
  0x6c, 0x46, 0x81, 0x58, 0x86, 0x89, 0xaf, 0x7c, 0x9e, 0x6b, 0x76, 0x91,
  0x71, 0x60, 0x91, 0x7b, 0x83, 0x51, 0x8c, 0xa1, 0x87, 0x8e, 0xab, 0x8f,
  0x8d, 0x75, 0x81, 0x90, 0x73, 0x80, 0x5b, 0x8f, 0x51, 0x7f, 0x68, 0x78,
  0x78, 0x83, 0x96, 0x3b, 0x93, 0x7a, 0x8f, 0x6a, 0x9c, 0x84, 0x8e, 0x76,
  0xa1, 0x7d, 0x75, 0x7a, 0xa8, 0xc0, 0x74, 0x26, 0xc0, 0x79, 0x5f, 0x76,
  0x61, 0xa2, 0x9d, 0x2e, 0xa8, 0x5b, 0x6d, 0x77, 0xa1, 0x99, 0x92, 0x8d,
  0xd3, 0x57, 0x85, 0xd0, 0xaf, 0x88, 0x92, 0x8a, 0xa3, 0x6f, 0xa6, 0xd9,
  0x7a, 0x8b, 0x89, 0x85, 0xba, 0x54, 0xa0, 0xb7, 0x59, 0xae, 0x84, 0x78,
